{
  "version": "1.0",
  "truncation": null,
  "padding": null,
  "added_tokens": [
    {
      "id": 0,
      "content": "[PAD]",
      "single_word": false,
      "lstrip": false,
      "rstrip": false,
      "normalized": false,
      "special": true
    },
    {
      "id": 1,
      "content": "[UNK]",
      "single_word": false,
      "lstrip": false,
      "rstrip": false,
      "normalized": false,
      "special": true
    },
    {
      "id": 2,
      "content": "[CLS]",
      "single_word": false,
      "lstrip": false,
      "rstrip": false,
      "normalized": false,
      "special": true
    },
    {
      "id": 3,
      "content": "[SEP]",
      "single_word": false,
      "lstrip": false,
      "rstrip": false,
      "normalized": false,
      "special": true
    },
    {
      "id": 4,
      "content": "[MASK]",
      "single_word": false,
      "lstrip": false,
      "rstrip": false,
      "normalized": false,
      "special": true
    }
  ],
  "normalizer": null,
  "pre_tokenizer": {
    "type": "Whitespace"
  },
  "post_processor": {
    "type": "TemplateProcessing",
    "single": [
      {
        "SpecialToken": {
          "id": "[CLS]",
          "type_id": 0
        }
      },
      {
        "Sequence": {
          "id": "A",
          "type_id": 0
        }
      },
      {
        "SpecialToken": {
          "id": "[SEP]",
          "type_id": 0
        }
      }
    ],
    "pair": [
      {
        "Sequence": {
          "id": "A",
          "type_id": 0
        }
      },
      {
        "Sequence": {
          "id": "B",
          "type_id": 1
        }
      }
    ],
    "special_tokens": {
      "[CLS]": {
        "id": "[CLS]",
        "ids": [
          2
        ],
        "tokens": [
          "[CLS]"
        ]
      },
      "[SEP]": {
        "id": "[SEP]",
        "ids": [
          3
        ],
        "tokens": [
          "[SEP]"
        ]
      }
    }
  },
  "decoder": null,
  "model": {
    "type": "WordPiece",
    "unk_token": "[UNK]",
    "continuing_subword_prefix": "##",
    "max_input_chars_per_word": 100,
    "vocab": {
      "[PAD]": 0,
      "[UNK]": 1,
      "[CLS]": 2,
      "[SEP]": 3,
      "[MASK]": 4,
      "!": 5,
      "\"": 6,
      "#": 7,
      "$": 8,
      "%": 9,
      "&": 10,
      "'": 11,
      "(": 12,
      ")": 13,
      "*": 14,
      "+": 15,
      ",": 16,
      "-": 17,
      ".": 18,
      "/": 19,
      "0": 20,
      "1": 21,
      "2": 22,
      "3": 23,
      "4": 24,
      "5": 25,
      "6": 26,
      "7": 27,
      "8": 28,
      "9": 29,
      ":": 30,
      ";": 31,
      "=": 32,
      "?": 33,
      "@": 34,
      "A": 35,
      "B": 36,
      "C": 37,
      "D": 38,
      "E": 39,
      "F": 40,
      "G": 41,
      "H": 42,
      "I": 43,
      "J": 44,
      "K": 45,
      "L": 46,
      "M": 47,
      "N": 48,
      "O": 49,
      "P": 50,
      "Q": 51,
      "R": 52,
      "S": 53,
      "T": 54,
      "U": 55,
      "V": 56,
      "W": 57,
      "X": 58,
      "Y": 59,
      "Z": 60,
      "[": 61,
      "\\": 62,
      "]": 63,
      "^": 64,
      "_": 65,
      "`": 66,
      "a": 67,
      "b": 68,
      "c": 69,
      "d": 70,
      "e": 71,
      "f": 72,
      "g": 73,
      "h": 74,
      "i": 75,
      "j": 76,
      "k": 77,
      "l": 78,
      "m": 79,
      "n": 80,
      "o": 81,
      "p": 82,
      "q": 83,
      "r": 84,
      "s": 85,
      "t": 86,
      "u": 87,
      "v": 88,
      "w": 89,
      "x": 90,
      "y": 91,
      "z": 92,
      "{": 93,
      "|": 94,
      "}": 95,
      "~": 96,
      "£": 97,
      "¦": 98,
      "¨": 99,
      "«": 100,
      "¬": 101,
      "´": 102,
      "º": 103,
      "»": 104,
      "À": 105,
      "Ç": 106,
      "Ï": 107,
      "Ð": 108,
      "Ý": 109,
      "ß": 110,
      "à": 111,
      "á": 112,
      "â": 113,
      "ã": 114,
      "ä": 115,
      "å": 116,
      "ç": 117,
      "è": 118,
      "é": 119,
      "ê": 120,
      "ë": 121,
      "í": 122,
      "ñ": 123,
      "ó": 124,
      "ô": 125,
      "ö": 126,
      "÷": 127,
      "ø": 128,
      "ù": 129,
      "ú": 130,
      "û": 131,
      "č": 132,
      "Ŕ": 133,
      "š": 134,
      "Ŧ": 135,
      "ƪ": 136,
      "ʃ": 137,
      "ˆ": 138,
      "̅": 139,
      "̊": 140,
      "̥": 141,
      "̲": 142,
      "̶": 143,
      "Δ": 144,
      "Λ": 145,
      "έ": 146,
      "ί": 147,
      "α": 148,
      "γ": 149,
      "η": 150,
      "θ": 151,
      "ι": 152,
      "κ": 153,
      "λ": 154,
      "μ": 155,
      "ν": 156,
      "ο": 157,
      "π": 158,
      "ρ": 159,
      "ς": 160,
      "σ": 161,
      "τ": 162,
      "φ": 163,
      "ό": 164,
      "ಠ": 165,
      "ก": 166,
      "ข": 167,
      "ง": 168,
      "จ": 169,
      "ญ": 170,
      "ต": 171,
      "ท": 172,
      "น": 173,
      "บ": 174,
      "ป": 175,
      "ผ": 176,
      "ม": 177,
      "ย": 178,
      "ร": 179,
      "ส": 180,
      "ห": 181,
      "อ": 182,
      "ะ": 183,
      "ั": 184,
      "า": 185,
      "ิ": 186,
      "ึ": 187,
      "ื": 188,
      "ู": 189,
      "เ": 190,
      "ใ": 191,
      "ไ": 192,
      "็": 193,
      "้": 194,
      "ღ": 195,
      "‎": 196,
      "—": 197,
      "’": 198,
      "“": 199,
      "”": 200,
      "•": 201,
      "…": 202,
      "‿": 203,
      "€": 204,
      "∗": 205,
      "◕": 206,
      "◠": 207,
      "◡": 208,
      "☀": 209,
      "★": 210,
      "☛": 211,
      "☯": 212,
      "☹": 213,
      "☺": 214,
      "☼": 215,
      "♡": 216,
      "♥": 217,
      "♪": 218,
      "✔": 219,
      "✽": 220,
      "✿": 221,
      "❤": 222,
      "⬅": 223,
      "": 224,
      "": 225,
      "": 226,
      "": 227,
      "": 228,
      "": 229,
      "": 230,
      "": 231,
      "": 232,
      "": 233,
      "": 234,
      "": 235,
      "": 236,
      "": 237,
      "": 238,
      "": 239,
      "": 240,
      "": 241,
      "": 242,
      "": 243,
      "": 244,
      "": 245,
      "": 246,
      "￼": 247,
      "##h": 248,
      "##i": 249,
      "##c": 250,
      "##k": 251,
      "##I": 252,
      "##S": 253,
      "##n": 254,
      "##t": 255,
      "##e": 256,
      "##d": 257,
      "##r": 258,
      "##o": 259,
      "##s": 260,
      "##y": 261,
      "##v": 262,
      "##a": 263,
      "##m": 264,
      "##p": 265,
      "##w": 266,
      "##l": 267,
      "##g": 268,
      "##z": 269,
      "##O": 270,
      "##b": 271,
      "##1": 272,
      "##x": 273,
      "##G": 274,
      "##H": 275,
      "##L": 276,
      "##E": 277,
      "##u": 278,
      "##V": 279,
      "##R": 280,
      "##Y": 281,
      "##D": 282,
      "##A": 283,
      "##_": 284,
      "##M": 285,
      "##N": 286,
      "##P": 287,
      "##U": 288,
      "##2": 289,
      "##T": 290,
      "##^": 291,
      "##f": 292,
      "##W": 293,
      "##j": 294,
      "##B": 295,
      "##C": 296,
      "##.": 297,
      "##\\": 298,
      "##0": 299,
      "##6": 300,
      "##K": 301,
      "##F": 302,
      "##)": 303,
      "##*": 304,
      "##-": 305,
      "##&": 306,
      "##J": 307,
      "##!": 308,
      "##?": 309,
      "##”": 310,
      "##8": 311,
      "##3": 312,
      "##X": 313,
      "##á": 314,
      "##7": 315,
      "##5": 316,
      "##'": 317,
      "##:": 318,
      "##9": 319,
      "##έ": 320,
      "##ρ": 321,
      "##α": 322,
      "##(": 323,
      "##Z": 324,
      "##\"": 325,
      "##4": 326,
      "##♥": 327,
      "##∗": 328,
      "##✽": 329,
      "##☼": 330,
      "##q": 331,
      "##@": 332,
      "##é": 333,
      "##=": 334,
      "##—": 335,
      "##«": 336,
      "###": 337,
      "##/": 338,
      "##å": 339,
      "##ø": 340,
      "##~": 341,
      "##ö": 342,
      "##ù": 343,
      "##": 344,
      "##★": 345,
      "##è": 346,
      "##Q": 347,
      "##κ": 348,
      "##ό": 349,
      "##μ": 350,
      "##η": 351,
      "##ê": 352,
      "##ã": 353,
      "##¨": 354,
      "##$": 355,
      "##;": 356,
      "##ν": 357,
      "##¬": 358,
      "##◠": 359,
      "##◡": 360,
      "##,": 361,
      "##￼": 362,
      "##â": 363,
      "##ç": 364,
      "##Ŕ": 365,
      "##Ï": 366,
      "##Ð": 367,
      "##Λ": 368,
      "##Ý": 369,
      "##": 370,
      "##ß": 371,
      "##ι": 372,
      "##º": 373,
      "##": 374,
      "##í": 375,
      "##": 376,
      "##": 377,
      "##": 378,
      "##ข": 379,
      "##า": 380,
      "##จ": 381,
      "##ะ": 382,
      "##เ": 383,
      "##ผ": 384,
      "##ม": 385,
      "##ึ": 386,
      "##ง": 387,
      "##ก": 388,
      "##็": 389,
      "##ย": 390,
      "##อ": 391,
      "##ต": 392,
      "##ไ": 393,
      "##ป": 394,
      "##ส": 395,
      "##ิ": 396,
      "##ñ": 397,
      "##]": 398,
      "##": 399,
      "##ั": 400,
      "##ื": 401,
      "##น": 402,
      "##ใ": 403,
      "##}": 404,
      "##ร": 405,
      "##ท": 406,
      "##ë": 407,
      "##ó": 408,
      "##✿": 409,
      "##ο": 410,
      "##λ": 411,
      "##ί": 412,
      "##τ": 413,
      "##ς": 414,
      "##•": 415,
      "##`": 416,
      "##": 417,
      "##[": 418,
      "##š": 419,
      "##❤": 420,
      "##": 421,
      "##ƪ": 422,
      "##̅": 423,
      "##̲": 424,
      "##̶": 425,
      "##̥": 426,
      "##̊": 427,
      "##ä": 428,
      "##|": 429,
      "##à": 430,
      "##♪": 431,
      "##☀": 432,
      "##ู": 433,
      "##้": 434,
      "##ห": 435,
      "##ญ": 436,
      "##◕": 437,
      "##ô": 438,
      "##บ": 439,
      "##": 440,
      "##☺": 441,
      "##û": 442,
      "##ಠ": 443,
      "##%": 444,
      "##in": 445,
      "##he": 446,
      "##ing": 447,
      "##er": 448,
      "##or": 449,
      "##ou": 450,
      "to": 451,
      "##ed": 452,
      "##at": 453,
      "##en": 454,
      "##on": 455,
      "##st": 456,
      "##an": 457,
      "the": 458,
      "##ar": 459,
      "##ll": 460,
      "##ay": 461,
      "##es": 462,
      "##it": 463,
      "##is": 464,
      "an": 465,
      "##om": 466,
      "##as": 467,
      "##ee": 468,
      "th": 469,
      "##ot": 470,
      "##ow": 471,
      "##re": 472,
      "my": 473,
      "##ve": 474,
      "in": 475,
      "##ri": 476,
      "of": 477,
      "##le": 478,
      "##ad": 479,
      "and": 480,
      "##et": 481,
      "##gh": 482,
      "##..": 483,
      "you": 484,
      "##oo": 485,
      "be": 486,
      "##ck": 487,
      "for": 488,
      "##ut": 489,
      "##day": 490,
      "##ght": 491,
      "##ch": 492,
      "##al": 493,
      "##ly": 494,
      "ha": 495,
      "##id": 496,
      "is": 497,
      "re": 498,
      "##all": 499,
      "st": 500,
      "##am": 501,
      "##ce": 502,
      "##ent": 503,
      "##ight": 504,
      "...": 505,
      "me": 506,
      "on": 507,
      "##ir": 508,
      "##hen": 509,
      "##ess": 510,
      "it": 511,
      "##ra": 512,
      "##ke": 513,
      "lo": 514,
      "##ld": 515,
      "##ome": 516,
      "##se": 517,
      "li": 518,
      "##ur": 519,
      "##ver": 520,
      "##ear": 521,
      "##ith": 522,
      "##eel": 523,
      "##pp": 524,
      "##im": 525,
      "##ally": 526,
      "was": 527,
      "##ion": 528,
      "##ct": 529,
      "feel": 530,
      "with": 531,
      "am": 532,
      "that": 533,
      "##un": 534,
      "##ust": 535,
      "##orr": 536,
      "this": 537,
      "at": 538,
      "not": 539,
      "so": 540,
      "##ic": 541,
      "sh": 542,
      "##her": 543,
      "have": 544,
      "wor": 545,
      "##el": 546,
      "##op": 547,
      "##ter": 548,
      "##end": 549,
      "##out": 550,
      "today": 551,
      "##ul": 552,
      "##ill": 553,
      "ab": 554,
      "##nd": 555,
      "##ro": 556,
      "##one": 557,
      "##ate": 558,
      "##orrow": 559,
      "wh": 560,
      "When": 561,
      "##ak": 562,
      "The": 563,
      "##!!": 564,
      "qu": 565,
      "tom": 566,
      "day": 567,
      "##us": 568,
      "love": 569,
      "##ant": 570,
      "##ie": 571,
      "tomorrow": 572,
      "ex": 573,
      "##ack": 574,
      "de": 575,
      "ch": 576,
      "go": 577,
      "##ol": 578,
      "##est": 579,
      "do": 580,
      "ne": 581,
      "al": 582,
      "##ast": 583,
      "##ood": 584,
      "up": 585,
      "##oy": 586,
      "##th": 587,
      "se": 588,
      "##ime": 589,
      "just": 590,
      "##and": 591,
      "##il": 592,
      "af": 593,
      "##our": 594,
      "about": 595,
      "get": 596,
      "..": 597,
      "Th": 598,
      "##ful": 599,
      "##mas": 600,
      "out": 601,
      "fr": 602,
      "now": 603,
      "##ore": 604,
      "##rist": 605,
      "com": 606,
      "work": 607,
      "##ab": 608,
      "##ry": 609,
      "quot": 610,
      "##riend": 611,
      "##ook": 612,
      "as": 613,
      "when": 614,
      "her": 615,
      "he": 616,
      "##art": 617,
      "Ch": 618,
      "really": 619,
      "##ind": 620,
      "##ristmas": 621,
      "##ain": 622,
      "feeling": 623,
      "un": 624,
      "##um": 625,
      "all": 626,
      "My": 627,
      "le": 628,
      "your": 629,
      "time": 630,
      "##ving": 631,
      "##ting": 632,
      "##ag": 633,
      "##ould": 634,
      "##ation": 635,
      "##ning": 636,
      "##ery": 637,
      "can": 638,
      "like": 639,
      "we": 640,
      "fa": 641,
      "en": 642,
      "home": 643,
      "##iss": 644,
      "sp": 645,
      "##way": 646,
      "##ous": 647,
      "##other": 648,
      "##ake": 649,
      "don": 650,
      "are": 651,
      "##ass": 652,
      "##ers": 653,
      "im": 654,
      "##ard": 655,
      "##uck": 656,
      "##eep": 657,
      "very": 658,
      "##ist": 659,
      "no": 660,
      "con": 661,
      "##ff": 662,
      "bl": 663,
      "##raid": 664,
      "pe": 665,
      "cl": 666,
      "##ud": 667,
      "##ound": 668,
      "back": 669,
      "##ha": 670,
      "##ick": 671,
      "afraid": 672,
      "##ople": 673,
      "##ong": 674,
      "##eek": 675,
      "##od": 676,
      "from": 677,
      "night": 678,
      "##ool": 679,
      "##ig": 680,
      "some": 681,
      "right": 682,
      "##ank": 683,
      "friend": 684,
      "##em": 685,
      "but": 686,
      "##own": 687,
      "##fe": 688,
      "kn": 689,
      "It": 690,
      "##ated": 691,
      "had": 692,
      "week": 693,
      "##ell": 694,
      "Christmas": 695,
      "happ": 696,
      "Re": 697,
      "##ive": 698,
      "##ame": 699,
      "##ice": 700,
      "##ish": 701,
      "tr": 702,
      "##ap": 703,
      "##pr": 704,
      "##os": 705,
      "good": 706,
      "##reat": 707,
      "##ven": 708,
      "##ink": 709,
      "fin": 710,
      "##chool": 711,
      "##ester": 712,
      "people": 713,
      "gr": 714,
      "pl": 715,
      "amp": 716,
      "##ied": 717,
      "hear": 718,
      "mad": 719,
      "!!": 720,
      "got": 721,
      "sl": 722,
      "ever": 723,
      "seen": 724,
      "ag": 725,
      "##ely": 726,
      "tw": 727,
      "Wh": 728,
      "##esterday": 729,
      "##ait": 730,
      "!!!": 731,
      "off": 732,
      "hour": 733,
      "less": 734,
      "yesterday": 735,
      "su": 736,
      "school": 737,
      "##au": 738,
      "##ft": 739,
      "by": 740,
      "##na": 741,
      "##ect": 742,
      "did": 743,
      "see": 744,
      "##ond": 745,
      "He": 746,
      "##oll": 747,
      "##ine": 748,
      "she": 749,
      "##eet": 750,
      "look": 751,
      "##ge": 752,
      "been": 753,
      "his": 754,
      "##atch": 755,
      "over": 756,
      "##night": 757,
      ":)": 758,
      "##hing": 759,
      "##ile": 760,
      "car": 761,
      "##ea": 762,
      "know": 763,
      "##ways": 764,
      "##aking": 765,
      "going": 766,
      "St": 767,
      "##ber": 768,
      "##alk": 769,
      "....": 770,
      "mo": 771,
      "##ue": 772,
      "sc": 773,
      "##irl": 774,
      "mor": 775,
      "##ble": 776,
      "sa": 777,
      "mom": 778,
      "more": 779,
      "You": 780,
      "will": 781,
      "##ure": 782,
      "##hed": 783,
      "##ite": 784,
      "always": 785,
      "comp": 786,
      "br": 787,
      "wait": 788,
      "Ha": 789,
      "##ment": 790,
      "##pt": 791,
      "##ity": 792,
      "one": 793,
      "##able": 794,
      "##irst": 795,
      "##ock": 796,
      "what": 797,
      "year": 798,
      "##ip": 799,
      "tonight": 800,
      "they": 801,
      "want": 802,
      "##ort": 803,
      ":(": 804,
      "##uch": 805,
      "##ings": 806,
      "##itt": 807,
      "who": 808,
      "ang": 809,
      "##ac": 810,
      "morning": 811,
      "##xt": 812,
      "too": 813,
      "girl": 814,
      "ar": 815,
      "pr": 816,
      "hate": 817,
      "##ily": 818,
      "##ork": 819,
      "dis": 820,
      "##essed": 821,
      "again": 822,
      "##ild": 823,
      "##ss": 824,
      "miss": 825,
      "pro": 826,
      "start": 827,
      "happy": 828,
      "sleep": 829,
      "bit": 830,
      "man": 831,
      "##ance": 832,
      "##ise": 833,
      "down": 834,
      "every": 835,
      "aw": 836,
      "##ose": 837,
      "app": 838,
      "great": 839,
      "sm": 840,
      "life": 841,
      "sad": 842,
      "##ne": 843,
      "##ather": 844,
      "##ady": 845,
      "exc": 846,
      "gl": 847,
      "##to": 848,
      "##dom": 849,
      "##az": 850,
      "##per": 851,
      "##ies": 852,
      "think": 853,
      "##hh": 854,
      "##ark": 855,
      "after": 856,
      "ad": 857,
      "gu": 858,
      "##ath": 859,
      "first": 860,
      "##ull": 861,
      "##ough": 862,
      "##isdom": 863,
      "any": 864,
      "##ide": 865,
      "much": 866,
      "exam": 867,
      "That": 868,
      "ll": 869,
      "##nt": 870,
      "##leas": 871,
      "new": 872,
      "heart": 873,
      "##ost": 874,
      "##omet": 875,
      "getting": 876,
      "Rev": 877,
      "##ually": 878,
      "##ents": 879,
      "##orry": 880,
      "excit": 881,
      "co": 882,
      "che": 883,
      "ro": 884,
      "##Run": 885,
      "##Wisdom": 886,
      "hours": 887,
      "RevRun": 888,
      "RevRunWisdom": 889,
      "act": 890,
      "em": 891,
      "has": 892,
      "##iz": 893,
      "##ci": 894,
      "##fied": 895,
      "last": 896,
      "##ken": 897,
      "still": 898,
      "Just": 899,
      "then": 900,
      "##anks": 901,
      "ac": 902,
      "##ang": 903,
      "##let": 904,
      "##irth": 905,
      "make": 906,
      "fuck": 907,
      "##ans": 908,
      "even": 909,
      "##ere": 910,
      "##ought": 911,
      "##elt": 912,
      "sur": 913,
      "face": 914,
      "Oh": 915,
      "##ence": 916,
      "So": 917,
      "ve": 918,
      "would": 919,
      "##pect": 920,
      "being": 921,
      "stud": 922,
      "cra": 923,
      "him": 924,
      "te": 925,
      "felt": 926,
      "##sh": 927,
      "##ouse": 928,
      "##amily": 929,
      "lt": 930,
      "there": 931,
      "##urn": 932,
      "##iv": 933,
      "##irthday": 934,
      "or": 935,
      "“@": 936,
      "class": 937,
      "dr": 938,
      "long": 939,
      "##ened": 940,
      "part": 941,
      "somet": 942,
      "##ious": 943,
      "##ob": 944,
      "##sol": 945,
      "##friend": 946,
      "thr": 947,
      "##sel": 948,
      "days": 949,
      "play": 950,
      "boy": 951,
      "des": 952,
      "bec": 953,
      "fri": 954,
      "res": 955,
      "watch": 956,
      "##ire": 957,
      "##rified": 958,
      "She": 959,
      "str": 960,
      "Be": 961,
      "##aa": 962,
      "christmas": 963,
      "bro": 964,
      "could": 965,
      "##ating": 966,
      "##pping": 967,
      "ph": 968,
      "##up": 969,
      "##erful": 970,
      "##reak": 971,
      "into": 972,
      "next": 973,
      "And": 974,
      "##ty": 975,
      "##lie": 976,
      "them": 977,
      "how": 978,
      "la": 979,
      "our": 980,
      "##og": 981,
      "##ness": 982,
      "##ave": 983,
      "made": 984,
      "##ng": 985,
      "##ace": 986,
      "##zy": 987,
      "What": 988,
      "But": 989,
      "pre": 990,
      "##ia": 991,
      "##onna": 992,
      "##ared": 993,
      "##ope": 994,
      "In": 995,
      "ter": 996,
      "left": 997,
      "ear": 998,
      "pleas": 999,
      "##ich": 1000,
      "##ew": 1001,
      "didn": 1002,
      "complet": 1003,
      "##iving": 1004,
      "##fore": 1005,
      "shit": 1006,
      "actually": 1007,
      "birthday": 1008,
      "een": 1009,
      "##ppy": 1010,
      "coming": 1011,
      "bad": 1012,
      "fl": 1013,
      "if": 1014,
      "wr": 1015,
      "their": 1016,
      "joy": 1017,
      "##etter": 1018,
      "##solut": 1019,
      ";&": 1020,
      "par": 1021,
      "##work": 1022,
      "##joy": 1023,
      "##ason": 1024,
      "best": 1025,
      "only": 1026,
      "##usic": 1027,
      "cont": 1028,
      "RT": 1029,
      "house": 1030,
      "##ward": 1031,
      "No": 1032,
      "away": 1033,
      "om": 1034,
      "were": 1035,
      ".....": 1036,
      "absolut": 1037,
      "##azing": 1038,
      "##qu": 1039,
      "##ary": 1040,
      "need": 1041,
      "another": 1042,
      "family": 1043,
      "us": 1044,
      "##age": 1045,
      "something": 1046,
      "del": 1047,
      "##ished": 1048,
      "##ried": 1049,
      "its": 1050,
      "##rag": 1051,
      "surpr": 1052,
      "##self": 1053,
      "und": 1054,
      "way": 1055,
      "##oot": 1056,
      "ins": 1057,
      "here": 1058,
      "friends": 1059,
      "weekend": 1060,
      "finally": 1061,
      "absolutely": 1062,
      "##vid": 1063,
      "une": 1064,
      "##ause": 1065,
      "died": 1066,
      "sw": 1067,
      "##int": 1068,
      "someone": 1069,
      "el": 1070,
      "real": 1071,
      "lost": 1072,
      "##urt": 1073,
      "##erson": 1074,
      "Not": 1075,
      "##ys": 1076,
      "ann": 1077,
      "than": 1078,
      "show": 1079,
      "God": 1080,
      "To": 1081,
      "##ord": 1082,
      "##are": 1083,
      "things": 1084,
      "##akes": 1085,
      "completely": 1086,
      "music": 1087,
      "sorry": 1088,
      "##iver": 1089,
      "##ach": 1090,
      "##OO": 1091,
      "does": 1092,
      "This": 1093,
      "##IN": 1094,
      "##pl": 1095,
      "##here": 1096,
      "##erv": 1097,
      "belie": 1098,
      "##ult": 1099,
      "ass": 1100,
      "bed": 1101,
      "min": 1102,
      "##igh": 1103,
      "##ner": 1104,
      "should": 1105,
      "Don": 1106,
      "##ub": 1107,
      "##ening": 1108,
      "amazing": 1109,
      "##rying": 1110,
      "game": 1111,
      "oh": 1112,
      "##ove": 1113,
      "##ane": 1114,
      "##arm": 1115,
      "thought": 1116,
      "##!!!!": 1117,
      "##ittle": 1118,
      "excited": 1119,
      "##ball": 1120,
      "##uly": 1121,
      "##thing": 1122,
      "##ister": 1123,
      "under": 1124,
      "An": 1125,
      "Sh": 1126,
      "bus": 1127,
      "pass": 1128,
      "##oor": 1129,
      "##iness": 1130,
      "##anc": 1131,
      "##itter": 1132,
      "never": 1133,
      "pap": 1134,
      "tra": 1135,
      "##ij": 1136,
      "##ef": 1137,
      "having": 1138,
      "##ody": 1139,
      "##ollow": 1140,
      "believe": 1141,
      "mind": 1142,
      "##ved": 1143,
      "crazy": 1144,
      "fun": 1145,
      "per": 1146,
      "person": 1147,
      "won": 1148,
      "truly": 1149,
      "room": 1150,
      "study": 1151,
      "ast": 1152,
      "call": 1153,
      "dri": 1154,
      "gonna": 1155,
      "##ading": 1156,
      "rem": 1157,
      "##ctor": 1158,
      "angry": 1159,
      "10": 1160,
      "Can": 1161,
      "find": 1162,
      "wond": 1163,
      "##opping": 1164,
      "before": 1165,
      "##oney": 1166,
      "homework": 1167,
      "fear": 1168,
      "old": 1169,
      "test": 1170,
      "##ah": 1171,
      "##elp": 1172,
      "scared": 1173,
      "moment": 1174,
      "mon": 1175,
      "fright": 1176,
      "cant": 1177,
      "kind": 1178,
      "mis": 1179,
      "thing": 1180,
      "##als": 1181,
      "break": 1182,
      "ey": 1183,
      "mother": 1184,
      "dec": 1185,
      "grand": 1186,
      "cr": 1187,
      "hurt": 1188,
      "op": 1189,
      "put": 1190,
      "turn": 1191,
      "##less": 1192,
      "##ug": 1193,
      "inc": 1194,
      "omg": 1195,
      "De": 1196,
      "end": 1197,
      "little": 1198,
      "There": 1199,
      "depr": 1200,
      "pres": 1201,
      "Get": 1202,
      "sn": 1203,
      "##rr": 1204,
      "tot": 1205,
      "head": 1206,
      "come": 1207,
      "say": 1208,
      "##ny": 1209,
      "##get": 1210,
      "##ER": 1211,
      "lol": 1212,
      "##alking": 1213,
      "##raged": 1214,
      "hor": 1215,
      "##oc": 1216,
      "Thanks": 1217,
      "tweet": 1218,
      "Now": 1219,
      "ma": 1220,
      "##giving": 1221,
      "##ement": 1222,
      "done": 1223,
      "sister": 1224,
      "##ian": 1225,
      "##ife": 1226,
      "##hes": 1227,
      "##ater": 1228,
      "rel": 1229,
      "##ship": 1230,
      "##ever": 1231,
      "##br": 1232,
      "##ert": 1233,
      "told": 1234,
      "##riday": 1235,
      "##cept": 1236,
      "##ired": 1237,
      "shock": 1238,
      "##haha": 1239,
      "child": 1240,
      "close": 1241,
      "delight": 1242,
      "At": 1243,
      "On": 1244,
      "let": 1245,
      "##ta": 1246,
      "##AT": 1247,
      "##ory": 1248,
      "##orm": 1249,
      "##amp": 1250,
      "shopping": 1251,
      "saw": 1252,
      "##ivers": 1253,
      "How": 1254,
      "##uri": 1255,
      "##unch": 1256,
      "phone": 1257,
      "early": 1258,
      ";@": 1259,
      "Friday": 1260,
      "found": 1261,
      "sound": 1262,
      "##ade": 1263,
      "att": 1264,
      "world": 1265,
      "desp": 1266,
      "Al": 1267,
      "We": 1268,
      "##io": 1269,
      "list": 1270,
      "##ign": 1271,
      "frightened": 1272,
      "tear": 1273,
      "##iet": 1274,
      "##ther": 1275,
      "##alf": 1276,
      "brother": 1277,
      "##pected": 1278,
      "parents": 1279,
      "TH": 1280,
      "better": 1281,
      "ill": 1282,
      "je": 1283,
      "sick": 1284,
      "##ict": 1285,
      "##ift": 1286,
      "##ey": 1287,
      "care": 1288,
      "fucking": 1289,
      "wonderful": 1290,
      "Bl": 1291,
      "Time": 1292,
      "bu": 1293,
      "nice": 1294,
      "##ES": 1295,
      "##esome": 1296,
      "##ession": 1297,
      "acc": 1298,
      "annoy": 1299,
      "bab": 1300,
      "follow": 1301,
      "making": 1302,
      "##av": 1303,
      "##gr": 1304,
      "##ready": 1305,
      "appre": 1306,
      "eyes": 1307,
      "Sp": 1308,
      "full": 1309,
      "gt": 1310,
      "help": 1311,
      "tell": 1312,
      "##ma": 1313,
      "##led": 1314,
      "hair": 1315,
      "why": 1316,
      "looked": 1317,
      "glad": 1318,
      "Do": 1319,
      "big": 1320,
      "hope": 1321,
      "run": 1322,
      "till": 1323,
      "van": 1324,
      "win": 1325,
      "##iff": 1326,
      "##red": 1327,
      "##oint": 1328,
      "##vie": 1329,
      "##air": 1330,
      "##rief": 1331,
      "while": 1332,
      "fail": 1333,
      "said": 1334,
      "Happy": 1335,
      "party": 1336,
      "paper": 1337,
      "Love": 1338,
      "makes": 1339,
      "##oke": 1340,
      "##wn": 1341,
      "well": 1342,
      "Why": 1343,
      "through": 1344,
      "Go": 1345,
      "Some": 1346,
      "Fin": 1347,
      "Good": 1348,
      "dre": 1349,
      "id": 1350,
      "tri": 1351,
      "##me": 1352,
      "##be": 1353,
      "##erable": 1354,
      "sec": 1355,
      "leave": 1356,
      "##ember": 1357,
      "because": 1358,
      "minut": 1359,
      "passed": 1360,
      "late": 1361,
      "##ms": 1362,
      "two": 1363,
      "heartb": 1364,
      "pleased": 1365,
      "totally": 1366,
      "?!": 1367,
      "Am": 1368,
      "Tw": 1369,
      "cou": 1370,
      "half": 1371,
      "sing": 1372,
      "take": 1373,
      "##iday": 1374,
      "##ens": 1375,
      "##ange": 1376,
      "##ract": 1377,
      "##oliday": 1378,
      "working": 1379,
      "twitter": 1380,
      "##eah": 1381,
      "broken": 1382,
      "##ING": 1383,
      "##ervous": 1384,
      "Got": 1385,
      "grief": 1386,
      "##ren": 1387,
      "##act": 1388,
      "##ph": 1389,
      "##ww": 1390,
      "##arr": 1391,
      "thanks": 1392,
      "live": 1393,
      "awesome": 1394,
      "boyfriend": 1395,
      "kid": 1396,
      "other": 1397,
      "sk": 1398,
      "tea": 1399,
      "##oice": 1400,
      "##ail": 1401,
      "##gin": 1402,
      "##LL": 1403,
      "##ised": 1404,
      "##ions": 1405,
      "without": 1406,
      "already": 1407,
      "##issed": 1408,
      "nog": 1409,
      "miserable": 1410,
      "depressed": 1411,
      "father": 1412,
      "give": 1413,
      "mar": 1414,
      "nervous": 1415,
      "##ier": 1416,
      "##cc": 1417,
      "##pe": 1418,
      "##OU": 1419,
      "##xpected": 1420,
      "##ann": 1421,
      "##imes": 1422,
      "Thank": 1423,
      "black": 1424,
      "##urious": 1425,
      "For": 1426,
      "furious": 1427,
      "ten": 1428,
      "##old": 1429,
      "##aar": 1430,
      "##aut": 1431,
      "##my": 1432,
      "##ject": 1433,
      "##asy": 1434,
      "##ret": 1435,
      "inter": 1436,
      "ready": 1437,
      "guess": 1438,
      "delighted": 1439,
      "Yes": 1440,
      "din": 1441,
      "lot": 1442,
      "ser": 1443,
      "##ible": 1444,
      "##ON": 1445,
      "##uff": 1446,
      "ec": 1447,
      "hard": 1448,
      "light": 1449,
      "pet": 1450,
      "##mm": 1451,
      "##man": 1452,
      "##gg": 1453,
      "##AR": 1454,
      "##atic": 1455,
      "##itting": 1456,
      "##amn": 1457,
      "##roken": 1458,
      "They": 1459,
      "tree": 1460,
      "##oss": 1461,
      "looking": 1462,
      "adm": 1463,
      "??": 1464,
      "Is": 1465,
      "Let": 1466,
      "money": 1467,
      "tre": 1468,
      "##ike": 1469,
      "##te": 1470,
      "##ling": 1471,
      "##__": 1472,
      "stop": 1473,
      "##ross": 1474,
      "most": 1475,
      "girlfriend": 1476,
      "unexpected": 1477,
      "##iversity": 1478,
      "Fr": 1479,
      "Work": 1480,
      "coll": 1481,
      "high": 1482,
      "met": 1483,
      "sin": 1484,
      "##der": 1485,
      "##ying": 1486,
      "##vent": 1487,
      "##itated": 1488,
      "myself": 1489,
      "thats": 1490,
      "alone": 1491,
      "##astic": 1492,
      "spe": 1493,
      "##udd": 1494,
      "surprise": 1495,
      "kinda": 1496,
      "foot": 1497,
      "walk": 1498,
      "##ked": 1499,
      "##til": 1500,
      "##set": 1501,
      "##lish": 1502,
      "##lled": 1503,
      "beaut": 1504,
      "##ustr": 1505,
      "word": 1506,
      "anger": 1507,
      "around": 1508,
      "cold": 1509,
      "##joyed": 1510,
      "hand": 1511,
      "keep": 1512,
      "talk": 1513,
      "##oom": 1514,
      "##les": 1515,
      "##OT": 1516,
      "##AN": 1517,
      "##athe": 1518,
      "anx": 1519,
      "##ash": 1520,
      "isn": 1521,
      "worried": 1522,
      "comm": 1523,
      "##ations": 1524,
      "baby": 1525,
      "heartbroken": 1526,
      "cour": 1527,
      "kill": 1528,
      "wish": 1529,
      "##oe": 1530,
      "##anna": 1531,
      "livid": 1532,
      "##unt": 1533,
      "dev": 1534,
      "smile": 1535,
      "aston": 1536,
      "If": 1537,
      "Pe": 1538,
      "Well": 1539,
      "crying": 1540,
      "holiday": 1541,
      "wear": 1542,
      "##iful": 1543,
      "##oh": 1544,
      "##rible": 1545,
      "haha": 1546,
      "##ures": 1547,
      "##very": 1548,
      "alarm": 1549,
      "season": 1550,
      "until": 1551,
      "watching": 1552,
      "train": 1553,
      "horrified": 1554,
      "Un": 1555,
      "bas": 1556,
      "cle": 1557,
      "came": 1558,
      "hop": 1559,
      "##most": 1560,
      "##att": 1561,
      "which": 1562,
      "doing": 1563,
      "conc": 1564,
      "##ude": 1565,
      ".&": 1566,
      "book": 1567,
      "##if": 1568,
      "##yy": 1569,
      "##port": 1570,
      "##use": 1571,
      "##ont": 1572,
      "##static": 1573,
      "##eech": 1574,
      "##eeting": 1575,
      "ind": 1576,
      "##ateful": 1577,
      "death": 1578,
      "blessed": 1579,
      "##atching": 1580,
      "##upid": 1581,
      "ecstatic": 1582,
      "food": 1583,
      "lone": 1584,
      "pract": 1585,
      "pissed": 1586,
      "same": 1587,
      "tired": 1588,
      "wow": 1589,
      "where": 1590,
      "##ix": 1591,
      "##ox": 1592,
      "##app": 1593,
      "##OR": 1594,
      "##stand": 1595,
      "##iting": 1596,
      "##aken": 1597,
      "dog": 1598,
      "upset": 1599,
      "speech": 1600,
      "overjoyed": 1601,
      "##cial": 1602,
      "accept": 1603,
      "pret": 1604,
      "remember": 1605,
      "20": 1606,
      "Me": 1607,
      "dad": 1608,
      "dark": 1609,
      "diff": 1610,
      "job": 1611,
      "mine": 1612,
      "xA": 1613,
      "##oly": 1614,
      "##lan": 1615,
      "##bel": 1616,
      "##aying": 1617,
      "thri": 1618,
      "##ently": 1619,
      "##ici": 1620,
      "##icked": 1621,
      "##pty": 1622,
      "dinner": 1623,
      "anxious": 1624,
      "Ex": 1625,
      "Last": 1626,
      "die": 1627,
      "##VE": 1628,
      "##je": 1629,
      "##atter": 1630,
      "##ending": 1631,
      "frustr": 1632,
      "##ump": 1633,
      "final": 1634,
      "heard": 1635,
      "years": 1636,
      "resent": 1637,
      "lonely": 1638,
      "All": 1639,
      "Every": 1640,
      "da": 1641,
      "dan": 1642,
      "mess": 1643,
      "pict": 1644,
      "##AY": 1645,
      "##asper": 1646,
      "ste": 1647,
      "##ical": 1648,
      "##olog": 1649,
      "blue": 1650,
      "elated": 1651,
      "month": 1652,
      "present": 1653,
      "snow": 1654,
      "football": 1655,
      "beautiful": 1656,
      "resentful": 1657,
      ":'": 1658,
      "Im": 1659,
      "cut": 1660,
      "lau": 1661,
      "went": 1662,
      "##IS": 1663,
      "##ok": 1664,
      "##so": 1665,
      "##med": 1666,
      "##ered": 1667,
      "##enc": 1668,
      "these": 1669,
      "begin": 1670,
      "##orror": 1671,
      "##eless": 1672,
      "##antastic": 1673,
      "exasper": 1674,
      "!!!!": 1675,
      "bring": 1676,
      "Have": 1677,
      "bitter": 1678,
      "empty": 1679,
      "playing": 1680,
      "broke": 1681,
      "surprised": 1682,
      "##ancy": 1683,
      "Going": 1684,
      "colle": 1685,
      "devast": 1686,
      "30": 1687,
      "lear": 1688,
      "mid": 1689,
      "pain": 1690,
      "yet": 1691,
      "##ib": 1692,
      "##ina": 1693,
      "##ern": 1694,
      "##ott": 1695,
      "rec": 1696,
      "rest": 1697,
      "##ung": 1698,
      "##ics": 1699,
      "##olate": 1700,
      "free": 1701,
      "enraged": 1702,
      "Its": 1703,
      "grateful": 1704,
      "excitement": 1705,
      "joyful": 1706,
      "devastated": 1707,
      "Br": 1708,
      "Great": 1709,
      "Look": 1710,
      "Mr": 1711,
      "bor": 1712,
      "fum": 1713,
      "irr": 1714,
      "may": 1715,
      "pour": 1716,
      "rain": 1717,
      "voice": 1718,
      "wom": 1719,
      "##Sh": 1720,
      "##ves": 1721,
      "##uring": 1722,
      "##pped": 1723,
      "nothing": 1724,
      "##ooked": 1725,
      "conf": 1726,
      "whole": 1727,
      "everything": 1728,
      "minutes": 1729,
      "astonished": 1730,
      "pretty": 1731,
      "thrilled": 1732,
      "App": 1733,
      "One": 1734,
      "gre": 1735,
      "horror": 1736,
      "ret": 1737,
      "son": 1738,
      "##een": 1739,
      "##son": 1740,
      "##ym": 1741,
      "##la": 1742,
      "##ition": 1743,
      "##ream": 1744,
      "reason": 1745,
      "such": 1746,
      "disc": 1747,
      "bitch": 1748,
      "team": 1749,
      "children": 1750,
      "People": 1751,
      "hopeless": 1752,
      ":/": 1753,
      "Gu": 1754,
      "Man": 1755,
      "Wow": 1756,
      "av": 1757,
      "mood": 1758,
      "ur": 1759,
      "##kward": 1760,
      "##ple": 1761,
      "##CK": 1762,
      "##esus": 1763,
      "##ident": 1764,
      "stand": 1765,
      "##ama": 1766,
      "##outh": 1767,
      "choc": 1768,
      "almost": 1769,
      "university": 1770,
      "##ffee": 1771,
      "##ounded": 1772,
      "happiness": 1773,
      "##ache": 1774,
      "drink": 1775,
      "frustrated": 1776,
      "(:": 1777,
      "As": 1778,
      "LO": 1779,
      "suck": 1780,
      "try": 1781,
      "wild": 1782,
      "##eed": 1783,
      "##du": 1784,
      "##ole": 1785,
      "##EN": 1786,
      "##oud": 1787,
      "##arc": 1788,
      "##ase": 1789,
      "##oth": 1790,
      "##used": 1791,
      "##ably": 1792,
      "enjoy": 1793,
      "movie": 1794,
      "cheerful": 1795,
      "wrong": 1796,
      "doesn": 1797,
      "Thanksgiving": 1798,
      "trip": 1799,
      "second": 1800,
      "petrified": 1801,
      "##belie": 1802,
      "Feel": 1803,
      "eat": 1804,
      "fantastic": 1805,
      "fancy": 1806,
      "pas": 1807,
      "pri": 1808,
      "taking": 1809,
      "##IT": 1810,
      "##aw": 1811,
      "##gan": 1812,
      "##lect": 1813,
      "##oooo": 1814,
      "stupid": 1815,
      "fav": 1816,
      "many": 1817,
      "terrified": 1818,
      "insane": 1819,
      "drive": 1820,
      "Getting": 1821,
      "practice": 1822,
      "irritated": 1823,
      "Af": 1824,
      "Com": 1825,
      "Day": 1826,
      "Miss": 1827,
      "Watching": 1828,
      "during": 1829,
      "pan": 1830,
      "song": 1831,
      "vis": 1832,
      "wel": 1833,
      "##sy": 1834,
      "##sing": 1835,
      "##mber": 1836,
      "##gn": 1837,
      "##by": 1838,
      "##EA": 1839,
      "##head": 1840,
      "##ster": 1841,
      "loathe": 1842,
      "##und": 1843,
      "##unning": 1844,
      "change": 1845,
      "door": 1846,
      "outraged": 1847,
      "comes": 1848,
      "unbelie": 1849,
      "anything": 1850,
      "##izz": 1851,
      "##iously": 1852,
      "content": 1853,
      "Today": 1854,
      "understand": 1855,
      "incred": 1856,
      "shocked": 1857,
      "despise": 1858,
      "THE": 1859,
      "annoyed": 1860,
      "appreci": 1861,
      "course": 1862,
      "alarmed": 1863,
      "fuming": 1864,
      "unbeliev": 1865,
      ").": 1866,
      "Mon": 1867,
      "Off": 1868,
      "ess": 1869,
      "hum": 1870,
      "##oon": 1871,
      "##par": 1872,
      "##got": 1873,
      "##OM": 1874,
      "##UK": 1875,
      "##form": 1876,
      "##ates": 1877,
      "##atur": 1878,
      "##arg": 1879,
      "##uth": 1880,
      "##ames": 1881,
      "worth": 1882,
      "hell": 1883,
      "ent": 1884,
      "bliss": 1885,
      "##happy": 1886,
      "gloom": 1887,
      "news": 1888,
      "thanksgiving": 1889,
      "##ology": 1890,
      "college": 1891,
      "chocolate": 1892,
      "gloomy": 1893,
      "Ab": 1894,
      "Che": 1895,
      "Eng": 1896,
      "Fear": 1897,
      "His": 1898,
      "bet": 1899,
      "cher": 1900,
      "deep": 1901,
      "due": 1902,
      "host": 1903,
      "red": 1904,
      "sun": 1905,
      "voor": 1906,
      "##ii": 1907,
      "##cle": 1908,
      "##cher": 1909,
      "##ding": 1910,
      "##sive": 1911,
      "##ale": 1912,
      "##mother": 1913,
      "##gen": 1914,
      "##12": 1915,
      "##ats": 1916,
      "##ited": 1917,
      "##asm": 1918,
      "##asure": 1919,
      "##rest": 1920,
      "stuff": 1921,
      "dont": 1922,
      "everyone": 1923,
      "guy": 1924,
      "text": 1925,
      "Being": 1926,
      "please": 1927,
      "studying": 1928,
      "astounded": 1929,
      "tearful": 1930,
      "Black": 1931,
      "failed": 1932,
      "kids": 1933,
      "unbelievable": 1934,
      "Sorry": 1935,
      "card": 1936,
      "fall": 1937,
      "ik": 1938,
      "letter": 1939,
      "pol": 1940,
      "set": 1941,
      "##ax": 1942,
      "##leep": 1943,
      "##11": 1944,
      "##uz": 1945,
      "those": 1946,
      "##vel": 1947,
      "##rick": 1948,
      "##....": 1949,
      "young": 1950,
      "##ird": 1951,
      "##ush": 1952,
      "##ants": 1953,
      "place": 1954,
      "waiting": 1955,
      "stressed": 1956,
      "Another": 1957,
      "open": 1958,
      "speechless": 1959,
      ":'(": 1960,
      ";)": 1961,
      "Sc": 1962,
      "ce": 1963,
      "cry": 1964,
      "cook": 1965,
      "fill": 1966,
      "gra": 1967,
      "must": 1968,
      "wanna": 1969,
      "##ik": 1970,
      "##ton": 1971,
      "##mer": 1972,
      "##may": 1973,
      "##AM": 1974,
      "##its": 1975,
      "##ley": 1976,
      "read": 1977,
      "stunning": 1978,
      "melan": 1979,
      "##urs": 1980,
      "TheB": 1981,
      "expect": 1982,
      "unhappy": 1983,
      "!!!!!": 1984,
      "missing": 1985,
      "awkward": 1986,
      "##ives": 1987,
      "friday": 1988,
      "contro": 1989,
      "uneasy": 1990,
      "##!!!!!!!!": 1991,
      "grandmother": 1992,
      "##ertain": 1993,
      "shocking": 1994,
      "Finally": 1995,
      "tense": 1996,
      "since": 1997,
      "blissful": 1998,
      "melanch": 1999,
      "Le": 2000,
      "fight": 2001,
      "gone": 2002,
      "hot": 2003,
      "might": 2004,
      "own": 2005,
      "sum": 2006,
      "##che": 2007,
      "##ket": 2008,
      "##uk": 2009,
      "##_M": 2010,
      "forward": 2011,
      "haven": 2012,
      "rece": 2013,
      "##opUK": 2014,
      "white": 2015,
      "god": 2016,
      "##fect": 2017,
      "sure": 2018,
      "seeing": 2019,
      "##odySh": 2020,
      "100": 2021,
      "turned": 2022,
      "listening": 2023,
      "count": 2024,
      "admire": 2025,
      "treasure": 2026,
      "incredible": 2027,
      "English": 2028,
      "hostile": 2029,
      "TheBodySh": 2030,
      "TheBodyShopUK": 2031,
      "12": 2032,
      "Joy": 2033,
      "Ugh": 2034,
      "YOU": 2035,
      "cal": 2036,
      "cross": 2037,
      "few": 2038,
      "lunch": 2039,
      "meet": 2040,
      "near": 2041,
      "til": 2042,
      "water": 2043,
      "##aving": 2044,
      "##body": 2045,
      "##EE": 2046,
      "##ination": 2047,
      "##ouble": 2048,
      "thank": 2049,
      "##alth": 2050,
      "reg": 2051,
      "stay": 2052,
      "##hensive": 2053,
      "spooked": 2054,
      "blown": 2055,
      "peace": 2056,
      "Real": 2057,
      "whoa": 2058,
      "angu": 2059,
      "adore": 2060,
      "exams": 2061,
      "##lease": 2062,
      "coffee": 2063,
      "became": 2064,
      "terrible": 2065,
      "tears": 2066,
      "apprehensive": 2067,
      "dreading": 2068,
      "panicked": 2069,
      "appreciate": 2070,
      "essay": 2071,
      "melancholy": 2072,
      "Pl": 2073,
      "Tr": 2074,
      "Yeah": 2075,
      "bout": 2076,
      "est": 2077,
      "eff": 2078,
      "ge": 2079,
      "gave": 2080,
      "trying": 2081,
      "wed": 2082,
      "##ron": 2083,
      "##OW": 2084,
      "##uu": 2085,
      "##ual": 2086,
      "##ative": 2087,
      "##ars": 2088,
      "##esday": 2089,
      "##rew": 2090,
      "##reaking": 2091,
      "stra": 2092,
      "##ention": 2093,
      "once": 2094,
      "##unk": 2095,
      "worship": 2096,
      "quite": 2097,
      "##uss": 2098,
      "expr": 2099,
      "dead": 2100,
      "##umb": 2101,
      "cons": 2102,
      "gotta": 2103,
      "##aught": 2104,
      "started": 2105,
      "sleeping": 2106,
      "smell": 2107,
      "check": 2108,
      "realiz": 2109,
      "decor": 2110,
      "sounds": 2111,
      "accident": 2112,
      "clean": 2113,
      "exasperation": 2114,
      ":-": 2115,
      "Back": 2116,
      "Cl": 2117,
      "Da": 2118,
      "En": 2119,
      "New": 2120,
      "Of": 2121,
      "es": 2122,
      "fell": 2123,
      "gift": 2124,
      "math": 2125,
      "meeting": 2126,
      "past": 2127,
      "rather": 2128,
      "ty": 2129,
      "##ience": 2130,
      "##ced": 2131,
      "##ten": 2132,
      "##time": 2133,
      "##dd": 2134,
      "##oid": 2135,
      "##AS": 2136,
      "##oup": 2137,
      "##ount": 2138,
      "##arry": 2139,
      "##owing": 2140,
      "##adio": 2141,
      "forget": 2142,
      "worst": 2143,
      "##inding": 2144,
      "factor": 2145,
      "##ode": 2146,
      "supp": 2147,
      "super": 2148,
      "dismay": 2149,
      "missed": 2150,
      "##ully": 2151,
      "emb": 2152,
      "##aaaa": 2153,
      "sweet": 2154,
      "driving": 2155,
      "running": 2156,
      "##arrass": 2157,
      "cherish": 2158,
      "Hear": 2159,
      "Jesus": 2160,
      "Tom": 2161,
      "cor": 2162,
      "dance": 2163,
      "wat": 2164,
      "##lic": 2165,
      "##bs": 2166,
      "##back": 2167,
      "##ering": 2168,
      "##onn": 2169,
      "forgot": 2170,
      "##alse": 2171,
      "mean": 2172,
      "losing": 2173,
      "ext": 2174,
      "def": 2175,
      "sem": 2176,
      "gets": 2177,
      "leg": 2178,
      "leaving": 2179,
      "##istory": 2180,
      "true": 2181,
      "##osp": 2182,
      "finals": 2183,
      "wanted": 2184,
      "##ney": 2185,
      "##hhhh": 2186,
      "road": 2187,
      "emot": 2188,
      "result": 2189,
      "write": 2190,
      "writing": 2191,
      "accepted": 2192,
      "pictures": 2193,
      "embarrass": 2194,
      "Did": 2195,
      "Damn": 2196,
      "MY": 2197,
      "WH": 2198,
      "damn": 2199,
      "hu": 2200,
      "med": 2201,
      "sim": 2202,
      "yeah": 2203,
      "##ched": 2204,
      "##not": 2205,
      "##part": 2206,
      "##lo": 2207,
      "##land": 2208,
      "##ze": 2209,
      "##ET": 2210,
      "##father": 2211,
      "##ision": 2212,
      "##ric": 2213,
      "##cht": 2214,
      "##essing": 2215,
      "feels": 2216,
      "exper": 2217,
      "enough": 2218,
      "happen": 2219,
      "finished": 2220,
      "prof": 2221,
      "three": 2222,
      "grandfather": 2223,
      "##brary": 2224,
      "idea": 2225,
      "lights": 2226,
      "Monday": 2227,
      "List": 2228,
      "Mo": 2229,
      "Sun": 2230,
      "TO": 2231,
      "Your": 2232,
      "ca": 2233,
      "er": 2234,
      "hit": 2235,
      "hold": 2236,
      "pack": 2237,
      "##over": 2238,
      "##side": 2239,
      "##weet": 2240,
      "##10": 2241,
      "top": 2242,
      "##enn": 2243,
      "##ons": 2244,
      "##ones": 2245,
      "##ese": 2246,
      "##eee": 2247,
      "state": 2248,
      "worse": 2249,
      "sex": 2250,
      "lead": 2251,
      "spir": 2252,
      "spend": 2253,
      "##igg": 2254,
      "offici": 2255,
      "comput": 2256,
      "girls": 2257,
      "presents": 2258,
      "##udden": 2259,
      "differ": 2260,
      "woman": 2261,
      "After": 2262,
      "##izza": 2263,
      "##aturday": 2264,
      "Life": 2265,
      "NOT": 2266,
      "ahead": 2267,
      "ben": 2268,
      "camp": 2269,
      "certain": 2270,
      "ged": 2271,
      "les": 2272,
      "mouth": 2273,
      "##ces": 2274,
      "##ps": 2275,
      "##line": 2276,
      "##CT": 2277,
      "##ins": 2278,
      "##aring": 2279,
      "though": 2280,
      "##ower": 2281,
      "##lebr": 2282,
      "hahaha": 2283,
      "lose": 2284,
      "##elf": 2285,
      "asked": 2286,
      "eng": 2287,
      "##ucks": 2288,
      "finish": 2289,
      "project": 2290,
      "guys": 2291,
      "##ignant": 2292,
      "Twitter": 2293,
      "##ohn": 2294,
      "indignant": 2295,
      "laugh": 2296,
      "visit": 2297,
      "About": 2298,
      "##ketball": 2299,
      "Fuck": 2300,
      "HA": 2301,
      "Her": 2302,
      "Lol": 2303,
      "Pro": 2304,
      "Se": 2305,
      "Te": 2306,
      "Then": 2307,
      "__": 2308,
      "fat": 2309,
      "later": 2310,
      "pie": 2311,
      "point": 2312,
      "serv": 2313,
      "sarc": 2314,
      "tou": 2315,
      "talking": 2316,
      "waking": 2317,
      "##ham": 2318,
      "##ior": 2319,
      "##ches": 2320,
      "##oes": 2321,
      "##ye": 2322,
      "##mor": 2323,
      "##more": 2324,
      "##where": 2325,
      "##LE": 2326,
      "##fully": 2327,
      "##00": 2328,
      "##init": 2329,
      "##oul": 2330,
      "##ste": 2331,
      "##itch": 2332,
      "##ison": 2333,
      "##eeth": 2334,
      "##read": 2335,
      "form": 2336,
      "soon": 2337,
      "asleep": 2338,
      "feelings": 2339,
      "knew": 2340,
      "ago": 2341,
      "Ste": 2342,
      "##blems": 2343,
      "art": 2344,
      "disapp": 2345,
      "starts": 2346,
      "##ived": 2347,
      "......": 2348,
      "##vidence": 2349,
      "##OOOO": 2350,
      "buy": 2351,
      "##ccess": 2352,
      "learn": 2353,
      "##sych": 2354,
      "11": 2355,
      "Ah": 2356,
      "Dad": 2357,
      "Family": 2358,
      "Mor": 2359,
      "Mom": 2360,
      "Ne": 2361,
      "Qu": 2362,
      "School": 2363,
      "air": 2364,
      "bag": 2365,
      "ep": 2366,
      "eating": 2367,
      "fan": 2368,
      "maken": 2369,
      "nap": 2370,
      "wake": 2371,
      "##hind": 2372,
      "##ipp": 2373,
      "##IC": 2374,
      "##ror": 2375,
      "##of": 2376,
      "##ED": 2377,
      "##erry": 2378,
      "##orite": 2379,
      "##oun": 2380,
      "##arently": 2381,
      "##iter": 2382,
      "##omb": 2383,
      "int": 2384,
      "inv": 2385,
      "##right": 2386,
      "##ets": 2387,
      "##irt": 2388,
      "shot": 2389,
      "shop": 2390,
      "short": 2391,
      "also": 2392,
      "sub": 2393,
      "brings": 2394,
      "inside": 2395,
      "swe": 2396,
      "##ijn": 2397,
      "single": 2398,
      "teacher": 2399,
      "Working": 2400,
      "straight": 2401,
      "embarrassed": 2402,
      "-.": 2403,
      "Ar": 2404,
      "First": 2405,
      "Finding": 2406,
      "Gonna": 2407,
      "Home": 2408,
      "Mark": 2409,
      "Ok": 2410,
      "___": 2411,
      "cur": 2412,
      "cup": 2413,
      "cause": 2414,
      "dying": 2415,
      "gen": 2416,
      "low": 2417,
      "mark": 2418,
      "ok": 2419,
      "ride": 2420,
      "sit": 2421,
      "sudden": 2422,
      "wind": 2423,
      "walking": 2424,
      "##iod": 2425,
      "##ID": 2426,
      "##de": 2427,
      "##dy": 2428,
      "##ris": 2429,
      "##ree": 2430,
      "##wild": 2431,
      "##band": 2432,
      "##bably": 2433,
      "##GH": 2434,
      "##fort": 2435,
      "##arb": 2436,
      "##eter": 2437,
      "forever": 2438,
      "##cember": 2439,
      "##entist": 2440,
      "##irty": 2441,
      "##rain": 2442,
      "library": 2443,
      "##urch": 2444,
      "##earing": 2445,
      "##ters": 2446,
      "que": 2447,
      "char": 2448,
      "Christ": 2449,
      "##umber": 2450,
      "lect": 2451,
      "clos": 2452,
      "weeks": 2453,
      "plan": 2454,
      "move": 2455,
      "manag": 2456,
      "thinking": 2457,
      "called": 2458,
      "##gether": 2459,
      "relation": 2460,
      "attack": 2461,
      "interest": 2462,
      "return": 2463,
      "control": 2464,
      "gedich": 2465,
      "##initely": 2466,
      "--": 2467,
      "Car": 2468,
      "Em": 2469,
      "IS": 2470,
      "Ph": 2471,
      "Please": 2472,
      "ball": 2473,
      "et": 2474,
      "hung": 2475,
      "history": 2476,
      "line": 2477,
      "pa": 2478,
      "pick": 2479,
      "post": 2480,
      "poor": 2481,
      "pizza": 2482,
      "roll": 2483,
      "sitting": 2484,
      "times": 2485,
      "##cy": 2486,
      "##come": 2487,
      "##IR": 2488,
      "##uke": 2489,
      "##**": 2490,
      "##inn": 2491,
      "##hel": 2492,
      "##eric": 2493,
      "##ors": 2494,
      "together": 2495,
      "##ana": 2496,
      "##ital": 2497,
      "##reen": 2498,
      "behind": 2499,
      "bewild": 2500,
      "rep": 2501,
      "ref": 2502,
      "reading": 2503,
      "means": 2504,
      "##vers": 2505,
      "##ctly": 2506,
      "##ction": 2507,
      "shift": 2508,
      "##ended": 2509,
      "lovely": 2510,
      "##estion": 2511,
      "##aste": 2512,
      "health": 2513,
      "seemed": 2514,
      "awake": 2515,
      "anymore": 2516,
      "student": 2517,
      "phys": 2518,
      "##wards": 2519,
      "busy": 2520,
      "perform": 2521,
      "despond": 2522,
      "##ointment": 2523,
      "dream": 2524,
      "???": 2525,
      "special": 2526,
      "hands": 2527,
      "concern": 2528,
      "##usement": 2529,
      "Guess": 2530,
      "Listening": 2531,
      "service": 2532,
      "-.-": 2533,
      "AN": 2534,
      "Dri": 2535,
      "Gr": 2536,
      "Had": 2537,
      "Hope": 2538,
      "La": 2539,
      "Mar": 2540,
      "ON": 2541,
      "OK": 2542,
      "Pr": 2543,
      "Su": 2544,
      "ST": 2545,
      "Was": 2546,
      "bar": 2547,
      "bur": 2548,
      "col": 2549,
      "dro": 2550,
      "ice": 2551,
      "luck": 2552,
      "mum": 2553,
      "nu": 2554,
      "pub": 2555,
      "pants": 2556,
      "rand": 2557,
      "radio": 2558,
      "sal": 2559,
      "tried": 2560,
      "wit": 2561,
      "##cl": 2562,
      "##com": 2563,
      "##ky": 2564,
      "##now": 2565,
      "##the": 2566,
      "##tic": 2567,
      "##oard": 2568,
      "##you": 2569,
      "##ler": 2570,
      "##bl": 2571,
      "##fl": 2572,
      "##ored": 2573,
      "##esh": 2574,
      "##ching": 2575,
      "stuck": 2576,
      "amusement": 2577,
      "##ically": 2578,
      "able": 2579,
      "##onest": 2580,
      "chick": 2581,
      "doctor": 2582,
      "separ": 2583,
      "##ages": 2584,
      "weather": 2585,
      "blood": 2586,
      "clot": 2587,
      "happened": 2588,
      "Having": 2589,
      "##itted": 2590,
      "took": 2591,
      "arri": 2592,
      "prop": 2593,
      "small": 2594,
      "examination": 2595,
      "evening": 2596,
      "drunk": 2597,
      "Nothing": 2598,
      "period": 2599,
      "winter": 2600,
      "winning": 2601,
      "minute": 2602,
      "seriously": 2603,
      "wearing": 2604,
      "Feeling": 2605,
      "human": 2606,
      "entire": 2607,
      "effort": 2608,
      "Sunday": 2609,
      "computer": 2610,
      "relationship": 2611,
      "!&": 2612,
      "False": 2613,
      "Gl": 2614,
      "IT": 2615,
      "Never": 2616,
      "Sm": 2617,
      "See": 2618,
      "Somet": 2619,
      "Wor": 2620,
      "Will": 2621,
      "Wait": 2622,
      "ai": 2623,
      "dat": 2624,
      "far": 2625,
      "non": 2626,
      "pop": 2627,
      "sir": 2628,
      "tour": 2629,
      "teeth": 2630,
      "wife": 2631,
      "xmas": 2632,
      "##ien": 2633,
      "##cast": 2634,
      "##SS": 2635,
      "##St": 2636,
      "##noon": 2637,
      "##tt": 2638,
      "##ru": 2639,
      "##sp": 2640,
      "##ween": 2641,
      "##inter": 2642,
      "##eng": 2643,
      "##anish": 2644,
      "##itive": 2645,
      "anim": 2646,
      "##reed": 2647,
      "##...": 2648,
      "##aster": 2649,
      "ask": 2650,
      "knowing": 2651,
      "##itty": 2652,
      "sadness": 2653,
      "street": 2654,
      "law": 2655,
      "shower": 2656,
      "##ulted": 2657,
      "business": 2658,
      "annoyance": 2659,
      "Someone": 2660,
      "Gotta": 2661,
      "words": 2662,
      "basketball": 2663,
      "anguish": 2664,
      "Tomorrow": 2665,
      "huge": 2666,
      "concerned": 2667,
      "Lord": 2668,
      "May": 2669,
      "Too": 2670,
      "cream": 2671,
      "fil": 2672,
      "honey": 2673,
      "ign": 2674,
      "naar": 2675,
      "pot": 2676,
      "poss": 2677,
      "sat": 2678,
      "sch": 2679,
      "tv": 2680,
      "war": 2681,
      "##ient": 2682,
      "##kla": 2683,
      "##nesday": 2684,
      "##ts": 2685,
      "##eas": 2686,
      "##aj": 2687,
      "##mb": 2688,
      "##ming": 2689,
      "##mate": 2690,
      "##lin": 2691,
      "##AL": 2692,
      "##UT": 2693,
      "##21": 2694,
      "##?!": 2695,
      "##erg": 2696,
      "##eral": 2697,
      "##orn": 2698,
      "##ene": 2699,
      "##stant": 2700,
      "##lly": 2701,
      "##lex": 2702,
      "##oose": 2703,
      "##ute": 2704,
      "##ided": 2705,
      "story": 2706,
      "loss": 2707,
      "loved": 2708,
      "lie": 2709,
      "quick": 2710,
      "##anta": 2711,
      "dem": 2712,
      "outside": 2713,
      "allow": 2714,
      "##ffic": 2715,
      "grow": 2716,
      "Who": 2717,
      "success": 2718,
      "disqu": 2719,
      "appointment": 2720,
      "afternoon": 2721,
      "Before": 2722,
      "headache": 2723,
      "build": 2724,
      "##airs": 2725,
      "diffic": 2726,
      "born": 2727,
      "avoid": 2728,
      "LOVE": 2729,
      "favorite": 2730,
      "##ursday": 2731,
      "received": 2732,
      "wedding": 2733,
      "##ospital": 2734,
      "spirit": 2735,
      "gedicht": 2736,
      "14": 2737,
      "Bout": 2738,
      "Big": 2739,
      "Dan": 2740,
      "Fa": 2741,
      "Xmas": 2742,
      "bought": 2743,
      "box": 2744,
      "cake": 2745,
      "dra": 2746,
      "het": 2747,
      "hang": 2748,
      "jour": 2749,
      "ke": 2750,
      "kl": 2751,
      "mot": 2752,
      "match": 2753,
      "pull": 2754,
      "ru": 2755,
      "self": 2756,
      "tur": 2757,
      "ugh": 2758,
      "##iel": 2759,
      "##ker": 2760,
      "##down": 2761,
      "##vies": 2762,
      "##af": 2763,
      "##we": 2764,
      "##lier": 2765,
      "##go": 2766,
      "##bb": 2767,
      "##ues": 2768,
      "##PP": 2769,
      "##23": 2770,
      "##fast": 2771,
      "##jes": 2772,
      "##inc": 2773,
      "##erk": 2774,
      "##ense": 2775,
      "##any": 2776,
      "##ising": 2777,
      "##eth": 2778,
      "##oop": 2779,
      "rev": 2780,
      "online": 2781,
      "lil": 2782,
      "wasn": 2783,
      "##ield": 2784,
      "comment": 2785,
      "cannot": 2786,
      "faith": 2787,
      "imag": 2788,
      "slight": 2789,
      "office": 2790,
      "Stri": 2791,
      "probably": 2792,
      "smh": 2793,
      "##hhh": 2794,
      "papers": 2795,
      "funny": 2796,
      "##ugg": 2797,
      "listen": 2798,
      "singing": 2799,
      "married": 2800,
      "concert": 2801,
      "message": 2802,
      "months": 2803,
      "between": 2804,
      "celebr": 2805,
      "filled": 2806,
      "expression": 2807,
      "emotion": 2808,
      "different": 2809,
      "sarcasm": 2810,
      "##iterally": 2811,
      "random": 2812,
      "clothes": 2813,
      "##klaas": 2814,
      "disquiet": 2815,
      "&#": 2816,
      "):": 2817,
      "Could": 2818,
      "Dis": 2819,
      "Evidence": 2820,
      "Fl": 2821,
      "Or": 2822,
      "Om": 2823,
      "Pa": 2824,
      "Sitting": 2825,
      "Up": 2826,
      "With": 2827,
      "Walking": 2828,
      "Yay": 2829,
      "bath": 2830,
      "cat": 2831,
      "cool": 2832,
      "city": 2833,
      "dist": 2834,
      "dentist": 2835,
      "dirty": 2836,
      "fam": 2837,
      "five": 2838,
      "fire": 2839,
      "giving": 2840,
      "honest": 2841,
      "hospital": 2842,
      "kick": 2843,
      "loud": 2844,
      "mist": 2845,
      "mach": 2846,
      "matter": 2847,
      "ob": 2848,
      "round": 2849,
      "soul": 2850,
      "tun": 2851,
      "tick": 2852,
      "ver": 2853,
      "vide": 2854,
      "warm": 2855,
      "woke": 2856,
      "##ial": 2857,
      "##ified": 2858,
      "##ians": 2859,
      "##kes": 2860,
      "##ILL": 2861,
      "##ST": 2862,
      "##vin": 2863,
      "##wh": 2864,
      "##zing": 2865,
      "##19": 2866,
      "##VER": 2867,
      "##_T": 2868,
      "##UCK": 2869,
      "##TH": 2870,
      "##for": 2871,
      "##ford": 2872,
      "##Ch": 2873,
      "##ines": 2874,
      "##onsol": 2875,
      "##lle": 2876,
      "##ays": 2877,
      "##isode": 2878,
      "inf": 2879,
      "##ooo": 2880,
      "##ider": 2881,
      "store": 2882,
      "##key": 2883,
      "living": 2884,
      "##illy": 2885,
      "##ately": 2886,
      "##ushed": 2887,
      "deal": 2888,
      "chang": 2889,
      "Char": 2890,
      "##asses": 2891,
      "##istry": 2892,
      "truth": 2893,
      "##ape": 2894,
      "slow": 2895,
      "didnt": 2896,
      "Head": 2897,
      "##eaut": 2898,
      "##berg": 2899,
      "against": 2900,
      "advent": 2901,
      "anyone": 2902,
      "##anger": 2903,
      "floor": 2904,
      "used": 2905,
      "else": 2906,
      "finding": 2907,
      "hurts": 2908,
      "December": 2909,
      "relative": 2910,
      "##ointed": 2911,
      "ideas": 2912,
      "step": 2913,
      "Appearing": 2914,
      "##OME": 2915,
      "cards": 2916,
      "grav": 2917,
      "!!!!!!": 2918,
      "##aughter": 2919,
      "realized": 2920,
      "definitely": 2921,
      "semester": 2922,
      "touch": 2923,
      "Morning": 2924,
      "management": 2925,
      "Are": 2926,
      "Act": 2927,
      "Ang": 2928,
      "Best": 2929,
      "Ed": 2930,
      "Ear": 2931,
      "Fun": 2932,
      "GO": 2933,
      "Give": 2934,
      "Hate": 2935,
      "Harry": 2936,
      "Mad": 2937,
      "Mac": 2938,
      "Pure": 2939,
      "Peter": 2940,
      "Rem": 2941,
      "Sw": 2942,
      "TV": 2943,
      "aunt": 2944,
      "bull": 2945,
      "bott": 2946,
      "both": 2947,
      "cous": 2948,
      "du": 2949,
      "date": 2950,
      "gym": 2951,
      "games": 2952,
      "gives": 2953,
      "hus": 2954,
      "jump": 2955,
      "name": 2956,
      "norm": 2957,
      "punch": 2958,
      "psych": 2959,
      "sy": 2960,
      "sorrow": 2961,
      "ug": 2962,
      "use": 2963,
      "vie": 2964,
      "##cer": 2965,
      "##net": 2966,
      "##oin": 2967,
      "##gust": 2968,
      "##gest": 2969,
      "##zz": 2970,
      "##book": 2971,
      "##13": 2972,
      "##uis": 2973,
      "##uation": 2974,
      "##RE": 2975,
      "##DAY": 2976,
      "##TER": 2977,
      "##hew": 2978,
      "town": 2979,
      "##ato": 2980,
      "##ayl": 2981,
      "##itude": 2982,
      "##ows": 2983,
      "##rid": 2984,
      "##rib": 2985,
      "##uture": 2986,
      "##rap": 2987,
      "##under": 2988,
      "##oph": 2989,
      "##roat": 2990,
      "##usion": 2991,
      "alb": 2992,
      "##iled": 2993,
      "quote": 2994,
      "unf": 2995,
      "fact": 2996,
      "Really": 2997,
      "trouble": 2998,
      "##ositive": 2999,
      "grad": 3000,
      "plus": 3001,
      "agitated": 3002,
      "suff": 3003,
      "##olly": 3004,
      "looks": 3005,
      "##ockey": 3006,
      "produ": 3007,
      "everyday": 3008,
      "appear": 3009,
      "add": 3010,
      "cheer": 3011,
      "order": 3012,
      "dress": 3013,
      "sometimes": 3014,
      "resp": 3015,
      "earlier": 3016,
      "needs": 3017,
      "breakfast": 3018,
      "says": 3019,
      "sounded": 3020,
      "##view": 3021,
      "holidays": 3022,
      "##portant": 3023,
      "picture": 3024,
      "presentation": 3025,
      "nearly": 3026,
      ":-)": 3027,
      "english": 3028,
      "episode": 3029,
      "suddenly": 3030,
      "hungry": 3031,
      "despondent": 3032,
      "Driving": 3033,
      "public": 3034,
      "Aw": 3035,
      "BR": 3036,
      "Bon": 3037,
      "CH": 3038,
      "Con": 3039,
      "HAT": 3040,
      "Je": 3041,
      "John": 3042,
      "Lost": 3043,
      "ME": 3044,
      "Mum": 3045,
      "Par": 3046,
      "Wed": 3047,
      "\\\"": 3048,
      "ak": 3049,
      "di": 3050,
      "ev": 3051,
      "each": 3052,
      "elect": 3053,
      "fb": 3054,
      "feet": 3055,
      "gi": 3056,
      "heel": 3057,
      "il": 3058,
      "mas": 3059,
      "number": 3060,
      "page": 3061,
      "sil": 3062,
      "treat": 3063,
      "wall": 3064,
      "worry": 3065,
      "yes": 3066,
      "##rs": 3067,
      "##ov": 3068,
      "##opped": 3069,
      "##AG": 3070,
      "##AD": 3071,
      "##CH": 3072,
      "##inger": 3073,
      "##ator": 3074,
      "##ature": 3075,
      "##esp": 3076,
      "##ote": 3077,
      "##ala": 3078,
      "##amb": 3079,
      "lies": 3080,
      "liked": 3081,
      "##earch": 3082,
      "shut": 3083,
      "whom": 3084,
      "church": 3085,
      "gold": 3086,
      "##ands": 3087,
      "##andy": 3088,
      "##iles": 3089,
      "##ility": 3090,
      "Think": 3091,
      "##aint": 3092,
      "yourself": 3093,
      "weird": 3094,
      "enter": 3095,
      "spending": 3096,
      "important": 3097,
      "##ounds": 3098,
      "knock": 3099,
      "group": 3100,
      "seem": 3101,
      "Hey": 3102,
      "Start": 3103,
      "moving": 3104,
      "##blem": 3105,
      "Haha": 3106,
      "arg": 3107,
      "pray": 3108,
      "prom": 3109,
      "disgust": 3110,
      "starting": 3111,
      "chem": 3112,
      "##cially": 3113,
      "vex": 3114,
      "becom": 3115,
      "become": 3116,
      "strong": 3117,
      "couldn": 3118,
      "terror": 3119,
      "wont": 3120,
      "Only": 3121,
      "followed": 3122,
      "Spanish": 3123,
      "telling": 3124,
      "biggest": 3125,
      "University": 3126,
      "Mrs": 3127,
      "women": 3128,
      "country": 3129,
      "decorating": 3130,
      "chicken": 3131,
      "difficult": 3132,
      "klaar": 3133,
      "Omg": 3134,
      "machine": 3135,
      "gravy": 3136,
      "Remember": 3137,
      "husband": 3138,
      "album": 3139,
      ";-": 3140,
      "Break": 3141,
      "LI": 3142,
      "Long": 3143,
      "NO": 3144,
      "Sur": 3145,
      "Sure": 3146,
      "ain": 3147,
      "apart": 3148,
      "body": 3149,
      "danc": 3150,
      "daughter": 3151,
      "fm": 3152,
      "fly": 3153,
      "fro": 3154,
      "four": 3155,
      "fish": 3156,
      "gun": 3157,
      "iP": 3158,
      "joke": 3159,
      "mama": 3160,
      "net": 3161,
      "opp": 3162,
      "park": 3163,
      "ppl": 3164,
      "sent": 3165,
      "##ienc": 3166,
      "##cook": 3167,
      "##eal": 3168,
      "##den": 3169,
      "##ray": 3170,
      "##sw": 3171,
      "##pro": 3172,
      "##life": 3173,
      "##ger": 3174,
      "##EAR": 3175,
      "##uv": 3176,
      "##uit": 3177,
      "##20": 3178,
      "##The": 3179,
      "##CE": 3180,
      "##que": 3181,
      "##★★": 3182,
      "##erd": 3183,
      "##stood": 3184,
      "##ither": 3185,
      "throat": 3186,
      "##rel": 3187,
      "##rij": 3188,
      "##ado": 3189,
      "##oof": 3190,
      "star": 3191,
      "station": 3192,
      "##ams": 3193,
      "meal": 3194,
      "##rage": 3195,
      "##sey": 3196,
      "lip": 3197,
      "##ppiness": 3198,
      "##unity": 3199,
      "##usted": 3200,
      "##iced": 3201,
      "shoot": 3202,
      "##ops": 3203,
      "##room": 3204,
      "##atest": 3205,
      "quar": 3206,
      "qual": 3207,
      "##iest": 3208,
      "exp": 3209,
      "##asty": 3210,
      "select": 3211,
      "spent": 3212,
      "##ards": 3213,
      "##apt": 3214,
      "offended": 3215,
      "scene": 3216,
      "##ption": 3217,
      "across": 3218,
      "crap": 3219,
      "throw": 3220,
      "boys": 3221,
      "flow": 3222,
      "insp": 3223,
      "reality": 3224,
      "traffic": 3225,
      "##ijk": 3226,
      "perfect": 3227,
      "frightening": 3228,
      "decided": 3229,
      "Death": 3230,
      "failure": 3231,
      "secret": 3232,
      "Americ": 3233,
      "##ails": 3234,
      "##pecially": 3235,
      "admitted": 3236,
      "speak": 3237,
      "killed": 3238,
      "##ific": 3239,
      "cute": 3240,
      "##ency": 3241,
      "midd": 3242,
      "favour": 3243,
      "Missing": 3244,
      "cookies": 3245,
      "David": 3246,
      "Heart": 3247,
      "results": 3248,
      "officially": 3249,
      "campus": 3250,
      "interesting": 3251,
      "performance": 3252,
      "slightly": 3253,
      "Strictly": 3254,
      "Paul": 3255,
      ".”": 3256,
      "15": 3257,
      "45": 3258,
      "ALL": 3259,
      "Ben": 3260,
      "Birthday": 3261,
      "Bye": 3262,
      "Come": 3263,
      "Dr": 3264,
      "DO": 3265,
      "IN": 3266,
      "Jim": 3267,
      "Lo": 3268,
      "LA": 3269,
      "Night": 3270,
      "OM": 3271,
      "Right": 3272,
      "Saturday": 3273,
      "Very": 3274,
      "Where": 3275,
      "band": 3276,
      "boss": 3277,
      "creat": 3278,
      "dag": 3279,
      "dane": 3280,
      "future": 3281,
      "gas": 3282,
      "hat": 3283,
      "lady": 3284,
      "men": 3285,
      "mall": 3286,
      "mention": 3287,
      "nie": 3288,
      "oper": 3289,
      "pat": 3290,
      "pur": 3291,
      "sight": 3292,
      "side": 3293,
      "saturday": 3294,
      "tem": 3295,
      "ya": 3296,
      "##iology": 3297,
      "##co": 3298,
      "##ks": 3299,
      "##IL": 3300,
      "##rance": 3301,
      "##y_": 3302,
      "##pm": 3303,
      "##zen": 3304,
      "##OL": 3305,
      "##17": 3306,
      "##15": 3307,
      "##HH": 3308,
      "##ux": 3309,
      "##MA": 3310,
      "##fa": 3311,
      "tong": 3312,
      "towards": 3313,
      "##ises": 3314,
      "##omach": 3315,
      "##eeee": 3316,
      "##rem": 3317,
      "##rim": 3318,
      "##ette": 3319,
      "beat": 3320,
      "##alm": 3321,
      "iss": 3322,
      "##allen": 3323,
      "stat": 3324,
      "stri": 3325,
      "strick": 3326,
      "stopped": 3327,
      "ones": 3328,
      "likes": 3329,
      "note": 3330,
      "sol": 3331,
      "##ille": 3332,
      "abs": 3333,
      "question": 3334,
      "degr": 3335,
      "chos": 3336,
      "choose": 3337,
      "neg": 3338,
      "along": 3339,
      "##ilt": 3340,
      "works": 3341,
      "China": 3342,
      "##ummy": 3343,
      "club": 3344,
      "##ishment": 3345,
      "##osh": 3346,
      "fine": 3347,
      "!!!!!!!": 3348,
      "knows": 3349,
      "Still": 3350,
      "movies": 3351,
      "Happiness": 3352,
      "##itten": 3353,
      "problem": 3354,
      "downcast": 3355,
      "exciting": 3356,
      "cover": 3357,
      "himself": 3358,
      "Been": 3359,
      "pregn": 3360,
      ";&#": 3361,
      ".......": 3362,
      "showed": 3363,
      "assign": 3364,
      "personal": 3365,
      "putting": 3366,
      "ending": 3367,
      "##iversary": 3368,
      "Always": 3369,
      "##aves": 3370,
      "Amazing": 3371,
      "Frank": 3372,
      "walked": 3373,
      "commer": 3374,
      "court": 3375,
      "training": 3376,
      "exasperated": 3377,
      "Apparently": 3378,
      "##uzz": 3379,
      "summer": 3380,
      "regret": 3381,
      "gifts": 3382,
      "watched": 3383,
      "extra": 3384,
      "airport": 3385,
      "subject": 3386,
      "##arbucks": 3387,
      "imagine": 3388,
      "stricken": 3389,
      "chosen": 3390,
      "00": 3391,
      "18": 3392,
      "Ad": 3393,
      "AT": 3394,
      "Bed": 3395,
      "Bab": 3396,
      "Cant": 3397,
      "Cong": 3398,
      "Found": 3399,
      "FUCK": 3400,
      "Ind": 3401,
      "Jay": 3402,
      "Jul": 3403,
      "Joe": 3404,
      "Kind": 3405,
      "Mc": 3406,
      "Ms": 3407,
      "OF": 3408,
      "PR": 3409,
      "Pat": 3410,
      "Pot": 3411,
      "Pol": 3412,
      "Sn": 3413,
      "SO": 3414,
      "SH": 3415,
      "Take": 3416,
      "US": 3417,
      "Ve": 3418,
      "Wish": 3419,
      "ble": 3420,
      "breat": 3421,
      "cam": 3422,
      "catch": 3423,
      "dear": 3424,
      "dun": 3425,
      "dans": 3426,
      "dire": 3427,
      "dude": 3428,
      "double": 3429,
      "egg": 3430,
      "echt": 3431,
      "hide": 3432,
      "land": 3433,
      "mijn": 3434,
      "nor": 3435,
      "nigg": 3436,
      "po": 3437,
      "pee": 3438,
      "positive": 3439,
      "ran": 3440,
      "rid": 3441,
      "rock": 3442,
      "sort": 3443,
      "sign": 3444,
      "wine": 3445,
      "zo": 3446,
      "##cri": 3447,
      "##chen": 3448,
      "##ION": 3449,
      "##yn": 3450,
      "##va": 3451,
      "##aat": 3452,
      "##aff": 3453,
      "##wee": 3454,
      "##wood": 3455,
      "##whel": 3456,
      "##lt": 3457,
      "##OY": 3458,
      "##GG": 3459,
      "##EL": 3460,
      "##RIS": 3461,
      "##YY": 3462,
      "##US": 3463,
      "##fr": 3464,
      "##just": 3465,
      "##((": 3466,
      "##ined": 3467,
      "##ince": 3468,
      "##ench": 3469,
      "##ony": 3470,
      "##ara": 3471,
      "answ": 3472,
      "##asing": 3473,
      "##ots": 3474,
      "##oos": 3475,
      "began": 3476,
      "##chie": 3477,
      "##alous": 3478,
      "##ids": 3479,
      "report": 3480,
      "lock": 3481,
      "##ices": 3482,
      "shirt": 3483,
      "##ular": 3484,
      "##ulous": 3485,
      "##ie_": 3486,
      "expl": 3487,
      "exact": 3488,
      "chance": 3489,
      "##olen": 3490,
      "alive": 3491,
      "##ilar": 3492,
      "front": 3493,
      "fresh": 3494,
      "herself": 3495,
      "hey": 3496,
      "heav": 3497,
      "##ument": 3498,
      "least": 3499,
      "##ags": 3500,
      "##ational": 3501,
      "faces": 3502,
      "enc": 3503,
      "convers": 3504,
      "clock": 3505,
      "##igher": 3506,
      "##osed": 3507,
      "grade": 3508,
      "bye": 3509,
      "##bert": 3510,
      "science": 3511,
      "compet": 3512,
      "##orts": 3513,
      "wouldn": 3514,
      "##shit": 3515,
      ".........": 3516,
      "##ighb": 3517,
      "Shit": 3518,
      "wonder": 3519,
      "incre": 3520,
      "inconsol": 3521,
      "saying": 3522,
      "horrible": 3523,
      "tweets": 3524,
      "jealous": 3525,
      "##ESS": 3526,
      "Two": 3527,
      "##www": 3528,
      "##annel": 3529,
      "clear": 3530,
      "laug": 3531,
      "Looking": 3532,
      "boring": 3533,
      "greatest": 3534,
      "deeply": 3535,
      "polit": 3536,
      "police": 3537,
      "##!!!!!!!!!!!!!!!!": 3538,
      "calend": 3539,
      "Playing": 3540,
      "learned": 3541,
      "lectures": 3542,
      "bewildered": 3543,
      "proper": 3544,
      "Sometimes": 3545,
      "building": 3546,
      "Factor": 3547,
      "video": 3548,
      "cousin": 3549,
      "ugly": 3550,
      "unfair": 3551,
      "product": 3552,
      "danecook": 3553,
      "tongue": 3554,
      "degree": 3555,
      "pregnant": 3556,
      "Congr": 3557,
      "inconsolable": 3558,
      ".!": 3559,
      "17": 3560,
      ";/": 3561,
      "BL": 3562,
      "Bus": 3563,
      "Budd": 3564,
      "Co": 3565,
      "High": 3566,
      "Jo": 3567,
      "Jack": 3568,
      "Keep": 3569,
      "Lea": 3570,
      "Lady": 3571,
      "Like": 3572,
      "Mother": 3573,
      "Making": 3574,
      "Made": 3575,
      "Need": 3576,
      "Out": 3577,
      "Pass": 3578,
      "Sam": 3579,
      "Sounds": 3580,
      "Taking": 3581,
      "Wat": 3582,
      "birth": 3583,
      "bunch": 3584,
      "breaking": 3585,
      "bright": 3586,
      "cent": 3587,
      "dou": 3588,
      "den": 3589,
      "dar": 3590,
      "div": 3591,
      "fe": 3592,
      "ff": 3593,
      "freaking": 3594,
      "hun": 3595,
      "kit": 3596,
      "literally": 3597,
      "mat": 3598,
      "mag": 3599,
      "mass": 3600,
      "na": 3601,
      "pay": 3602,
      "pure": 3603,
      "pity": 3604,
      "ring": 3605,
      "taken": 3606,
      "uit": 3607,
      "«@": 3608,
      "##cor": 3609,
      "##ki": 3610,
      "##kin": 3611,
      "##IM": 3612,
      "##tter": 3613,
      "##oir": 3614,
      "##spect": 3615,
      "##mith": 3616,
      "##ply": 3617,
      "##pic": 3618,
      "##pak": 3619,
      "##lf": 3620,
      "##ged": 3621,
      "##gie": 3622,
      "##uesday": 3623,
      "##_B": 3624,
      "##Me": 3625,
      "##erve": 3626,
      "ton": 3627,
      "##athing": 3628,
      "##arah": 3629,
      "##rie": 3630,
      "##lept": 3631,
      "##ett": 3632,
      "beer": 3633,
      "stomach": 3634,
      "##urity": 3635,
      "##ears": 3636,
      "##iment": 3637,
      "within": 3638,
      "shame": 3639,
      "##tern": 3640,
      "##!!!": 3641,
      "##ief": 3642,
      "expected": 3643,
      "chap": 3644,
      "charg": 3645,
      "goes": 3646,
      "goal": 3647,
      "doll": 3648,
      "Thursday": 3649,
      "uncle": 3650,
      "leuk": 3651,
      "fair": 3652,
      "imp": 3653,
      "conn": 3654,
      "nights": 3655,
      "hadn": 3656,
      "Ready": 3657,
      "trans": 3658,
      "plans": 3659,
      "hearing": 3660,
      "seems": 3661,
      "carol": 3662,
      "Stud": 3663,
      "##berry": 3664,
      "save": 3665,
      "compl": 3666,
      "Haven": 3667,
      "Hahaha": 3668,
      "wants": 3669,
      "wanting": 3670,
      "aren": 3671,
      "proc": 3672,
      "problems": 3673,
      "glasses": 3674,
      "guard": 3675,
      "crack": 3676,
      "played": 3677,
      "research": 3678,
      "complete": 3679,
      "anniversary": 3680,
      "track": 3681,
      "monday": 3682,
      "eye": 3683,
      "crow": 3684,
      "depressing": 3685,
      "attention": 3686,
      "Spending": 3687,
      "couple": 3688,
      "##action": 3689,
      "##LLY": 3690,
      "serious": 3691,
      "##icial": 3692,
      "begins": 3693,
      "midnight": 3694,
      "Looks": 3695,
      "drinking": 3696,
      "Asian": 3697,
      "sucks": 3698,
      "##ooooo": 3699,
      "sunday": 3700,
      "thankful": 3701,
      "anguished": 3702,
      "gek": 3703,
      "smells": 3704,
      "cleaning": 3705,
      "Class": 3706,
      "Enjoy": 3707,
      "type": 3708,
      "disappointed": 3709,
      "AND": 3710,
      "journey": 3711,
      "Actually": 3712,
      "view": 3713,
      "Wednesday": 3714,
      "given": 3715,
      "selected": 3716,
      "middle": 3717,
      "favourite": 3718,
      "assignment": 3719,
      "laughed": 3720,
      ".\"": 3721,
      ";#": 3722,
      "Ass": 3723,
      "BA": 3724,
      "Ce": 3725,
      "Cou": 3726,
      "Cur": 3727,
      "Dear": 3728,
      "Even": 3729,
      "Friend": 3730,
      "Face": 3731,
      "FOR": 3732,
      "Hot": 3733,
      "Hell": 3734,
      "Help": 3735,
      "IM": 3736,
      "NE": 3737,
      "Nu": 3738,
      "Nick": 3739,
      "Per": 3740,
      "RI": 3741,
      "Rob": 3742,
      "Way": 3743,
      "West": 3744,
      "Wond": 3745,
      "Waking": 3746,
      "ah": 3747,
      "au": 3748,
      "bra": 3749,
      "cas": 3750,
      "cad": 3751,
      "cap": 3752,
      "cuz": 3753,
      "dit": 3754,
      "dam": 3755,
      "ele": 3756,
      "easy": 3757,
      "fix": 3758,
      "hee": 3759,
      "hid": 3760,
      "hockey": 3761,
      "ip": 3762,
      "jes": 3763,
      "kan": 3764,
      "key": 3765,
      "lab": 3766,
      "mi": 3767,
      "none": 3768,
      "ou": 3769,
      "pin": 3770,
      "pen": 3771,
      "pink": 3772,
      "pump": 3773,
      "power": 3774,
      "ri": 3775,
      "rat": 3776,
      "rap": 3777,
      "race": 3778,
      "sore": 3779,
      "squ": 3780,
      "tap": 3781,
      "table": 3782,
      "um": 3783,
      "vent": 3784,
      "vac": 3785,
      "wisdom": 3786,
      "yell": 3787,
      "##con": 3788,
      "##no": 3789,
      "##nam": 3790,
      "##ring": 3791,
      "##res": 3792,
      "##sc": 3793,
      "##vo": 3794,
      "##vious": 3795,
      "##a_": 3796,
      "##aven": 3797,
      "##mo": 3798,
      "##miss": 3799,
      "##mare": 3800,
      "##long": 3801,
      "##bing": 3802,
      "##ule": 3803,
      "##upp": 3804,
      "##RI": 3805,
      "##UR": 3806,
      "##Th": 3807,
      "##KE": 3808,
      "##oring": 3809,
      "##orge": 3810,
      "##atives": 3811,
      "##oner": 3812,
      "##ston": 3813,
      "##sters": 3814,
      "##stairs": 3815,
      "##anny": 3816,
      "##isk": 3817,
      "##ism": 3818,
      "##ashed": 3819,
      "##eef": 3820,
      "##ety": 3821,
      "beha": 3822,
      "##ald": 3823,
      "stared": 3824,
      "staying": 3825,
      "stolen": 3826,
      "...&": 3827,
      "memor": 3828,
      "##raph": 3829,
      "##kel": 3830,
      "load": 3831,
      "loving": 3832,
      "lim": 3833,
      "lips": 3834,
      "amused": 3835,
      "##ustwee": 3836,
      "soft": 3837,
      "shad": 3838,
      "shitty": 3839,
      "##aked": 3840,
      "These": 3841,
      "quiet": 3842,
      "deer": 3843,
      "dest": 3844,
      "deject": 3845,
      "chip": 3846,
      "channel": 3847,
      "##asting": 3848,
      "sever": 3849,
      "##ilty": 3850,
      "french": 3851,
      "asham": 3852,
      "heb": 3853,
      "Chris": 3854,
      "##ains": 3855,
      "leaves": 3856,
      "cancer": 3857,
      "spo": 3858,
      "##ardash": 3859,
      "##ists": 3860,
      "nose": 3861,
      "constant": 3862,
      "##hausted": 3863,
      "##icks": 3864,
      "##ema": 3865,
      "happening": 3866,
      "##prise": 3867,
      "agree": 3868,
      "overwhel": 3869,
      "Str": 3870,
      "Stupid": 3871,
      "scar": 3872,
      "scream": 3873,
      "brand": 3874,
      "##aches": 3875,
      "arrest": 3876,
      "startled": 3877,
      "awful": 3878,
      "apparently": 3879,
      "lls": 3880,
      "coach": 3881,
      "cheese": 3882,
      "##ang_M": 3883,
      "drama": 3884,
      "player": 3885,
      "phot": 3886,
      "term": 3887,
      "contact": 3888,
      "swim": 3889,
      "##OOD": 3890,
      "roommate": 3891,
      "remind": 3892,
      "decision": 3893,
      "creep": 3894,
      "puts": 3895,
      "depression": 3896,
      "total": 3897,
      "maar": 3898,
      "mail": 3899,
      "relax": 3900,
      "Once": 3901,
      "##ampion": 3902,
      "THAT": 3903,
      "following": 3904,
      "heartbreak": 3905,
      "others": 3906,
      "teach": 3907,
      "##ccer": 3908,
      "##anned": 3909,
      "lots": 3910,
      "treated": 3911,
      "From": 3912,
      "killing": 3913,
      "Everything": 3914,
      "steal": 3915,
      "beginning": 3916,
      "learnt": 3917,
      "discover": 3918,
      "LOL": 3919,
      "##duc": 3920,
      "Comp": 3921,
      "welcome": 3922,
      "##bye": 3923,
      "entrance": 3924,
      "##restling": 3925,
      "calm": 3926,
      "especially": 3927,
      "typ": 3928,
      "Didn": 3929,
      "simple": 3930,
      "experienc": 3931,
      "packed": 3932,
      "official": 3933,
      "HAPP": 3934,
      "Team": 3935,
      "##stead": 3936,
      "Okay": 3937,
      "window": 3938,
      "##coming": 3939,
      "animal": 3940,
      "film": 3941,
      "allowed": 3942,
      "turkey": 3943,
      "bottle": 3944,
      "##aylor": 3945,
      "##ribly": 3946,
      "Bonang_M": 3947,
      "Starting": 3948,
      "chemistry": 3949,
      "commercial": 3950,
      "heavy": 3951,
      "conversation": 3952,
      "crowd": 3953,
      "jesustwee": 3954,
      "ashamed": 3955,
      "jesustweeters": 3956,
      "!?": 3957,
      "1st": 3958,
      "40": 3959,
      "50": 3960,
      "Ain": 3961,
      "Bel": 3962,
      "Boy": 3963,
      "Both": 3964,
      "Cr": 3965,
      "Col": 3966,
      "Din": 3967,
      "Dra": 3968,
      "Eating": 3969,
      "Har": 3970,
      "House": 3971,
      "Ik": 3972,
      "Lu": 3973,
      "Ma": 3974,
      "Ol": 3975,
      "Over": 3976,
      "Pre": 3977,
      "Put": 3978,
      "Ro": 3979,
      "RE": 3980,
      "Res": 3981,
      "Such": 3982,
      "Sinter": 3983,
      "Ter": 3984,
      "Talking": 3985,
      "Want": 3986,
      "Word": 3987,
      "ap": 3988,
      "achie": 3989,
      "bo": 3990,
      "burn": 3991,
      "boot": 3992,
      "bird": 3993,
      "cri": 3994,
      "diss": 3995,
      "equ": 3996,
      "event": 3997,
      "fast": 3998,
      "fart": 3999,
      "field": 4000,
      "gro": 4001,
      "gain": 4002,
      "jud": 4003,
      "kiss": 4004,
      "las": 4005,
      "ment": 4006,
      "mur": 4007,
      "mill": 4008,
      "mate": 4009,
      "mac": 4010,
      "nasty": 4011,
      "pill": 4012,
      "pock": 4013,
      "puzz": 4014,
      "sam": 4015,
      "six": 4016,
      "taste": 4017,
      "utter": 4018,
      "vi": 4019,
      "wen": 4020,
      "wet": 4021,
      "wal": 4022,
      "waste": 4023,
      "##i_": 4024,
      "##iber": 4025,
      "##cited": 4026,
      "##nis": 4027,
      "##tin": 4028,
      "##ex": 4029,
      "##vit": 4030,
      "##val": 4031,
      "##aan": 4032,
      "##aur": 4033,
      "##ael": 4034,
      "##min": 4035,
      "##men": 4036,
      "##mar": 4037,
      "##pen": 4038,
      "##phew": 4039,
      "##li": 4040,
      "##god": 4041,
      "##bt": 4042,
      "##box": 4043,
      "##18": 4044,
      "##_N": 4045,
      "##NT": 4046,
      "##follow": 4047,
      "##WG": 4048,
      "##CC": 4049,
      "##??": 4050,
      "##heart": 4051,
      "##ero": 4052,
      "##eren": 4053,
      "##erment": 4054,
      "##ora": 4055,
      "##ouw": 4056,
      "##lling": 4057,
      "##omy": 4058,
      "##omp": 4059,
      "##adi": 4060,
      "##utsel": 4061,
      "##lyn": 4062,
      "repe": 4063,
      "##essor": 4064,
      "lived": 4065,
      "lives": 4066,
      "##uren": 4067,
      "##urry": 4068,
      "##pper": 4069,
      "social": 4070,
      "soccer": 4071,
      "##icy": 4072,
      "##icip": 4073,
      "share": 4074,
      "sharing": 4075,
      "##terklaas": 4076,
      "qui": 4077,
      "quiz": 4078,
      "##ushing": 4079,
      "except": 4080,
      "chat": 4081,
      "##ola": 4082,
      "##olut": 4083,
      "neighb": 4084,
      "nephew": 4085,
      "##anda": 4086,
      "##aged": 4087,
      "spread": 4088,
      "spider": 4089,
      "impr": 4090,
      "cond": 4091,
      "blind": 4092,
      "butter": 4093,
      "##elly": 4094,
      "finale": 4095,
      "planned": 4096,
      "madness": 4097,
      "While": 4098,
      "##eace": 4099,
      "Starbucks": 4100,
      "moet": 4101,
      "prospect": 4102,
      "everybody": 4103,
      "appro": 4104,
      "glum": 4105,
      "anyway": 4106,
      "robb": 4107,
      "fuckin": 4108,
      "longer": 4109,
      "terribly": 4110,
      "delay": 4111,
      "elation": 4112,
      "##ube": 4113,
      "##ubb": 4114,
      "Any": 4115,
      "calling": 4116,
      "incl": 4117,
      "horse": 4118,
      "maj": 4119,
      "relatives": 4120,
      "attend": 4121,
      "despair": 4122,
      "Almost": 4123,
      "Also": 4124,
      "##iety": 4125,
      "illness": 4126,
      "##EST": 4127,
      "##avond": 4128,
      "ski": 4129,
      "teaching": 4130,
      "Thankful": 4131,
      "##mmmm": 4132,
      "unexpectedly": 4133,
      "sinterklaas": 4134,
      "astonishment": 4135,
      "books": 4136,
      "bored": 4137,
      "maybe": 4138,
      "enjoying": 4139,
      "##undry": 4140,
      "falling": 4141,
      "Left": 4142,
      "realize": 4143,
      "emotions": 4144,
      "medic": 4145,
      "leads": 4146,
      "Sec": 4147,
      "piece": 4148,
      "fanz": 4149,
      "lecture": 4150,
      "returned": 4151,
      "bewilderment": 4152,
      "physics": 4153,
      "color": 4154,
      "lucky": 4155,
      "World": 4156,
      "Waiting": 4157,
      "tournam": 4158,
      "animals": 4159,
      "draw": 4160,
      "honestly": 4161,
      "mistake": 4162,
      "infuri": 4163,
      "slowly": 4164,
      "normal": 4165,
      "psychology": 4166,
      "CHRIS": 4167,
      "HATE": 4168,
      "silent": 4169,
      "vexed": 4170,
      "becoming": 4171,
      "dancing": 4172,
      "OMG": 4173,
      "issues": 4174,
      "peeved": 4175,
      "answer": 4176,
      "exactly": 4177,
      "connect": 4178,
      "heeft": 4179,
      "experienced": 4180,
      "tournament": 4181,
      "CHRIST": 4182,
      "16": 4183,
      ":|": 4184,
      ";.": 4185,
      "Ag": 4186,
      "ACT": 4187,
      "ASS": 4188,
      "BE": 4189,
      "Bad": 4190,
      "Bill": 4191,
      "Cle": 4192,
      "Call": 4193,
      "Cra": 4194,
      "Cont": 4195,
      "DJ": 4196,
      "Del": 4197,
      "Es": 4198,
      "End": 4199,
      "EVER": 4200,
      "FR": 4201,
      "Father": 4202,
      "Girl": 4203,
      "Hi": 4204,
      "HOME": 4205,
      "Ice": 4206,
      "Kn": 4207,
      "King": 4208,
      "Lou": 4209,
      "Les": 4210,
      "Mid": 4211,
      "Mag": 4212,
      "Meeting": 4213,
      "Net": 4214,
      "Pri": 4215,
      "Part": 4216,
      "Park": 4217,
      "Plan": 4218,
      "Rather": 4219,
      "REA": 4220,
      "Saw": 4221,
      "Sky": 4222,
      "Ty": 4223,
      "TW": 4224,
      "Ton": 4225,
      "Tre": 4226,
      "Trying": 4227,
      "Tuesday": 4228,
      "Wood": 4229,
      "Would": 4230,
      "bt": 4231,
      "bomb": 4232,
      "board": 4233,
      "biology": 4234,
      "cre": 4235,
      "cast": 4236,
      "case": 4237,
      "caught": 4238,
      "dut": 4239,
      "drag": 4240,
      "dare": 4241,
      "danger": 4242,
      "fool": 4243,
      "fig": 4244,
      "fans": 4245,
      "ger": 4246,
      "gay": 4247,
      "hom": 4248,
      "hel": 4249,
      "hob": 4250,
      "lar": 4251,
      "lad": 4252,
      "mer": 4253,
      "moo": 4254,
      "main": 4255,
      "matt": 4256,
      "nite": 4257,
      "pages": 4258,
      "row": 4259,
      "sus": 4260,
      "sand": 4261,
      "session": 4262,
      "tight": 4263,
      "tout": 4264,
      "tak": 4265,
      "takes": 4266,
      "tatt": 4267,
      "va": 4268,
      "yay": 4269,
      "##hood": 4270,
      "##iam": 4271,
      "##cing": 4272,
      "##cause": 4273,
      "##IG": 4274,
      "##tweet": 4275,
      "##rd": 4276,
      "##riting": 4277,
      "##sion": 4278,
      "##yan": 4279,
      "##mfa": 4280,
      "##pose": 4281,
      "##with": 4282,
      "##lee": 4283,
      "##light": 4284,
      "##gl": 4285,
      "##gu": 4286,
      "##OP": 4287,
      "##bra": 4288,
      "##boy": 4289,
      "##bell": 4290,
      "##xic": 4291,
      "##De": 4292,
      "##DD": 4293,
      "##AH": 4294,
      "##_S": 4295,
      "##_O": 4296,
      "##_L": 4297,
      "##_R": 4298,
      "##_D": 4299,
      "##MB": 4300,
      "##UL": 4301,
      "##25": 4302,
      "##TT": 4303,
      "##WW": 4304,
      "##:)": 4305,
      "##:(": 4306,
      "##92": 4307,
      "##90": 4308,
      "##ini": 4309,
      "##ino": 4310,
      "##iny": 4311,
      "##heel": 4312,
      "##erence": 4313,
      "##eds": 4314,
      "##atomy": 4315,
      "##itar": 4316,
      "##itation": 4317,
      "##eezing": 4318,
      "tho": 4319,
      "##real": 4320,
      "infect": 4321,
      "##rig": 4322,
      "##lement": 4323,
      "##cks": 4324,
      "forced": 4325,
      "##uts": 4326,
      "##alo": 4327,
      "hab": 4328,
      "hall": 4329,
      "repl": 4330,
      "stood": 4331,
      "...#": 4332,
      "mel": 4333,
      "ont": 4334,
      "lic": 4335,
      "##vert": 4336,
      "##ustom": 4337,
      "ate": 4338,
      "noticed": 4339,
      "shout": 4340,
      "##roy": 4341,
      "dep": 4342,
      "##olo": 4343,
      "##olic": 4344,
      "upd": 4345,
      "##ili": 4346,
      "##ours": 4347,
      "Those": 4348,
      "comfort": 4349,
      "heaven": 4350,
      "unjust": 4351,
      "##ummer": 4352,
      "leuke": 4353,
      "##ague": 4354,
      "weer": 4355,
      "spot": 4356,
      "##iger": 4357,
      "somewhere": 4358,
      "##emy": 4359,
      "knee": 4360,
      "known": 4361,
      "happens": 4362,
      "trust": 4363,
      "age": 4364,
      "White": 4365,
      "suit": 4366,
      ":))": 4367,
      "##iley": 4368,
      "Star": 4369,
      "Stay": 4370,
      "State": 4371,
      "mob": 4372,
      "screw": 4373,
      "screen": 4374,
      "morgen": 4375,
      "company": 4376,
      "brown": 4377,
      "##aced": 4378,
      "arr": 4379,
      "sleepy": 4380,
      "bitches": 4381,
      "##togod": 4382,
      "adv": 4383,
      "acting": 4384,
      "action": 4385,
      "##ized": 4386,
      "##anged": 4387,
      "studies": 4388,
      "students": 4389,
      "teen": 4390,
      "organ": 4391,
      "throwing": 4392,
      "descri": 4393,
      "stress": 4394,
      "strange": 4395,
      "Inter": 4396,
      "pleasure": 4397,
      "usually": 4398,
      "insulted": 4399,
      "swear": 4400,
      "##ploy": 4401,
      "underw": 4402,
      "Ann": 4403,
      "Anne": 4404,
      "Show": 4405,
      "passion": 4406,
      "##ances": 4407,
      "funeral": 4408,
      "tests": 4409,
      "misunder": 4410,
      "cru": 4411,
      "opin": 4412,
      "turnback": 4413,
      "##ugs": 4414,
      "##ugust": 4415,
      "ends": 4416,
      "lets": 4417,
      "THAN": 4418,
      "annoying": 4419,
      "follows": 4420,
      "helping": 4421,
      "##mao": 4422,
      "Does": 4423,
      "Final": 4424,
      "Finished": 4425,
      "security": 4426,
      "?!?!": 4427,
      "marath": 4428,
      "trees": 4429,
      "speaking": 4430,
      "##athetic": 4431,
      "##ashion": 4432,
      "United": 4433,
      "basically": 4434,
      ".&#": 4435,
      "remembered": 4436,
      "2012": 4437,
      "Expect": 4438,
      "Everyone": 4439,
      "midter": 4440,
      "##ibility": 4441,
      "standing": 4442,
      "prize": 4443,
      "Comm": 4444,
      "Coming": 4445,
      "songs": 4446,
      "younger": 4447,
      "consid": 4448,
      "maths": 4449,
      "support": 4450,
      "meaning": 4451,
      "invol": 4452,
      "Market": 4453,
      "okay": 4454,
      "situation": 4455,
      "charact": 4456,
      "closed": 4457,
      "attacked": 4458,
      "##****": 4459,
      "reply": 4460,
      "separation": 4461,
      "separated": 4462,
      "##ength": 4463,
      "Maybe": 4464,
      "Daniel": 4465,
      "bathroom": 4466,
      "bullshit": 4467,
      "golden": 4468,
      "knocked": 4469,
      "argument": 4470,
      "disgusting": 4471,
      "flowers": 4472,
      "inspir": 4473,
      "##ification": 4474,
      "niece": 4475,
      "##remely": 4476,
      "##asingly": 4477,
      "competition": 4478,
      "increasingly": 4479,
      "calendar": 4480,
      "RIP": 4481,
      "##mission": 4482,
      "memories": 4483,
      "shadow": 4484,
      "##ampionship": 4485,
      "HAPPY": 4486,
      "Olé": 4487,
      "Sinterklaas": 4488,
      "large": 4489,
      "##mfao": 4490,
      "turnbacktogod": 4491,
      "25": 4492,
      "8am": 4493,
      "=)": 4494,
      "Aut": 4495,
      "Aww": 4496,
      "August": 4497,
      "Boo": 4498,
      "Bored": 4499,
      "Beaut": 4500,
      "Cal": 4501,
      "EX": 4502,
      "Een": 4503,
      "Gre": 4504,
      "Gra": 4505,
      "GRE": 4506,
      "Has": 4507,
      "Holiday": 4508,
      "Holy": 4509,
      "Jake": 4510,
      "Ke": 4511,
      "Know": 4512,
      "Lind": 4513,
      "Lau": 4514,
      "Liz": 4515,
      "Little": 4516,
      "MA": 4517,
      "Met": 4518,
      "Mal": 4519,
      "Mel": 4520,
      "More": 4521,
      "Most": 4522,
      "Mike": 4523,
      "Merry": 4524,
      "Nog": 4525,
      "NOW": 4526,
      "OH": 4527,
      "Our": 4528,
      "PH": 4529,
      "Pack": 4530,
      "Psych": 4531,
      "Que": 4532,
      "Ser": 4533,
      "Same": 4534,
      "Sleep": 4535,
      "Snow": 4536,
      "Santa": 4537,
      "TR": 4538,
      "Tired": 4539,
      "Won": 4540,
      "Wel": 4541,
      "Walk": 4542,
      "Woke": 4543,
      "WOR": 4544,
      "Writing": 4545,
      "Ya": 4546,
      "aan": 4547,
      "bc": 4548,
      "bat": 4549,
      "bac": 4550,
      "bread": 4551,
      "cy": 4552,
      "cried": 4553,
      "custom": 4554,
      "ded": 4555,
      "det": 4556,
      "ed": 4557,
      "eight": 4558,
      "err": 4559,
      "educ": 4560,
      "fem": 4561,
      "feed": 4562,
      "false": 4563,
      "finger": 4564,
      "ho": 4565,
      "hal": 4566,
      "hill": 4567,
      "hole": 4568,
      "higher": 4569,
      "kat": 4570,
      "kart": 4571,
      "mc": 4572,
      "mir": 4573,
      "mil": 4574,
      "mij": 4575,
      "mount": 4576,
      "niet": 4577,
      "narr": 4578,
      "ook": 4579,
      "obs": 4580,
      "pow": 4581,
      "pra": 4582,
      "pic": 4583,
      "piss": 4584,
      "port": 4585,
      "pier": 4586,
      "rage": 4587,
      "send": 4588,
      "sigh": 4589,
      "sym": 4590,
      "sense": 4591,
      "slept": 4592,
      "ta": 4593,
      "tut": 4594,
      "tim": 4595,
      "vo": 4596,
      "vet": 4597,
      "val": 4598,
      "wide": 4599,
      "zit": 4600,
      "##han": 4601,
      "##car": 4602,
      "##cul": 4603,
      "##kker": 4604,
      "##IE": 4605,
      "##nic": 4606,
      "##tz": 4607,
      "##ram": 4608,
      "##ressed": 4609,
      "##o_": 4610,
      "##ville": 4611,
      "##mad": 4612,
      "##mory": 4613,
      "##lot": 4614,
      "##low": 4615,
      "##lam": 4616,
      "##give": 4617,
      "##girl": 4618,
      "##bab": 4619,
      "##board": 4620,
      "##14": 4621,
      "##uh": 4622,
      "##uy": 4623,
      "##ued": 4624,
      "##PWG": 4625,
      "##UD": 4626,
      "##fer": 4627,
      "##joice": 4628,
      "##08": 4629,
      "##33": 4630,
      "##91": 4631,
      "##~~": 4632,
      "##$$": 4633,
      "##het": 4634,
      "##hehe": 4635,
      "##era": 4636,
      "##orough": 4637,
      "##ourag": 4638,
      "##edy": 4639,
      "##atul": 4640,
      "##enny": 4641,
      "##onch": 4642,
      "##stem": 4643,
      "##arship": 4644,
      "##ita": 4645,
      "##ities": 4646,
      "##ishes": 4647,
      "anatomy": 4648,
      "tha": 4649,
      "threw": 4650,
      "thursday": 4651,
      "thuis": 4652,
      "thief": 4653,
      "##owning": 4654,
      "##rect": 4655,
      "inpak": 4656,
      "instead": 4657,
      "##riage": 4658,
      "##ada": 4659,
      "bey": 4660,
      "##alent": 4661,
      "haunt": 4662,
      "##idence": 4663,
      "isnt": 4664,
      "##cell": 4665,
      "memory": 4666,
      "##irgin": 4667,
      "##rapping": 4668,
      "loathing": 4669,
      "##uro": 4670,
      "##ury": 4671,
      "##ured": 4672,
      "wash": 4673,
      "amaz": 4674,
      "##unn": 4675,
      "##une": 4676,
      "##unately": 4677,
      "notes": 4678,
      "##icide": 4679,
      "##uses": 4680,
      "##antic": 4681,
      "exist": 4682,
      "exhausted": 4683,
      "deb": 4684,
      "goin": 4685,
      "##olarship": 4686,
      "##though": 4687,
      "seat": 4688,
      "seven": 4689,
      "Thought": 4690,
      "outta": 4691,
      "workout": 4692,
      "ash": 4693,
      "heading": 4694,
      "##aining": 4695,
      "##umn": 4696,
      "fait": 4697,
      "fake": 4698,
      "fault": 4699,
      "spr": 4700,
      "sports": 4701,
      "##ucky": 4702,
      "##istic": 4703,
      "noise": 4704,
      "concept": 4705,
      "nightmare": 4706,
      "somebody": 4707,
      "##emand": 4708,
      "##empt": 4709,
      "##press": 4710,
      "goodbye": 4711,
      "growing": 4712,
      "##onde": 4713,
      "Heading": 4714,
      "##olle": 4715,
      "##ollen": 4716,
      "overfl": 4717,
      "##ilet": 4718,
      "Stand": 4719,
      "Staying": 4720,
      "sched": 4721,
      "sale": 4722,
      "arm": 4723,
      "progr": 4724,
      "smiles": 4725,
      "glee": 4726,
      "##azy": 4727,
      "##azz": 4728,
      "guilty": 4729,
      "##ize": 4730,
      "Justin": 4731,
      "surr": 4732,
      "tech": 4733,
      "##ival": 4734,
      "##ivity": 4735,
      "particip": 4736,
      "##obia": 4737,
      "thru": 4738,
      "##selves": 4739,
      "Because": 4740,
      "laundry": 4741,
      "prep": 4742,
      "##iah": 4743,
      "earth": 4744,
      "flu": 4745,
      "flight": 4746,
      "parent": 4747,
      "contin": 4748,
      "doesnt": 4749,
      "mins": 4750,
      "shouldn": 4751,
      "##aneous": 4752,
      "thoughts": 4753,
      "Shut": 4754,
      "permission": 4755,
      "driver": 4756,
      "##ahl": 4757,
      "snake": 4758,
      "max": 4759,
      "##iano": 4760,
      "listened": 4761,
      "brothers": 4762,
      "buying": 4763,
      "accused": 4764,
      "follower": 4765,
      "Doing": 4766,
      "Doctor": 4767,
      "?!?": 4768,
      "Tweet": 4769,
      "##phone": 4770,
      "sky": 4771,
      "skin": 4772,
      "Forget": 4773,
      "tennis": 4774,
      "##rets": 4775,
      "internet": 4776,
      "##ONE": 4777,
      "keeps": 4778,
      "##ANG": 4779,
      "##ANT": 4780,
      "dads": 4781,
      "##ISS": 4782,
      "##oking": 4783,
      "##okes": 4784,
      "bringing": 4785,
      "learning": 4786,
      "freezing": 4787,
      "Bring": 4788,
      "Brown": 4789,
      "grey": 4790,
      "##achel": 4791,
      "##ENT": 4792,
      "price": 4793,
      "Official": 4794,
      "##atural": 4795,
      "##velop": 4796,
      "cooking": 4797,
      "expecting": 4798,
      "receive": 4799,
      "Truth": 4800,
      "wednesday": 4801,
      "suppose": 4802,
      "corner": 4803,
      "extremely": 4804,
      "media": 4805,
      "simply": 4806,
      "##loved": 4807,
      "experience": 4808,
      "profile": 4809,
      "caused": 4810,
      "certainly": 4811,
      "Tech": 4812,
      "##ounting": 4813,
      "sweater": 4814,
      "_____": 4815,
      "curr": 4816,
      "balls": 4817,
      "Super": 4818,
      "dropping": 4819,
      "doctors": 4820,
      "bloody": 4821,
      "arrive": 4822,
      "Glad": 4823,
      "Seeing": 4824,
      "ignore": 4825,
      "possible": 4826,
      "scholarship": 4827,
      "##ajaj": 4828,
      "pulled": 4829,
      "ticket": 4830,
      "Charlie": 4831,
      "system": 4832,
      "suffered": 4833,
      "treatment": 4834,
      "entered": 4835,
      "Surprise": 4836,
      "fml": 4837,
      "starving": 4838,
      "American": 4839,
      "operation": 4840,
      "absence": 4841,
      "negative": 4842,
      "Baby": 4843,
      "Potter": 4844,
      "bleed": 4845,
      "Buddha": 4846,
      "kitchen": 4847,
      "Celebr": 4848,
      "Hello": 4849,
      "ipod": 4850,
      "vacation": 4851,
      "several": 4852,
      "discovered": 4853,
      "Dinner": 4854,
      "pocket": 4855,
      "utterly": 4856,
      "infuriated": 4857,
      "Tonight": 4858,
      "marathon": 4859,
      "##atulations": 4860,
      "(;": 4861,
      ",,": 4862,
      "/:": 4863,
      "13": 4864,
      "19": 4865,
      "21": 4866,
      "60": 4867,
      "80": 4868,
      "?&": 4869,
      "AP": 4870,
      "Bas": 4871,
      "Bet": 4872,
      "Bro": 4873,
      "Bitch": 4874,
      "CR": 4875,
      "Cam": 4876,
      "Count": 4877,
      "Det": 4878,
      "Deep": 4879,
      "Dick": 4880,
      "Def": 4881,
      "DON": 4882,
      "DAY": 4883,
      "Full": 4884,
      "Follow": 4885,
      "Ge": 4886,
      "Gen": 4887,
      "Hor": 4888,
      "Hum": 4889,
      "Hmm": 4890,
      "Jess": 4891,
      "Jap": 4892,
      "JOY": 4893,
      "Kim": 4894,
      "Li": 4895,
      "Late": 4896,
      "Live": 4897,
      "Log": 4898,
      "Literally": 4899,
      "Min": 4900,
      "Missed": 4901,
      "NB": 4902,
      "Nice": 4903,
      "Nob": 4904,
      "Nope": 4905,
      "Oly": 4906,
      "Poor": 4907,
      "Pret": 4908,
      "Peace": 4909,
      "Ra": 4910,
      "Red": 4911,
      "Rain": 4912,
      "Sa": 4913,
      "SU": 4914,
      "SC": 4915,
      "Sad": 4916,
      "Sal": 4917,
      "Sim": 4918,
      "South": 4919,
      "Tell": 4920,
      "Turn": 4921,
      "Ur": 4922,
      "Und": 4923,
      "Vi": 4924,
      "Win": 4925,
      "Wom": 4926,
      "Watch": 4927,
      "YES": 4928,
      "ave": 4929,
      "aut": 4930,
      "ba": 4931,
      "ban": 4932,
      "bow": 4933,
      "boo": 4934,
      "bal": 4935,
      "bij": 4936,
      "bio": 4937,
      "bike": 4938,
      "cop": 4939,
      "cand": 4940,
      "catching": 4941,
      "crest": 4942,
      "candy": 4943,
      "dumb": 4944,
      "eh": 4945,
      "eas": 4946,
      "either": 4947,
      "fi": 4948,
      "fit": 4949,
      "fol": 4950,
      "foc": 4951,
      "fever": 4952,
      "fashion": 4953,
      "gh": 4954,
      "goo": 4955,
      "gag": 4956,
      "gew": 4957,
      "gonn": 4958,
      "hw": 4959,
      "hon": 4960,
      "hint": 4961,
      "holly": 4962,
      "hurry": 4963,
      "ir": 4964,
      "io": 4965,
      "iron": 4966,
      "jam": 4967,
      "jus": 4968,
      "jail": 4969,
      "king": 4970,
      "kom": 4971,
      "kicked": 4972,
      "lit": 4973,
      "lack": 4974,
      "lug": 4975,
      "mut": 4976,
      "mal": 4977,
      "mak": 4978,
      "mour": 4979,
      "nom": 4980,
      "nam": 4981,
      "nick": 4982,
      "nature": 4983,
      "nerd": 4984,
      "ow": 4985,
      "pun": 4986,
      "pig": 4987,
      "pair": 4988,
      "poop": 4989,
      "rul": 4990,
      "rac": 4991,
      "rough": 4992,
      "rich": 4993,
      "rare": 4994,
      "rude": 4995,
      "rush": 4996,
      "si": 4997,
      "sens": 4998,
      "sarah": 4999,
      "tough": 5000,
      "tax": 5001,
      "talent": 5002,
      "wach": 5003,
      "wrestling": 5004,
      "xx": 5005,
      "yo": 5006,
      "zomb": 5007,
      "zijn": 5008,
      "ét": 5009,
      "##hor": 5010,
      "##house": 5011,
      "##ipping": 5012,
      "##cut": 5013,
      "##cery": 5014,
      "##kk": 5015,
      "##kid": 5016,
      "##In": 5017,
      "##IVE": 5018,
      "##ICK": 5019,
      "##SE": 5020,
      "##nful": 5021,
      "##tf": 5022,
      "##tle": 5023,
      "##town": 5024,
      "##dag": 5025,
      "##rad": 5026,
      "##ress": 5027,
      "##ration": 5028,
      "##off": 5029,
      "##yle": 5030,
      "##viously": 5031,
      "##vior": 5032,
      "##ai": 5033,
      "##mon": 5034,
      "##mates": 5035,
      "##mpic": 5036,
      "##pack": 5037,
      "##wich": 5038,
      "##like": 5039,
      "##ging": 5040,
      "##gar": 5041,
      "##gas": 5042,
      "##gone": 5043,
      "##On": 5044,
      "##bie": 5045,
      "##Girl": 5046,
      "##uw": 5047,
      "##ura": 5048,
      "##uate": 5049,
      "##uary": 5050,
      "##AP": 5051,
      "##ALLY": 5052,
      "##_l": 5053,
      "##_b": 5054,
      "##_H": 5055,
      "##_A": 5056,
      "##_F": 5057,
      "##MAS": 5058,
      "##NN": 5059,
      "##UP": 5060,
      "##TY": 5061,
      "##fy": 5062,
      "##fallen": 5063,
      "##WS": 5064,
      "##ja": 5065,
      "##jm": 5066,
      "##BS": 5067,
      "##Br": 5068,
      "##07": 5069,
      "##FL": 5070,
      "##30": 5071,
      "##ories": 5072,
      "toe": 5073,
      "##atal": 5074,
      "##atitude": 5075,
      "##anut": 5076,
      "##aret": 5077,
      "##lla": 5078,
      "##ito": 5079,
      "##isc": 5080,
      "##isation": 5081,
      "antic": 5082,
      "##asc": 5083,
      "##asp": 5084,
      "##ased": 5085,
      "##eeze": 5086,
      "third": 5087,
      "thorough": 5088,
      "##otect": 5089,
      "##reg": 5090,
      "##vember": 5091,
      "ine": 5092,
      "instant": 5093,
      "##rier": 5094,
      "##rian": 5095,
      "##rious": 5096,
      "##etch": 5097,
      "youre": 5098,
      "bez": 5099,
      "bear": 5100,
      "bell": 5101,
      "belly": 5102,
      "beloved": 5103,
      "##days": 5104,
      "##child": 5105,
      "##alty": 5106,
      "havent": 5107,
      "release": 5108,
      "review": 5109,
      "stage": 5110,
      "staring": 5111,
      "stairs": 5112,
      "##cel": 5113,
      "member": 5114,
      "memb": 5115,
      "##irc": 5116,
      "##essive": 5117,
      "item": 5118,
      "##rau": 5119,
      "##rast": 5120,
      "los": 5121,
      "##imp": 5122,
      "washing": 5123,
      "wasnt": 5124,
      "amount": 5125,
      "##ustin": 5126,
      "solo": 5127,
      "shall": 5128,
      "shook": 5129,
      "##eline": 5130,
      "##enda": 5131,
      "##ulf": 5132,
      "##ulsion": 5133,
      "##iller": 5134,
      "##illage": 5135,
      "##roblems": 5136,
      "whis": 5137,
      "Their": 5138,
      "##ieve": 5139,
      "depart": 5140,
      "develop": 5141,
      "cha": 5142,
      "chuck": 5143,
      "choice": 5144,
      "championship": 5145,
      "neck": 5146,
      "als": 5147,
      "##ando": 5148,
      "##ils": 5149,
      "##ila": 5150,
      "##ourt": 5151,
      "##abe": 5152,
      "##abb": 5153,
      "##abulous": 5154,
      "quotes": 5155,
      "Chill": 5156,
      "##aine": 5157,
      "unb": 5158,
      "##umm": 5159,
      "level": 5160,
      "lekker": 5161,
      "weight": 5162,
      "area": 5163,
      "##istant": 5164,
      "##isters": 5165,
      "block": 5166,
      "blog": 5167,
      "##udes": 5168,
      "friendship": 5169,
      "butt": 5170,
      "##owned": 5171,
      "##elle": 5172,
      "##ella": 5173,
      "truck": 5174,
      "##inking": 5175,
      "agreed": 5176,
      "Which": 5177,
      "lesson": 5178,
      "sugg": 5179,
      "suicide": 5180,
      "##auc": 5181,
      "Stop": 5182,
      "arms": 5183,
      "proud": 5184,
      "disgr": 5185,
      "##ssss": 5186,
      "appar": 5187,
      "smoking": 5188,
      "chez": 5189,
      "emerg": 5190,
      "##izzy": 5191,
      "##lette": 5192,
      "##iva": 5193,
      "classes": 5194,
      "parties": 5195,
      "strength": 5196,
      "Inf": 5197,
      "##ichael": 5198,
      "##ewell": 5199,
      "badly": 5200,
      "flash": 5201,
      "parade": 5202,
      "usual": 5203,
      "deliver": 5204,
      "##ysitting": 5205,
      "announ": 5206,
      "shows": 5207,
      "Anna": 5208,
      "Shopping": 5209,
      "travel": 5210,
      "calls": 5211,
      "cred": 5212,
      "opened": 5213,
      "turns": 5214,
      "##rrrr": 5215,
      "mais": 5216,
      "Att": 5217,
      "attitude": 5218,
      "THIS": 5219,
      "jeans": 5220,
      "##grad": 5221,
      "dread": 5222,
      "idee": 5223,
      "##phones": 5224,
      "##arris": 5225,
      "##arrant": 5226,
      "interview": 5227,
      "admit": 5228,
      "speed": 5229,
      "handle": 5230,
      "common": 5231,
      "##yyy": 5232,
      "indeed": 5233,
      "Excited": 5234,
      "##umped": 5235,
      "daily": 5236,
      "dawn": 5237,
      ":')": 5238,
      "##ences": 5239,
      "##ibly": 5240,
      "record": 5241,
      "Brother": 5242,
      "rainy": 5243,
      "##END": 5244,
      "understanding": 5245,
      "betray": 5246,
      "##iii": 5247,
      "fighting": 5248,
      "hotel": 5249,
      "True": 5250,
      "decorations": 5251,
      "accidentally": 5252,
      "forgetting": 5253,
      "dismayed": 5254,
      "##hhhhh": 5255,
      "WHY": 5256,
      "statement": 5257,
      "leader": 5258,
      "points": 5259,
      "Step": 5260,
      "##OOOOOOOO": 5261,
      "Next": 5262,
      "sweat": 5263,
      "marks": 5264,
      "##GHT": 5265,
      "##fortunately": 5266,
      "closer": 5267,
      "planning": 5268,
      "Emily": 5269,
      "paid": 5270,
      "healthy": 5271,
      "physical": 5272,
      "burning": 5273,
      "arrived": 5274,
      "Something": 5275,
      "laws": 5276,
      "potter": 5277,
      "satis": 5278,
      "hanging": 5279,
      "ruin": 5280,
      "turning": 5281,
      "comments": 5282,
      "Couldn": 5283,
      "famil": 5284,
      "changed": 5285,
      "changes": 5286,
      "Anger": 5287,
      "Early": 5288,
      "GOD": 5289,
      "##rapy": 5290,
      "appearance": 5291,
      "\\\".": 5292,
      "evil": 5293,
      "flying": 5294,
      "frozen": 5295,
      "parking": 5296,
      "##★★★★": 5297,
      "quality": 5298,
      "creative": 5299,
      "temper": 5300,
      "status": 5301,
      "solid": 5302,
      "Police": 5303,
      "north": 5304,
      "niggas": 5305,
      "Congratulations": 5306,
      "Leaving": 5307,
      "Passing": 5308,
      "doubt": 5309,
      "charger": 5310,
      "imposs": 5311,
      "Studying": 5312,
      "Courage": 5313,
      "Wayne": 5314,
      "Wonderful": 5315,
      "cadeaut": 5316,
      "fixed": 5317,
      "screaming": 5318,
      "Drake": 5319,
      "Lucy": 5320,
      "murder": 5321,
      "##aurant": 5322,
      "condition": 5323,
      "robbed": 5324,
      "medicine": 5325,
      "btw": 5326,
      "duty": 5327,
      "infection": 5328,
      "opinion": 5329,
      "THANK": 5330,
      "midterm": 5331,
      "GREAT": 5332,
      "Seriously": 5333,
      "beyond": 5334,
      "##cellent": 5335,
      "##ahlberg": 5336,
      "OfficialPWG": 5337,
      "Celebrate": 5338,
      "Nobody": 5339,
      "Olympic": 5340,
      "avec": 5341,
      "crestfallen": 5342,
      "mournful": 5343,
      "wachten": 5344,
      "anticip": 5345,
      "members": 5346,
      "disgrunt": 5347,
      ",&": 5348,
      ".~": 5349,
      "24": 5350,
      "2nd": 5351,
      "70": 5352,
      "AS": 5353,
      "AM": 5354,
      "Air": 5355,
      "Ash": 5356,
      "Alex": 5357,
      "By": 5358,
      "Bu": 5359,
      "BY": 5360,
      "Bat": 5361,
      "Ball": 5362,
      "Bought": 5363,
      "Bob": 5364,
      "Bert": 5365,
      "Breaking": 5366,
      "Barb": 5367,
      "BIR": 5368,
      "BIG": 5369,
      "Cut": 5370,
      "Cry": 5371,
      "COM": 5372,
      "Colle": 5373,
      "DR": 5374,
      "Des": 5375,
      "Done": 5376,
      "Er": 5377,
      "Event": 5378,
      "Eric": 5379,
      "FA": 5380,
      "Food": 5381,
      "Fore": 5382,
      "FIN": 5383,
      "Fantastic": 5384,
      "Gun": 5385,
      "Gosp": 5386,
      "Hard": 5387,
      "Here": 5388,
      "HOW": 5389,
      "History": 5390,
      "Int": 5391,
      "Kat": 5392,
      "Kore": 5393,
      "KILL": 5394,
      "LJ": 5395,
      "Lear": 5396,
      "Lmfao": 5397,
      "MO": 5398,
      "Math": 5399,
      "Music": 5400,
      "Marg": 5401,
      "NY": 5402,
      "Non": 5403,
      "Ohh": 5404,
      "Ps": 5405,
      "PL": 5406,
      "PU": 5407,
      "Pain": 5408,
      "Pap": 5409,
      "Ppl": 5410,
      "Rest": 5411,
      "Rick": 5412,
      "Radio": 5413,
      "SE": 5414,
      "SP": 5415,
      "Sat": 5416,
      "Sir": 5417,
      "Sweet": 5418,
      "Since": 5419,
      "Talk": 5420,
      "Taylor": 5421,
      "Une": 5422,
      "UGH": 5423,
      "Van": 5424,
      "Week": 5425,
      "Wrapping": 5426,
      "Year": 5427,
      "Yea": 5428,
      "Zo": 5429,
      "_M": 5430,
      "bday": 5431,
      "bum": 5432,
      "bother": 5433,
      "buck": 5434,
      "bud": 5435,
      "bank": 5436,
      "bite": 5437,
      "boom": 5438,
      "cow": 5439,
      "cab": 5440,
      "cock": 5441,
      "cough": 5442,
      "civ": 5443,
      "cope": 5444,
      "cade": 5445,
      "cunt": 5446,
      "cooked": 5447,
      "crick": 5448,
      "duck": 5449,
      "eu": 5450,
      "evidence": 5451,
      "fing": 5452,
      "fed": 5453,
      "fond": 5454,
      "freak": 5455,
      "furt": 5456,
      "freed": 5457,
      "faster": 5458,
      "faint": 5459,
      "gar": 5460,
      "gorge": 5461,
      "gaan": 5462,
      "hes": 5463,
      "hates": 5464,
      "join": 5465,
      "krij": 5466,
      "lines": 5467,
      "lapt": 5468,
      "mê": 5469,
      "mic": 5470,
      "mike": 5471,
      "mix": 5472,
      "nt": 5473,
      "ng": 5474,
      "natural": 5475,
      "ori": 5476,
      "oven": 5477,
      "pu": 5478,
      "pile": 5479,
      "pudd": 5480,
      "push": 5481,
      "piano": 5482,
      "ra": 5483,
      "rate": 5484,
      "rice": 5485,
      "river": 5486,
      "rising": 5487,
      "riled": 5488,
      "soo": 5489,
      "soooo": 5490,
      "soup": 5491,
      "tu": 5492,
      "tan": 5493,
      "tack": 5494,
      "tab": 5495,
      "vel": 5496,
      "vol": 5497,
      "wo": 5498,
      "wings": 5499,
      "wrap": 5500,
      "ze": 5501,
      "##hr": 5502,
      "##how": 5503,
      "##hone": 5504,
      "##hrs": 5505,
      "##ih": 5506,
      "##iar": 5507,
      "##iqu": 5508,
      "##ca": 5509,
      "##cott": 5510,
      "##ka": 5511,
      "##king": 5512,
      "##IV": 5513,
      "##IF": 5514,
      "##SH": 5515,
      "##SU": 5516,
      "##ti": 5517,
      "##tra": 5518,
      "##times": 5519,
      "##da": 5520,
      "##dra": 5521,
      "##die": 5522,
      "##dog": 5523,
      "##rit": 5524,
      "##ral": 5525,
      "##oi": 5526,
      "##oved": 5527,
      "##sen": 5528,
      "##sch": 5529,
      "##ya": 5530,
      "##yer": 5531,
      "##van": 5532,
      "##mes": 5533,
      "##pa": 5534,
      "##ped": 5535,
      "##pap": 5536,
      "##will": 5537,
      "##wise": 5538,
      "##lse": 5539,
      "##ga": 5540,
      "##gery": 5541,
      "##OD": 5542,
      "##Of": 5543,
      "##x3": 5544,
      "##Gr": 5545,
      "##HER": 5546,
      "##Le": 5547,
      "##LY": 5548,
      "##Love": 5549,
      "##ELL": 5550,
      "##ECT": 5551,
      "##uice": 5552,
      "##uine": 5553,
      "##RT": 5554,
      "##All": 5555,
      "##_h": 5556,
      "##_t": 5557,
      "##_G": 5558,
      "##_St": 5559,
      "##NY": 5560,
      "##NING": 5561,
      "##Pl": 5562,
      "##face": 5563,
      "##fessor": 5564,
      "##Be": 5565,
      "##BLE": 5566,
      "##FF": 5567,
      "##--": 5568,
      "##32": 5569,
      "##34": 5570,
      "##321": 5571,
      "##55": 5572,
      "##ée": 5573,
      "##==": 5574,
      "##iner": 5575,
      "##inated": 5576,
      "##inese": 5577,
      "##hem": 5578,
      "##orld": 5579,
      "##ority": 5580,
      "tod": 5581,
      "tone": 5582,
      "toilet": 5583,
      "##ena": 5584,
      "##enz": 5585,
      "##onE": 5586,
      "##onse": 5587,
      "##anie": 5588,
      "theat": 5589,
      "##lli": 5590,
      "##lll": 5591,
      "##ller": 5592,
      "##eem": 5593,
      "##eeter": 5594,
      "tht": 5595,
      "##otion": 5596,
      "##otty": 5597,
      "##really": 5598,
      "##regen": 5599,
      "often": 5600,
      "##least": 5601,
      "##ades": 5602,
      "##ethe": 5603,
      "bein": 5604,
      "beast": 5605,
      "beard": 5606,
      "beating": 5607,
      "##ghter": 5608,
      "##cha": 5609,
      "##christmas": 5610,
      "##alal": 5611,
      "##ida": 5612,
      "##iding": 5613,
      "##ides": 5614,
      "##iders": 5615,
      "releas": 5616,
      "reach": 5617,
      "reaction": 5618,
      "stock": 5619,
      "staff": 5620,
      "##amper": 5621,
      "##ceal": 5622,
      "##enty": 5623,
      "##irm": 5624,
      "##iring": 5625,
      "##rah": 5626,
      "loves": 5627,
      "##verb": 5628,
      "##early": 5629,
      "##iona": 5630,
      "##unior": 5631,
      "sold": 5632,
      "sober": 5633,
      "##icle": 5634,
      "##icate": 5635,
      "shar": 5636,
      "shoes": 5637,
      "##els": 5638,
      "##ende": 5639,
      "##ends": 5640,
      "##ender": 5641,
      "##illa": 5642,
      "##illed": 5643,
      "abro": 5644,
      "##atever": 5645,
      "##akt": 5646,
      "loveyou": 5647,
      "##antasy": 5648,
      "deck": 5649,
      "choir": 5650,
      "alot": 5651,
      "although": 5652,
      "##andra": 5653,
      "##ource": 5654,
      "gettin": 5655,
      "Things": 5656,
      "frank": 5657,
      "heal": 5658,
      "weed": 5659,
      "wealth": 5660,
      "enjoyed": 5661,
      "spark": 5662,
      "##ersh": 5663,
      "##arden": 5664,
      "##eeps": 5665,
      "const": 5666,
      "convin": 5667,
      "conceal": 5668,
      "bless": 5669,
      "blank": 5670,
      "peanut": 5671,
      "##icking": 5672,
      "##igion": 5673,
      "##anky": 5674,
      "##ements": 5675,
      "knutsel": 5676,
      "Reg": 5677,
      "Rece": 5678,
      "Reading": 5679,
      "Rejoice": 5680,
      "trad": 5681,
      "##apen": 5682,
      "##osition": 5683,
      "ground": 5684,
      "greet": 5685,
      "plane": 5686,
      "twin": 5687,
      "offer": 5688,
      "suis": 5689,
      "##olley": 5690,
      "overcome": 5691,
      "mock": 5692,
      "moved": 5693,
      "scary": 5694,
      "moments": 5695,
      "momma": 5696,
      "mommy": 5697,
      "##ips": 5698,
      "##aco": 5699,
      "##acy": 5700,
      "##acle": 5701,
      "##ached": 5702,
      "provid": 5703,
      "prolly": 5704,
      "downstairs": 5705,
      "everywhere": 5706,
      "await": 5707,
      "applic": 5708,
      "smiled": 5709,
      "excuse": 5710,
      "glass": 5711,
      "glance": 5712,
      "advert": 5713,
      "guitar": 5714,
      "hearts": 5715,
      "coke": 5716,
      "emily": 5717,
      "employ": 5718,
      "hash": 5719,
      "##izing": 5720,
      "##ciety": 5721,
      "##anging": 5722,
      "##angers": 5723,
      "fucked": 5724,
      "surgery": 5725,
      "studio": 5726,
      "tex": 5727,
      "##shine": 5728,
      "##obs": 5729,
      "design": 5730,
      "desolate": 5731,
      "deserve": 5732,
      "resist": 5733,
      "respect": 5734,
      "stranger": 5735,
      "however": 5736,
      "Ins": 5737,
      "flat": 5738,
      "flushed": 5739,
      "contest": 5740,
      "........": 5741,
      "using": 5742,
      "##ooth": 5743,
      "swag": 5744,
      "swollen": 5745,
      "realised": 5746,
      "##OOL": 5747,
      "##play": 5748,
      "assistant": 5749,
      "Dont": 5750,
      "##ubrious": 5751,
      "understood": 5752,
      "undergrad": 5753,
      "Should": 5754,
      "##ctoria": 5755,
      "decide": 5756,
      "grandma": 5757,
      "grandpar": 5758,
      "opening": 5759,
      "Dec": 5760,
      "Dead": 5761,
      "ended": 5762,
      "presence": 5763,
      "headed": 5764,
      "headphones": 5765,
      "religion": 5766,
      "closest": 5767,
      "letting": 5768,
      "attempt": 5769,
      "accom": 5770,
      "babies": 5771,
      "followers": 5772,
      "##ground": 5773,
      "Spent": 5774,
      "helped": 5775,
      "failing": 5776,
      "trick": 5777,
      "Amen": 5778,
      "coun": 5779,
      "couch": 5780,
      "skip": 5781,
      "##ailable": 5782,
      "marriage": 5783,
      "##cca": 5784,
      "##annon": 5785,
      "econ": 5786,
      "France": 5787,
      "beauty": 5788,
      "talks": 5789,
      "talked": 5790,
      "anxiety": 5791,
      "committed": 5792,
      "trains": 5793,
      "Unfortunately": 5794,
      "acceptance": 5795,
      "2011": 5796,
      "darkness": 5797,
      "frustration": 5798,
      "messages": 5799,
      "##ISH": 5800,
      "##oker": 5801,
      "colleague": 5802,
      "pains": 5803,
      "recall": 5804,
      "restaurant": 5805,
      "confused": 5806,
      "confusion": 5807,
      "conference": 5808,
      "confidence": 5809,
      "Apple": 5810,
      "grew": 5811,
      "green": 5812,
      "discuss": 5813,
      "Guy": 5814,
      "##ITTER": 5815,
      "##formed": 5816,
      "sunny": 5817,
      "grace": 5818,
      "countdown": 5819,
      "crossing": 5820,
      "effect": 5821,
      "##uuu": 5822,
      "##uuuu": 5823,
      "expressed": 5824,
      "consist": 5825,
      "checking": 5826,
      ":-(": 5827,
      "##AST": 5828,
      "##aaaaaa": 5829,
      "Hearing": 5830,
      "legal": 5831,
      "WHAT": 5832,
      "Movie": 5833,
      "TODAY": 5834,
      "cafe": 5835,
      "holding": 5836,
      "packing": 5837,
      "sexy": 5838,
      "computers": 5839,
      "HAVE": 5840,
      "Professor": 5841,
      "Proverb": 5842,
      "##stein": 5843,
      "Steve": 5844,
      "Steven": 5845,
      "invitation": 5846,
      "curly": 5847,
      "general": 5848,
      "charge": 5849,
      "Carol": 5850,
      "Phone": 5851,
      "Phil": 5852,
      "despondency": 5853,
      "????": 5854,
      "ONE": 5855,
      "Prince": 5856,
      "Success": 5857,
      "Washing": 5858,
      "drove": 5859,
      "salad": 5860,
      "Small": 5861,
      "Worst": 5862,
      "ignored": 5863,
      "Faith": 5864,
      "drake": 5865,
      "kept": 5866,
      "motiv": 5867,
      "revulsion": 5868,
      "faithful": 5869,
      "obvious": 5870,
      "tickets": 5871,
      "##what": 5872,
      "##THDAY": 5873,
      "Headache": 5874,
      "Swim": 5875,
      "bottom": 5876,
      "jumped": 5877,
      "punching": 5878,
      "ordered": 5879,
      "response": 5880,
      "Jean": 5881,
      "Parents": 5882,
      "ilove": 5883,
      "promise": 5884,
      "becomes": 5885,
      "apartment": 5886,
      "frost": 5887,
      "gunna": 5888,
      "iPad": 5889,
      "##problems": 5890,
      "qualified": 5891,
      "America": 5892,
      "DOES": 5893,
      "hatred": 5894,
      "##almart": 5895,
      "!!!!!!!!": 5896,
      "personality": 5897,
      "Kinda": 5898,
      "McC": 5899,
      "Vegas": 5900,
      "nigga": 5901,
      "explain": 5902,
      "political": 5903,
      "properly": 5904,
      "Coffee": 5905,
      "division": 5906,
      "hunting": 5907,
      "dollar": 5908,
      "carols": 5909,
      "compliment": 5910,
      "gekregen": 5911,
      "BACK": 5912,
      "Friends": 5913,
      "Perfect": 5914,
      "##raphy": 5915,
      "destroy": 5916,
      "dejected": 5917,
      "overwhelmed": 5918,
      "achieve": 5919,
      "boots": 5920,
      "million": 5921,
      "pillow": 5922,
      "puzzlement": 5923,
      "##vitably": 5924,
      "##menow": 5925,
      "##followback": 5926,
      "repeated": 5927,
      "includ": 5928,
      "fanzoid": 5929,
      "figure": 5930,
      "sandwich": 5931,
      "takut": 5932,
      "license": 5933,
      "unjustly": 5934,
      "screwed": 5935,
      "describe": 5936,
      "underwear": 5937,
      "misunderstood": 5938,
      "Community": 5939,
      "involved": 5940,
      "character": 5941,
      "inspiration": 5942,
      "Auguste": 5943,
      "Laura": 5944,
      "Queen": 5945,
      "education": 5946,
      "mirror": 5947,
      "narrow": 5948,
      "powerful": 5949,
      "inpakken": 5950,
      "schedule": 5951,
      "Basketball": 5952,
      "Definitely": 5953,
      "Japan": 5954,
      "Pretty": 5955,
      "Under": 5956,
      "focus": 5957,
      "ghost": 5958,
      "lugubrious": 5959,
      "rules": 5960,
      "emergency": 5961,
      "betrayed": 5962,
      "\\\".\"": 5963,
      "impossible": 5964,
      "disgruntled": 5965,
      "BIRTHDAY": 5966,
      "College": 5967,
      "Gospel": 5968,
      "LJB": 5969,
      "cadeau": 5970,
      "cricket": 5971,
      "gorgeous": 5972,
      "laptop": 5973,
      "puppy": 5974,
      "##lsea": 5975,
      "abroad": 5976,
      "''": 5977,
      ".,": 5978,
      "2b": 5979,
      "32": 5980,
      "3rd": 5981,
      "6am": 5982,
      "::": 5983,
      ";...": 5984,
      "Bo": 5985,
      "Bar": 5986,
      "Bell": 5987,
      "Bern": 5988,
      "BEST": 5989,
      "CL": 5990,
      "Cent": 5991,
      "Cher": 5992,
      "Card": 5993,
      "Cup": 5994,
      "Care": 5995,
      "Camp": 5996,
      "Cold": 5997,
      "Certain": 5998,
      "CAL": 5999,
      "DE": 6000,
      "DV": 6001,
      "Die": 6002,
      "Dem": 6003,
      "Dire": 6004,
      "DAN": 6005,
      "Duke": 6006,
      "Ew": 6007,
      "Eve": 6008,
      "Ever": 6009,
      "Ent": 6010,
      "Egg": 6011,
      "Fight": 6012,
      "Fail": 6013,
      "FEAR": 6014,
      "GR": 6015,
      "Giving": 6016,
      "GET": 6017,
      "GIR": 6018,
      "GOOD": 6019,
      "Hen": 6020,
      "Hall": 6021,
      "Hill": 6022,
      "Half": 6023,
      "Higher": 6024,
      "Hanging": 6025,
      "Id": 6026,
      "Ill": 6027,
      "IAM": 6028,
      "Ja": 6029,
      "Jus": 6030,
      "Kate": 6031,
      "LM": 6032,
      "Light": 6033,
      "Los": 6034,
      "Lond": 6035,
      "Lions": 6036,
      "LMA": 6037,
      "Lmao": 6038,
      "Mer": 6039,
      "Mat": 6040,
      "Mis": 6041,
      "Might": 6042,
      "Morr": 6043,
      "Mart": 6044,
      "Make": 6045,
      "Mem": 6046,
      "Much": 6047,
      "Money": 6048,
      "Matt": 6049,
      "MOR": 6050,
      "MAS": 6051,
      "MAG": 6052,
      "Nut": 6053,
      "Nath": 6054,
      "Nigg": 6055,
      "Ole": 6056,
      "Other": 6057,
      "OUT": 6058,
      "Pant": 6059,
      "Penn": 6060,
      "Perry": 6061,
      "Ray": 6062,
      "Ret": 6063,
      "Roll": 6064,
      "Ruth": 6065,
      "Rachel": 6066,
      "Say": 6067,
      "Sil": 6068,
      "Sick": 6069,
      "Soooo": 6070,
      "SEE": 6071,
      "Sarah": 6072,
      "Solut": 6073,
      "Summer": 6074,
      "Tra": 6075,
      "Test": 6076,
      "Tea": 6077,
      "Taco": 6078,
      "Uh": 6079,
      "Virgin": 6080,
      "Wo": 6081,
      "War": 6082,
      "Welp": 6083,
      "Wars": 6084,
      "WANT": 6085,
      "Walmart": 6086,
      "Ye": 6087,
      "Yo": 6088,
      "Yesterday": 6089,
      "YAY": 6090,
      "aud": 6091,
      "aaa": 6092,
      "aint": 6093,
      "ahaha": 6094,
      "alex": 6095,
      "bre": 6096,
      "bri": 6097,
      "bake": 6098,
      "bound": 6099,
      "bob": 6100,
      "bold": 6101,
      "brain": 6102,
      "cc": 6103,
      "cd": 6104,
      "cig": 6105,
      "cudd": 6106,
      "circ": 6107,
      "dick": 6108,
      "dies": 6109,
      "diet": 6110,
      "deter": 6111,
      "euro": 6112,
      "fog": 6113,
      "fasc": 6114,
      "fantasy": 6115,
      "gel": 6116,
      "gem": 6117,
      "gaz": 6118,
      "gross": 6119,
      "hi": 6120,
      "har": 6121,
      "hood": 6122,
      "hoy": 6123,
      "hoe": 6124,
      "holy": 6125,
      "hund": 6126,
      "harry": 6127,
      "hilar": 6128,
      "ive": 6129,
      "iam": 6130,
      "jo": 6131,
      "jess": 6132,
      "jack": 6133,
      "jesus": 6134,
      "ka": 6135,
      "ker": 6136,
      "krist": 6137,
      "kara": 6138,
      "lake": 6139,
      "lamp": 6140,
      "luv": 6141,
      "mr": 6142,
      "mu": 6143,
      "mes": 6144,
      "mus": 6145,
      "mast": 6146,
      "messed": 6147,
      "mild": 6148,
      "miff": 6149,
      "muff": 6150,
      "nd": 6151,
      "nur": 6152,
      "nak": 6153,
      "ol": 6154,
      "oom": 6155,
      "ouch": 6156,
      "ohh": 6157,
      "occ": 6158,
      "pi": 6159,
      "pm": 6160,
      "pool": 6161,
      "pies": 6162,
      "path": 6163,
      "pals": 6164,
      "paying": 6165,
      "picked": 6166,
      "pics": 6167,
      "peng": 6168,
      "rent": 6169,
      "rape": 6170,
      "roof": 6171,
      "som": 6172,
      "sake": 6173,
      "seek": 6174,
      "sau": 6175,
      "south": 6176,
      "santa": 6177,
      "sooo": 6178,
      "sisters": 6179,
      "tm": 6180,
      "tit": 6181,
      "tant": 6182,
      "tast": 6183,
      "ties": 6184,
      "tummy": 6185,
      "tiger": 6186,
      "uur": 6187,
      "vs": 6188,
      "vu": 6189,
      "vom": 6190,
      "veel": 6191,
      "vers": 6192,
      "village": 6193,
      "whe": 6194,
      "woo": 6195,
      "wie": 6196,
      "wand": 6197,
      "yall": 6198,
      "yard": 6199,
      "yea": 6200,
      "yang": 6201,
      "zin": 6202,
      "ça": 6203,
      "##ho": 6204,
      "##hy": 6205,
      "##hal": 6206,
      "##hate": 6207,
      "##ius": 6208,
      "##ients": 6209,
      "##cil": 6210,
      "##cake": 6211,
      "##corn": 6212,
      "##kn": 6213,
      "##kb": 6214,
      "##It": 6215,
      "##Se": 6216,
      "##Smith": 6217,
      "##nn": 6218,
      "##nie": 6219,
      "##ted": 6220,
      "##tain": 6221,
      "##eg": 6222,
      "##don": 6223,
      "##did": 6224,
      "##row": 6225,
      "##oked": 6226,
      "##ocht": 6227,
      "##say": 6228,
      "##yd": 6229,
      "##your": 6230,
      "##vil": 6231,
      "##vation": 6232,
      "##mi": 6233,
      "##morrow": 6234,
      "##mark": 6235,
      "##mans": 6236,
      "##music": 6237,
      "##por": 6238,
      "##pat": 6239,
      "##park": 6240,
      "##wl": 6241,
      "##world": 6242,
      "##lab": 6243,
      "##gy": 6244,
      "##ges": 6245,
      "##good": 6246,
      "##zo": 6247,
      "##OS": 6248,
      "##OX": 6249,
      "##bo": 6250,
      "##bz": 6251,
      "##bed": 6252,
      "##ban": 6253,
      "##bur": 6254,
      "##xx": 6255,
      "##xter": 6256,
      "##xist": 6257,
      "##GA": 6258,
      "##LI": 6259,
      "##Lo": 6260,
      "##LD": 6261,
      "##Life": 6262,
      "##uin": 6263,
      "##RS": 6264,
      "##Re": 6265,
      "##DC": 6266,
      "##Alex": 6267,
      "##_n": 6268,
      "##MM": 6269,
      "##NOW": 6270,
      "##UE": 6271,
      "##22": 6272,
      "##TW": 6273,
      "##fit": 6274,
      "##fun": 6275,
      "##fol": 6276,
      "##fuck": 6277,
      "##Wh": 6278,
      "##jam": 6279,
      "##jane": 6280,
      "##john": 6281,
      "##Bl": 6282,
      "##BL": 6283,
      "##BC": 6284,
      "##615": 6285,
      "##KING": 6286,
      "##Kardash": 6287,
      "##Jack": 6288,
      "##Jesus": 6289,
      "##31": 6290,
      "##70": 6291,
      "##93": 6292,
      "##42": 6293,
      "##♥∗": 6294,
      "##": 6295,
      "##inal": 6296,
      "##inating": 6297,
      "##hears": 6298,
      "##helle": 6299,
      "##orer": 6300,
      "##orant": 6301,
      "##oust": 6302,
      "toy": 6303,
      "toch": 6304,
      "toast": 6305,
      "tooth": 6306,
      "##eness": 6307,
      "##stit": 6308,
      "##stal": 6309,
      "##ano": 6310,
      "##aned": 6311,
      "##anne": 6312,
      "##aron": 6313,
      "##arre": 6314,
      "##arget": 6315,
      "##ayer": 6316,
      "##ayla": 6317,
      "##esent": 6318,
      "##itable": 6319,
      "##isy": 6320,
      "##isa": 6321,
      "##omas": 6322,
      "##eez": 6323,
      "##eeeee": 6324,
      "thin": 6325,
      "threat": 6326,
      "##owed": 6327,
      "##rees": 6328,
      "##reme": 6329,
      "myster": 6330,
      "##vet": 6331,
      "inst": 6332,
      "init": 6333,
      "##rip": 6334,
      "##rice": 6335,
      "##adise": 6336,
      "##eting": 6337,
      "##etting": 6338,
      "##ooper": 6339,
      "bel": 6340,
      "beach": 6341,
      "belong": 6342,
      "fort": 6343,
      "forgive": 6344,
      "##ales": 6345,
      "requ": 6346,
      "reject": 6347,
      "revel": 6348,
      "steel": 6349,
      "stare": 6350,
      "storm": 6351,
      "stiff": 6352,
      "stole": 6353,
      "stoner": 6354,
      "stories": 6355,
      "##amon": 6356,
      "##esss": 6357,
      "##essment": 6358,
      "##rab": 6359,
      "##kelly": 6360,
      "lover": 6361,
      "##sell": 6362,
      "lied": 6363,
      "lijm": 6364,
      "##verse": 6365,
      "##earching": 6366,
      "among": 6367,
      "##unny": 6368,
      "##ica": 6369,
      "##icious": 6370,
      "shave": 6371,
      "##opt": 6372,
      "##oples": 6373,
      "##oute": 6374,
      "##illing": 6375,
      "abuse": 6376,
      "##rol": 6377,
      "##aka": 6378,
      "quit": 6379,
      "quest": 6380,
      "##ussell": 6381,
      "##anting": 6382,
      "##ielle": 6383,
      "exh": 6384,
      "excellent": 6385,
      "deff": 6386,
      "december": 6387,
      "cho": 6388,
      "chose": 6389,
      "chair": 6390,
      "challen": 6391,
      "golf": 6392,
      "alc": 6393,
      "upon": 6394,
      "##oyd": 6395,
      "##that": 6396,
      "##this": 6397,
      "sea": 6398,
      "sell": 6399,
      "##anded": 6400,
      "##andon": 6401,
      "##iling": 6402,
      "##ilton": 6403,
      "afford": 6404,
      "fruit": 6405,
      "worked": 6406,
      "hehe": 6407,
      "height": 6408,
      "Chinese": 6409,
      "uncom": 6410,
      "##ume": 6411,
      "allll": 6412,
      "alleen": 6413,
      "leading": 6414,
      "yours": 6415,
      "##ago": 6416,
      "##aging": 6417,
      "##agan": 6418,
      "cance": 6419,
      "likely": 6420,
      "weak": 6421,
      "spoke": 6422,
      "donc": 6423,
      "ima": 6424,
      "imma": 6425,
      "noche": 6426,
      "nobody": 6427,
      "blow": 6428,
      "blonde": 6429,
      "clim": 6430,
      "##ige": 6431,
      "somehow": 6432,
      "button": 6433,
      "kno": 6434,
      "knight": 6435,
      "##ellig": 6436,
      "tram": 6437,
      "trending": 6438,
      "##pression": 6439,
      "##inked": 6440,
      "gram": 6441,
      "grown": 6442,
      "tweeting": 6443,
      "lessons": 6444,
      "suite": 6445,
      "##onding": 6446,
      "##berts": 6447,
      "mort": 6448,
      "safe": 6449,
      "moms": 6450,
      "brought": 6451,
      "##ipe": 6452,
      "army": 6453,
      "press": 6454,
      "prison": 6455,
      "princ": 6456,
      "##sss": 6457,
      "manner": 6458,
      "downtown": 6459,
      "everytime": 6460,
      "aware": 6461,
      "apply": 6462,
      "appearing": 6463,
      "smoke": 6464,
      "##new": 6465,
      "##neys": 6466,
      "excl": 6467,
      "thinks": 6468,
      "adult": 6469,
      "anywhere": 6470,
      "example": 6471,
      "Thats": 6472,
      "chee": 6473,
      "chest": 6474,
      "rob": 6475,
      "##cience": 6476,
      "acqu": 6477,
      "makeup": 6478,
      "surv": 6479,
      "facebook": 6480,
      "tegen": 6481,
      "ord": 6482,
      "classmate": 6483,
      "classmates": 6484,
      "drum": 6485,
      "sometime": 6486,
      "plays": 6487,
      "stray": 6488,
      "couldnt": 6489,
      "phil": 6490,
      "lauren": 6491,
      "prepar": 6492,
      "joys": 6493,
      "November": 6494,
      "absolute": 6495,
      "##quer": 6496,
      "##quet": 6497,
      "needed": 6498,
      "deliber": 6499,
      "ways": 6500,
      "swall": 6501,
      "eliz": 6502,
      "realise": 6503,
      "showing": 6504,
      "##ples": 6505,
      "##pless": 6506,
      "##ultaneous": 6507,
      "shoulder": 6508,
      "Shower": 6509,
      "##anche": 6510,
      "function": 6511,
      "remains": 6512,
      "monster": 6513,
      "decl": 6514,
      "grandchild": 6515,
      "crit": 6516,
      "cris": 6517,
      "Decor": 6518,
      "snel": 6519,
      "snakes": 6520,
      "snugg": 6521,
      "tweeted": 6522,
      "##bruary": 6523,
      "##ATH": 6524,
      "##ATE": 6525,
      "##amped": 6526,
      "attract": 6527,
      "illusion": 6528,
      "sickness": 6529,
      "##iction": 6530,
      "Blood": 6531,
      "Blue": 6532,
      "buat": 6533,
      "buff": 6534,
      "accounting": 6535,
      "##avorite": 6536,
      "Spir": 6537,
      "##ledge": 6538,
      "hopefully": 6539,
      "vanavond": 6540,
      "Goin": 6541,
      "latest": 6542,
      "##rench": 6543,
      "##phant": 6544,
      "kidding": 6545,
      "otherwise": 6546,
      "skill": 6547,
      "skirt": 6548,
      "marry": 6549,
      "##OUT": 6550,
      "serving": 6551,
      "hardening": 6552,
      "Fran": 6553,
      "Fresh": 6554,
      "keeping": 6555,
      "commit": 6556,
      "commence": 6557,
      "community": 6558,
      "killmenow": 6559,
      "##oek": 6560,
      "basket": 6561,
      "##attle": 6562,
      "##yyyy": 6563,
      "daddy": 6564,
      "##attern": 6565,
      "laughter": 6566,
      "reco": 6567,
      "freeze": 6568,
      "disco": 6569,
      "disconsol": 6570,
      "avond": 6571,
      "available": 6572,
      "drinks": 6573,
      "priv": 6574,
      "##EAL": 6575,
      "coursework": 6576,
      "Office": 6577,
      "Check": 6578,
      "Chelsea": 6579,
      "stuffed": 6580,
      "texted": 6581,
      "letters": 6582,
      "sett": 6583,
      "Scott": 6584,
      "cookie": 6585,
      "##ikes": 6586,
      "##AME": 6587,
      "Leg": 6588,
      "crossed": 6589,
      "##EEK": 6590,
      "essays": 6591,
      "Play": 6592,
      "Tree": 6593,
      "##ronic": 6594,
      "##OWN": 6595,
      "checked": 6596,
      "decorate": 6597,
      ":-/": 6598,
      "Daisy": 6599,
      "News": 6600,
      "fellow": 6601,
      "supposed": 6602,
      "##onnen": 6603,
      "semi": 6604,
      "legs": 6605,
      "simultaneous": 6606,
      "Moving": 6607,
      "Movies": 6608,
      "erg": 6609,
      "erin": 6610,
      "package": 6611,
      "##weets": 6612,
      "difference": 6613,
      "laughing": 6614,
      "Fucking": 6615,
      "Probably": 6616,
      "disappear": 6617,
      "Moms": 6618,
      "epic": 6619,
      "intro": 6620,
      "____": 6621,
      "##IDE": 6622,
      "##fortable": 6623,
      "##raining": 6624,
      "##rained": 6625,
      "closet": 6626,
      "movement": 6627,
      "interested": 6628,
      "Phys": 6629,
      "paul": 6630,
      "refused": 6631,
      "Hopefully": 6632,
      "Lauren": 6633,
      "Supp": 6634,
      "dropped": 6635,
      "ITS": 6636,
      "Smith": 6637,
      "popular": 6638,
      "##tttt": 6639,
      "##rupt": 6640,
      "asking": 6641,
      "streets": 6642,
      "##mbre": 6643,
      "##ergic": 6644,
      "successfully": 6645,
      "motor": 6646,
      "motive": 6647,
      "pulling": 6648,
      "ruined": 6649,
      "revision": 6650,
      "celebration": 6651,
      "emotional": 6652,
      "randomly": 6653,
      "disquieted": 6654,
      "Disc": 6655,
      "distur": 6656,
      "mistakes": 6657,
      "tunes": 6658,
      "videos": 6659,
      "Funny": 6660,
      "##ophy": 6661,
      "##ophobia": 6662,
      "graduation": 6663,
      "suffering": 6664,
      "##ollywood": 6665,
      "added": 6666,
      "respons": 6667,
      "Awkward": 6668,
      "BREA": 6669,
      "HATAR": 6670,
      "aka": 6671,
      "electric": 6672,
      "mask": 6673,
      "wallet": 6674,
      "Thinking": 6675,
      "##aintance": 6676,
      "vexation": 6677,
      ";-)": 6678,
      "LIVE": 6679,
      "iPhone": 6680,
      "opport": 6681,
      "quarrel": 6682,
      "purple": 6683,
      "##iltration": 6684,
      "Franklin": 6685,
      "FUCKING": 6686,
      "India": 6687,
      "breathe": 6688,
      "camera": 6689,
      "poison": 6690,
      "##ltim": 6691,
      "encourag": 6692,
      "clearly": 6693,
      "politics": 6694,
      "productive": 6695,
      "Joey": 6696,
      "divor": 6697,
      "massive": 6698,
      "##IME": 6699,
      "tonite": 6700,
      "process": 6701,
      "gekocht": 6702,
      "assignments": 6703,
      "##uppet": 6704,
      "##That": 6705,
      "##alds": 6706,
      "limit": 6707,
      "softness": 6708,
      "dejection": 6709,
      "##ardashians": 6710,
      "constantly": 6711,
      "##emaakt": 6712,
      "overwhelming": 6713,
      "arrested": 6714,
      "Comput": 6715,
      "grocery": 6716,
      "judge": 6717,
      "viol": 6718,
      "##olution": 6719,
      "Anyone": 6720,
      "major": 6721,
      "EVERY": 6722,
      "Party": 6723,
      "TWITTER": 6724,
      "dangerous": 6725,
      "homes": 6726,
      "mooi": 6727,
      "tattoo": 6728,
      "shouting": 6729,
      "Autumn": 6730,
      "Beautiful": 6731,
      "PHONE": 6732,
      "customer": 6733,
      "milk": 6734,
      "pierced": 6735,
      "##lotte": 6736,
      "##UDE": 6737,
      "haunted": 6738,
      "debate": 6739,
      "techn": 6740,
      "prepare": 6741,
      "skinny": 6742,
      "current": 6743,
      "bleeding": 6744,
      "George": 6745,
      "NBA": 6746,
      "Victoria": 6747,
      "Winning": 6748,
      "auto": 6749,
      "easily": 6750,
      "zombie": 6751,
      "était": 6752,
      "##bieber": 6753,
      "thoroughly": 6754,
      "bezig": 6755,
      "development": 6756,
      "apparent": 6757,
      "Infiltration": 6758,
      "credit": 6759,
      "Stephen": 6760,
      "families": 6761,
      "Maths": 6762,
      "Margaret": 6763,
      "civil": 6764,
      "further": 6765,
      "freedom": 6766,
      "même": 6767,
      "theatre": 6768,
      "##ership": 6769,
      "blessings": 6770,
      "blanket": 6771,
      "Regrets": 6772,
      "tradition": 6773,
      "greeted": 6774,
      "##olleyball": 6775,
      "texting": 6776,
      "Insulted": 6777,
      "grandparents": 6778,
      "accompl": 6779,
      "DOESN": 6780,
      "fanzoid321": 6781,
      "GIRL": 6782,
      "London": 6783,
      "LMAO": 6784,
      "MAGIC": 6785,
      "Solutions": 6786,
      "Virginia": 6787,
      "hundred": 6788,
      "hilarious": 6789,
      "miffed": 6790,
      "challenge": 6791,
      "princip": 6792,
      "acquaintance": 6793,
      "Decorating": 6794,
      "disconsolate": 6795,
      "simultaneously": 6796,
      "!?!": 6797,
      ")....": 6798,
      ".-": 6799,
      "22": 6800,
      "23": 6801,
      "4th": 6802,
      ";:(": 6803,
      "Ac": 6804,
      "Ay": 6805,
      "AL": 6806,
      "AW": 6807,
      "AB": 6808,
      "Ale": 6809,
      "Ana": 6810,
      "Ahh": 6811,
      "Acc": 6812,
      "Ahhhh": 6813,
      "ARE": 6814,
      "Awww": 6815,
      "Arab": 6816,
      "Bra": 6817,
      "BET": 6818,
      "BUT": 6819,
      "Billy": 6820,
      "CA": 6821,
      "Cas": 6822,
      "Cast": 6823,
      "Cool": 6824,
      "Came": 6825,
      "Cait": 6826,
      "Cather": 6827,
      "CAN": 6828,
      "Coun": 6829,
      "COL": 6830,
      "Court": 6831,
      "Dom": 6832,
      "Dam": 6833,
      "Dol": 6834,
      "Down": 6835,
      "Dark": 6836,
      "Dave": 6837,
      "Dude": 6838,
      "Dentist": 6839,
      "El": 6840,
      "EP": 6841,
      "EC": 6842,
      "Ein": 6843,
      "Eat": 6844,
      "Ell": 6845,
      "Eri": 6846,
      "Emm": 6847,
      "Fat": 6848,
      "Far": 6849,
      "Fro": 6850,
      "Find": 6851,
      "Fine": 6852,
      "Freak": 6853,
      "Foot": 6854,
      "FAT": 6855,
      "Fred": 6856,
      "Fox": 6857,
      "FOOD": 6858,
      "French": 6859,
      "Ger": 6860,
      "Gut": 6861,
      "Gall": 6862,
      "Gab": 6863,
      "Gem": 6864,
      "GOT": 6865,
      "Gina": 6866,
      "Gym": 6867,
      "Hu": 6868,
      "HR": 6869,
      "Hat": 6870,
      "Hur": 6871,
      "Him": 6872,
      "Hun": 6873,
      "Hoy": 6874,
      "Hour": 6875,
      "Hoe": 6876,
      "Ir": 6877,
      "Jan": 6878,
      "Jaz": 6879,
      "Job": 6880,
      "Jane": 6881,
      "James": 6882,
      "Jones": 6883,
      "Jenny": 6884,
      "Kir": 6885,
      "Kend": 6886,
      "Lily": 6887,
      "LOR": 6888,
      "LET": 6889,
      "Lots": 6890,
      "Lazy": 6891,
      "Mi": 6892,
      "MV": 6893,
      "Mind": 6894,
      "Mass": 6895,
      "Mang": 6896,
      "Mary": 6897,
      "Marc": 6898,
      "Mitch": 6899,
      "MISS": 6900,
      "NC": 6901,
      "Name": 6902,
      "National": 6903,
      "NFL": 6904,
      "OR": 6905,
      "Old": 6906,
      "Open": 6907,
      "PS": 6908,
      "Pet": 6909,
      "Post": 6910,
      "Punch": 6911,
      "Pract": 6912,
      "Pump": 6913,
      "Pizza": 6914,
      "Rel": 6915,
      "Rock": 6916,
      "Rise": 6917,
      "Rose": 6918,
      "Rog": 6919,
      "Room": 6920,
      "Ryan": 6921,
      "Si": 6922,
      "SS": 6923,
      "Son": 6924,
      "Song": 6925,
      "Sister": 6926,
      "Session": 6927,
      "Sudden": 6928,
      "Soul": 6929,
      "SUCK": 6930,
      "SAD": 6931,
      "SCH": 6932,
      "SICK": 6933,
      "Science": 6934,
      "Ta": 6935,
      "Tz": 6936,
      "Ten": 6937,
      "TOO": 6938,
      "T_T": 6939,
      "Tune": 6940,
      "UN": 6941,
      "Upper": 6942,
      "Vinc": 6943,
      "Wil": 6944,
      "Wanna": 6945,
      "Wheel": 6946,
      "WEEK": 6947,
      "WIDE": 6948,
      "YA": 6949,
      "Yet": 6950,
      "Zack": 6951,
      "ay": 6952,
      "az": 6953,
      "ari": 6954,
      "ale": 6955,
      "ahh": 6956,
      "aph": 6957,
      "auth": 6958,
      "bs": 6959,
      "bon": 6960,
      "bot": 6961,
      "bust": 6962,
      "bill": 6963,
      "bone": 6964,
      "bass": 6965,
      "braid": 6966,
      "baking": 6967,
      "bub": 6968,
      "brief": 6969,
      "budd": 6970,
      "batter": 6971,
      "brick": 6972,
      "bien": 6973,
      "beef": 6974,
      "bicy": 6975,
      "bisc": 6976,
      "cin": 6977,
      "cell": 6978,
      "cnt": 6979,
      "cere": 6980,
      "cert": 6981,
      "cash": 6982,
      "cinn": 6983,
      "ding": 6984,
      "dom": 6985,
      "dal": 6986,
      "dish": 6987,
      "dnt": 6988,
      "dang": 6989,
      "dating": 6990,
      "dye": 6991,
      "dudes": 6992,
      "dizzy": 6993,
      "ew": 6994,
      "ell": 6995,
      "eld": 6996,
      "east": 6997,
      "ease": 6998,
      "fo": 6999,
      "fw": 7000,
      "fest": 7001,
      "fare": 7002,
      "farm": 7003,
      "fulf": 7004,
      "gon": 7005,
      "gee": 7006,
      "gal": 7007,
      "gate": 7008,
      "gum": 7009,
      "gang": 7010,
      "gef": 7011,
      "garden": 7012,
      "gemaakt": 7013,
      "hy": 7014,
      "hm": 7015,
      "hart": 7016,
      "holl": 7017,
      "hij": 7018,
      "hmm": 7019,
      "jk": 7020,
      "js": 7021,
      "jing": 7022,
      "jan": 7023,
      "jay": 7024,
      "joe": 7025,
      "james": 7026,
      "jenn": 7027,
      "jerk": 7028,
      "josh": 7029,
      "jokes": 7030,
      "kra": 7031,
      "kitten": 7032,
      "kardashians": 7033,
      "lin": 7034,
      "lon": 7035,
      "loo": 7036,
      "lind": 7037,
      "lord": 7038,
      "lamb": 7039,
      "lmao": 7040,
      "lazy": 7041,
      "ms": 7042,
      "mau": 7043,
      "mile": 7044,
      "mult": 7045,
      "mug": 7046,
      "mode": 7047,
      "merry": 7048,
      "nb": 7049,
      "nee": 7050,
      "nope": 7051,
      "nail": 7052,
      "national": 7053,
      "og": 7054,
      "ox": 7055,
      "på": 7056,
      "pul": 7057,
      "pers": 7058,
      "pound": 7059,
      "pause": 7060,
      "pens": 7061,
      "punt": 7062,
      "pushed": 7063,
      "pushing": 7064,
      "rar": 7065,
      "ray": 7066,
      "rom": 7067,
      "rank": 7068,
      "range": 7069,
      "rises": 7070,
      "ranting": 7071,
      "sel": 7072,
      "sig": 7073,
      "sna": 7074,
      "site": 7075,
      "sans": 7076,
      "sooooo": 7077,
      "size": 7078,
      "source": 7079,
      "ti": 7080,
      "tas": 7081,
      "tid": 7082,
      "tank": 7083,
      "tink": 7084,
      "tip": 7085,
      "tang": 7086,
      "tiny": 7087,
      "umbre": 7088,
      "ven": 7089,
      "var": 7090,
      "vast": 7091,
      "vag": 7092,
      "volleyball": 7093,
      "wee": 7094,
      "wid": 7095,
      "wave": 7096,
      "wished": 7097,
      "werk": 7098,
      "wtf": 7099,
      "warrant": 7100,
      "xox": 7101,
      "yr": 7102,
      "yu": 7103,
      "yar": 7104,
      "##hin": 7105,
      "##had": 7106,
      "##hile": 7107,
      "##hans": 7108,
      "##hold": 7109,
      "##iF": 7110,
      "##iat": 7111,
      "##ias": 7112,
      "##iot": 7113,
      "##iate": 7114,
      "##ipped": 7115,
      "##can": 7116,
      "##cal": 7117,
      "##cce": 7118,
      "##cess": 7119,
      "##cill": 7120,
      "##cakes": 7121,
      "##cles": 7122,
      "##ku": 7123,
      "##IES": 7124,
      "##nes": 7125,
      "##niest": 7126,
      "##td": 7127,
      "##tube": 7128,
      "##ease": 7129,
      "##dr": 7130,
      "##dad": 7131,
      "##dge": 7132,
      "##rw": 7133,
      "##rom": 7134,
      "##rong": 7135,
      "##rase": 7136,
      "##sg": 7137,
      "##su": 7138,
      "##ses": 7139,
      "##school": 7140,
      "##ski": 7141,
      "##yW": 7142,
      "##year": 7143,
      "##vis": 7144,
      "##aA": 7145,
      "##aal": 7146,
      "##ahh": 7147,
      "##aulted": 7148,
      "##mit": 7149,
      "##mill": 7150,
      "##maken": 7151,
      "##mistry": 7152,
      "##py": 7153,
      "##pet": 7154,
      "##pal": 7155,
      "##pher": 7156,
      "##pret": 7157,
      "##pathetic": 7158,
      "##wk": 7159,
      "##wind": 7160,
      "##watch": 7161,
      "##word": 7162,
      "##wives": 7163,
      "##lr": 7164,
      "##lay": 7165,
      "##lock": 7166,
      "##lace": 7167,
      "##love": 7168,
      "##gent": 7169,
      "##gers": 7170,
      "##zr": 7171,
      "##zer": 7172,
      "##zzy": 7173,
      "##bor": 7174,
      "##birthday": 7175,
      "##Green": 7176,
      "##HA": 7177,
      "##Her": 7178,
      "##Have": 7179,
      "##uc": 7180,
      "##uf": 7181,
      "##uits": 7182,
      "##Day": 7183,
      "##Ang": 7184,
      "##ACK": 7185,
      "##ALE": 7186,
      "##_s": 7187,
      "##_m": 7188,
      "##_x": 7189,
      "##_P": 7190,
      "##_2": 7191,
      "##_W": 7192,
      "##_K": 7193,
      "##_kelly": 7194,
      "##Mc": 7195,
      "##Man": 7196,
      "##Mar": 7197,
      "##Ph": 7198,
      "##PR": 7199,
      "##UN": 7200,
      "##Te": 7201,
      "##TF": 7202,
      "##fall": 7203,
      "##full": 7204,
      "##family": 7205,
      "##field": 7206,
      "##js": 7207,
      "##jj": 7208,
      "##jun": 7209,
      "##Boy": 7210,
      "##Car": 7211,
      "##09": 7212,
      "##60": 7213,
      "##FA": 7214,
      "##FP": 7215,
      "##Follow": 7216,
      "##&#": 7217,
      "##JOY": 7218,
      "##89": 7219,
      "##37": 7220,
      "##XT": 7221,
      "##96": 7222,
      "##94": 7223,
      "##45": 7224,
      "##44": 7225,
      "##és": 7226,
      "##=&": 7227,
      "##inch": 7228,
      "##inations": 7229,
      "##inator": 7230,
      "##hell": 7231,
      "##inging": 7232,
      "##erly": 7233,
      "##erun": 7234,
      "##erning": 7235,
      "##oren": 7236,
      "##orit": 7237,
      "##orel": 7238,
      "##orting": 7239,
      "##ouard": 7240,
      "##eded": 7241,
      "##edly": 7242,
      "##ata": 7243,
      "##atus": 7244,
      "##atory": 7245,
      "##atme": 7246,
      "##atification": 7247,
      "##enk": 7248,
      "##ona": 7249,
      "##onw": 7250,
      "##stan": 7251,
      "##anes": 7252,
      "theres": 7253,
      "therapy": 7254,
      "##aro": 7255,
      "##arette": 7256,
      "##esa": 7257,
      "##omics": 7258,
      "##ashing": 7259,
      "##asia": 7260,
      "thy": 7261,
      "thous": 7262,
      "thirst": 7263,
      "thumb": 7264,
      "thirty": 7265,
      "##rep": 7266,
      "##reading": 7267,
      "##velling": 7268,
      "inten": 7269,
      "##rill": 7270,
      "##ries": 7271,
      "##leading": 7272,
      "##add": 7273,
      "##ads": 7274,
      "##adays": 7275,
      "##etta": 7276,
      "youth": 7277,
      "youtube": 7278,
      "beats": 7279,
      "##cked": 7280,
      "fore": 7281,
      "##chi": 7282,
      "##cho": 7283,
      "##chan": 7284,
      "reh": 7285,
      "reve": 7286,
      "reven": 7287,
      "rehears": 7288,
      "##alley": 7289,
      "stick": 7290,
      "stink": 7291,
      "stalking": 7292,
      "stream": 7293,
      "stages": 7294,
      "starbucks": 7295,
      "stamped": 7296,
      "##ceived": 7297,
      "##entions": 7298,
      "...?": 7299,
      "meat": 7300,
      "meant": 7301,
      "megan": 7302,
      "melt": 7303,
      "itself": 7304,
      "##rapped": 7305,
      "##racy": 7306,
      "##keke": 7307,
      "##seas": 7308,
      "lift": 7309,
      "##urd": 7310,
      "##urning": 7311,
      "##urope": 7312,
      "##vern": 7313,
      "##earce": 7314,
      "##ppin": 7315,
      "##imer": 7316,
      "##imistic": 7317,
      "amb": 7318,
      "atleast": 7319,
      "notreally": 7320,
      "soir": 7321,
      "soak": 7322,
      "soaked": 7323,
      "##iculous": 7324,
      "##icago": 7325,
      "shay": 7326,
      "shine": 7327,
      "shaking": 7328,
      "shitt": 7329,
      "##hern": 7330,
      "##hers": 7331,
      "##elen": 7332,
      "##eliness": 7333,
      "##endous": 7334,
      "##ulu": 7335,
      "##ulting": 7336,
      "##ulty": 7337,
      "##roll": 7338,
      "whil": 7339,
      "queen": 7340,
      "##using": 7341,
      "##antas": 7342,
      "##iek": 7343,
      "exch": 7344,
      "christ": 7345,
      "chris": 7346,
      "goed": 7347,
      "dose": 7348,
      "neither": 7349,
      "neva": 7350,
      "alt": 7351,
      "##asted": 7352,
      "upstairs": 7353,
      "##things": 7354,
      "##ilight": 7355,
      "Thing": 7356,
      "frowning": 7357,
      "nowhere": 7358,
      "nowadays": 7359,
      "comic": 7360,
      "workers": 7361,
      "##abi": 7362,
      "##abeal": 7363,
      "hero": 7364,
      "##arty": 7365,
      "Chuck": 7366,
      "Church": 7367,
      "uni": 7368,
      "una": 7369,
      "unw": 7370,
      "unit": 7371,
      "##umption": 7372,
      "allergic": 7373,
      "My_N": 7374,
      "legg": 7375,
      "##aget": 7376,
      "##again": 7377,
      "enemy": 7378,
      "##issa": 7379,
      "spin": 7380,
      "spam": 7381,
      "sport": 7382,
      "spoon": 7383,
      "spanish": 7384,
      "spreading": 7385,
      "##ouses": 7386,
      "dong": 7387,
      "imm": 7388,
      "noon": 7389,
      "noone": 7390,
      "nodd": 7391,
      "conna": 7392,
      "blah": 7393,
      "click": 7394,
      "cloud": 7395,
      "client": 7396,
      "backpack": 7397,
      "##hah": 7398,
      "##haps": 7399,
      "##igs": 7400,
      "##emp": 7401,
      "knife": 7402,
      "##elled": 7403,
      "happier": 7404,
      "Rec": 7405,
      "Report": 7406,
      "##aps": 7407,
      "goodnight": 7408,
      "finna": 7409,
      "##estern": 7410,
      "granny": 7411,
      "plak": 7412,
      "slapen": 7413,
      "Whatever": 7414,
      "!!!!!!!!!!!!!!!!!!!": 7415,
      "offered": 7416,
      "##aux": 7417,
      "##ection": 7418,
      "##onder": 7419,
      "Heb": 7420,
      "##gebra": 7421,
      "overtime": 7422,
      "overseas": 7423,
      "cared": 7424,
      "knowledge": 7425,
      "##alker": 7426,
      "....#": 7427,
      "scr": 7428,
      "score": 7429,
      "scare": 7430,
      "scold": 7431,
      "saf": 7432,
      "sais": 7433,
      "saving": 7434,
      "Young": 7435,
      "willing": 7436,
      "complic": 7437,
      "breeze": 7438,
      "whats": 7439,
      "##ipment": 7440,
      ":((": 7441,
      "print": 7442,
      "dishes": 7443,
      "disease": 7444,
      "provo": 7445,
      "manage": 7446,
      "awe": 7447,
      "awfully": 7448,
      "awhile": 7449,
      "appeal": 7450,
      "##perate": 7451,
      "guest": 7452,
      "guilt": 7453,
      "anybody": 7454,
      "##oster": 7455,
      "coaches": 7456,
      "chew": 7457,
      "cheated": 7458,
      "cheating": 7459,
      "role": 7460,
      "roast": 7461,
      "##ization": 7462,
      "##cious": 7463,
      "##cials": 7464,
      "##ciology": 7465,
      "##anksgiving": 7466,
      "##angements": 7467,
      "##leted": 7468,
      "craving": 7469,
      "tele": 7470,
      "oral": 7471,
      "drowning": 7472,
      "drowned": 7473,
      "partner": 7474,
      "##obb": 7475,
      "deserv": 7476,
      "strangers": 7477,
      "phrase": 7478,
      "##liest": 7479,
      "theme": 7480,
      "themselves": 7481,
      "##ography": 7482,
      "previous": 7483,
      "prefer": 7484,
      "Insp": 7485,
      "Instit": 7486,
      "terri": 7487,
      "ears": 7488,
      "completed": 7489,
      "flo": 7490,
      "wrote": 7491,
      "written": 7492,
      "contr": 7493,
      "delicious": 7494,
      "surprising": 7495,
      "Note": 7496,
      "##ysit": 7497,
      "##ysonch": 7498,
      "##pluss": 7499,
      "assessment": 7500,
      "bedtime": 7501,
      "minus": 7502,
      "Shannon": 7503,
      "papa": 7504,
      "papier": 7505,
      "perman": 7506,
      "drives": 7507,
      "drivers": 7508,
      "removed": 7509,
      "104": 7510,
      "wondering": 7511,
      "feared": 7512,
      "older": 7513,
      "breakdown": 7514,
      "declin": 7515,
      "decides": 7516,
      "crashed": 7517,
      "cranky": 7518,
      "##uga": 7519,
      "Decl": 7520,
      "sneezing": 7521,
      "##rrr": 7522,
      "comeback": 7523,
      "##ERS": 7524,
      "##ERE": 7525,
      "##iana": 7526,
      "relations": 7527,
      "##ception": 7528,
      "childhood": 7529,
      "Atl": 7530,
      "##ATION": 7531,
      "##orman": 7532,
      "##ampire": 7533,
      "However": 7534,
      "Alone": 7535,
      "Already": 7536,
      "Albert": 7537,
      "careful": 7538,
      "##ESP": 7539,
      "access": 7540,
      "accord": 7541,
      "account": 7542,
      "babysit": 7543,
      "##grow": 7544,
      "eyesight": 7545,
      "Sports": 7546,
      "##mail": 7547,
      "winner": 7548,
      "singer": 7549,
      "##ensive": 7550,
      "##wwww": 7551,
      "sketch": 7552,
      "march": 7553,
      "##people": 7554,
      "##OUS": 7555,
      "blackberry": 7556,
      "dining": 7557,
      "series": 7558,
      "##ONG": 7559,
      "hardly": 7560,
      "lighting": 7561,
      "##ARD": 7562,
      "##ART": 7563,
      "walks": 7564,
      "talkin": 7565,
      "##OTT": 7566,
      "##OTHER": 7567,
      "##ANS": 7568,
      "commun": 7569,
      "##oebe": 7570,
      "hahah": 7571,
      "base": 7572,
      "basic": 7573,
      "basement": 7574,
      "concerning": 7575,
      "##ifting": 7576,
      "##useum": 7577,
      "##onted": 7578,
      "practical": 7579,
      "##apped": 7580,
      "##standing": 7581,
      "dogs": 7582,
      "200": 7583,
      "Mexic": 7584,
      "jobs": 7585,
      "Everyday": 7586,
      "daw": 7587,
      "painful": 7588,
      "painting": 7589,
      "##ibu": 7590,
      "recently": 7591,
      "pouring": 7592,
      "poured": 7593,
      "raining": 7594,
      "confident": 7595,
      "greysonch": 7596,
      "teamfollowback": 7597,
      "Many": 7598,
      "##eeds": 7599,
      "##arcasm": 7600,
      "seconds": 7601,
      "prim": 7602,
      "Afraid": 7603,
      "Afric": 7604,
      "vision": 7605,
      "##EAM": 7606,
      "##undle": 7607,
      "humili": 7608,
      "Chee": 7609,
      "Chemistry": 7610,
      "sunshine": 7611,
      "Scared": 7612,
      "Screw": 7613,
      "filling": 7614,
      "expectations": 7615,
      "controlling": 7616,
      "regular": 7617,
      "gehad": 7618,
      "express": 7619,
      "##umbling": 7620,
      "consists": 7621,
      "esc": 7622,
      "sweets": 7623,
      "corre": 7624,
      "correct": 7625,
      "defin": 7626,
      "embarrassment": 7627,
      "WHO": 7628,
      "WHEN": 7629,
      "##party": 7630,
      "experts": 7631,
      "profession": 7632,
      "professor": 7633,
      "Moet": 7634,
      "spirited": 7635,
      "##iggs": 7636,
      "##CTOR": 7637,
      "hahahaha": 7638,
      "hahahahaha": 7639,
      "Progr": 7640,
      "Season": 7641,
      "Tex": 7642,
      "formal": 7643,
      "Stevie": 7644,
      "Daddy": 7645,
      "Quote": 7646,
      "##ipper": 7647,
      "intentions": 7648,
      "invited": 7649,
      "shorts": 7650,
      "Homework": 7651,
      "MarkW": 7652,
      "gener": 7653,
      "genuine": 7654,
      "##IDAY": 7655,
      "Christians": 7656,
      "manager": 7657,
      "gedichten": 7658,
      "Emma": 7659,
      "etc": 7660,
      "hunger": 7661,
      "roller": 7662,
      "rolled": 7663,
      "##cycle": 7664,
      "repet": 7665,
      "dreamed": 7666,
      "ANY": 7667,
      "Grand": 7668,
      "Gratitude": 7669,
      "STUP": 7670,
      "burst": 7671,
      "salvation": 7672,
      "##them": 7673,
      "##flix": 7674,
      "separate": 7675,
      "arrival": 7676,
      "nonpluss": 7677,
      "possession": 7678,
      "possibility": 7679,
      "possibly": 7680,
      "demands": 7681,
      "Whoa": 7682,
      "successful": 7683,
      "difficulty": 7684,
      "selfish": 7685,
      "imagination": 7686,
      "celebrate": 7687,
      "distrau": 7688,
      "obst": 7689,
      "tuna": 7690,
      "verder": 7691,
      "info": 7692,
      "Angry": 7693,
      "Edward": 7694,
      "Edouard": 7695,
      "Earth": 7696,
      "Madrid": 7697,
      "Macy": 7698,
      "Swag": 7699,
      "cousins": 7700,
      "normally": 7701,
      "##ointing": 7702,
      "##ridge": 7703,
      "dresses": 7704,
      "Parade": 7705,
      "heels": 7706,
      "silence": 7707,
      "##AGE": 7708,
      "entertain": 7709,
      "prayer": 7710,
      "promised": 7711,
      "LIGHT": 7712,
      "##rijven": 7713,
      "shooting": 7714,
      "quarter": 7715,
      "Drinking": 7716,
      "Loving": 7717,
      "gasped": 7718,
      "purpose": 7719,
      "neglect": 7720,
      "covered": 7721,
      "Adam": 7722,
      "ATT": 7723,
      "Babysitting": 7724,
      "Indian": 7725,
      "Juliet": 7726,
      "Patrick": 7727,
      "Wishing": 7728,
      "breathing": 7729,
      "direction": 7730,
      "ridiculous": 7731,
      "##GGGG": 7732,
      "##YYYY": 7733,
      "##from": 7734,
      "freshman": 7735,
      "encore": 7736,
      "calender": 7737,
      "Busy": 7738,
      "Leave": 7739,
      "Passed": 7740,
      "center": 7741,
      "darling": 7742,
      "matin": 7743,
      "magic": 7744,
      "##ternal": 7745,
      "chapel": 7746,
      "chapter": 7747,
      "charged": 7748,
      "Hahahaha": 7749,
      "procrast": 7750,
      "Enjoying": 7751,
      "Curse": 7752,
      "Facebook": 7753,
      "Helping": 7754,
      "NEVER": 7755,
      "brave": 7756,
      "casa": 7757,
      "damaged": 7758,
      "elephant": 7759,
      "hiding": 7760,
      "hidden": 7761,
      "penalty": 7762,
      "riot": 7763,
      "ripped": 7764,
      "squat": 7765,
      "squir": 7766,
      "behaved": 7767,
      "behavior": 7768,
      "##kelijk": 7769,
      "chips": 7770,
      "spoil": 7771,
      "spoken": 7772,
      "Strong": 7773,
      "arresting": 7774,
      "photo": 7775,
      "photos": 7776,
      "swimming": 7777,
      "reminded": 7778,
      "creeps": 7779,
      "creepy": 7780,
      "mailbox": 7781,
      "typical": 7782,
      "Research": 7783,
      "Wanting": 7784,
      "boat": 7785,
      "crime": 7786,
      "equipment": 7787,
      "mental": 7788,
      "waltz": 7789,
      "##ompson": 7790,
      "repeat": 7791,
      "neighbor": 7792,
      "neighbour": 7793,
      "approached": 7794,
      "delayed": 7795,
      "##ubbled": 7796,
      "Second": 7797,
      "fanzinator": 7798,
      "drawers": 7799,
      "CHRISTMAS": 7800,
      "Content": 7801,
      "Especially": 7802,
      "Louise": 7803,
      "Maggie": 7804,
      "REALLY": 7805,
      "Trey": 7806,
      "german": 7807,
      "helpless": 7808,
      "hobby": 7809,
      "ladies": 7810,
      "mooie": 7811,
      "tightened": 7812,
      "##TTTT": 7813,
      "habit": 7814,
      "replace": 7815,
      "update": 7816,
      "updates": 7817,
      "comfortable": 7818,
      "mobile": 7819,
      "arrangements": 7820,
      "advice": 7821,
      "Internet": 7822,
      "cruise": 7823,
      "considerable": 7824,
      "EXAM": 7825,
      "Malibu": 7826,
      "WORK": 7827,
      "bacon": 7828,
      "female": 7829,
      "katie": 7830,
      "karton": 7831,
      "mountains": 7832,
      "obser": 7833,
      "picnic": 7834,
      "portfol": 7835,
      "sympathetic": 7836,
      "timet": 7837,
      "Standing": 7838,
      "program": 7839,
      "Following": 7840,
      "Horace": 7841,
      "KimKardash": 7842,
      "Library": 7843,
      "Logan": 7844,
      "Said": 7845,
      "Salad": 7846,
      "Women": 7847,
      "banquet": 7848,
      "candle": 7849,
      "fiance": 7850,
      "folks": 7851,
      "goog": 7852,
      "racist": 7853,
      "taxi": 7854,
      "##urazr": 7855,
      "##atalie": 7856,
      "inevitably": 7857,
      "loser": 7858,
      "whisper": 7859,
      "departure": 7860,
      "unbear": 7861,
      "suggestion": 7862,
      "delivery": 7863,
      "dreadful": 7864,
      "cadeautjes": 7865,
      "COMING": 7866,
      "Korean": 7867,
      "Learning": 7868,
      "Psalm": 7869,
      "Satan": 7870,
      "Unexpected": 7871,
      "cunts": 7872,
      "fingers": 7873,
      "origin": 7874,
      "woken": 7875,
      "##onExist": 7876,
      "released": 7877,
      "sharp": 7878,
      "convince": 7879,
      "Receiving": 7880,
      "application": 7881,
      "hasht": 7882,
      "undergraduate": 7883,
      "recalled": 7884,
      "discussion": 7885,
      "including": 7886,
      "Japanese": 7887,
      "Campus": 7888,
      "Certainly": 7889,
      "MORE": 7890,
      "Others": 7891,
      "cigarette": 7892,
      "cuddle": 7893,
      "karaoke": 7894,
      "oomf": 7895,
      "sauce": 7896,
      "tastes": 7897,
      "##known": 7898,
      "##jamin": 7899,
      "##Jackson": 7900,
      "steelers": 7901,
      "stiffened": 7902,
      "stoner_kelly": 7903,
      "questions": 7904,
      "exhilar": 7905,
      "choices": 7906,
      "alcoh": 7907,
      "uncomfortable": 7908,
      "cancelled": 7909,
      "mortified": 7910,
      "prisoner": 7911,
      "philos": 7912,
      "deliberately": 7913,
      "grandchildren": 7914,
      "attractive": 7915,
      "settled": 7916,
      "Suppose": 7917,
      "BREAK": 7918,
      "poisoning": 7919,
      "encouraging": 7920,
      "JoeyR": 7921,
      "violence": 7922,
      "accomplished": 7923,
      "Catherine": 7924,
      "COLD": 7925,
      "Einstein": 7926,
      "German": 7927,
      "Kirk": 7928,
      "LORD": 7929,
      "Vincent": 7930,
      "azurazr": 7931,
      "aphasia": 7932,
      "bubble": 7933,
      "bicycle": 7934,
      "cinema": 7935,
      "cinnamon": 7936,
      "multip": 7937,
      "umbrella": 7938,
      "vagina": 7939,
      "##cceed": 7940,
      "##pherd": 7941,
      "thousand": 7942,
      "intense": 7943,
      "whilst": 7944,
      "##abealong": 7945,
      "My_NonExist": 7946,
      "nodded": 7947,
      "Institute": 7948,
      "declined": 7949,
      "greysonchance": 7950,
      "humiliated": 7951,
      "STUPID": 7952,
      "nonplussed": 7953,
      "distraught": 7954,
      "portfolio": 7955,
      "KimKardashian": 7956,
      "My_NonExistence": 7957,
      "!”": 7958,
      ")'": 7959,
      "),": 7960,
      "-&": 7961,
      ".#": 7962,
      "000": 7963,
      "2day": 7964,
      "2hrs": 7965,
      "37": 7966,
      "333": 7967,
      "4your": 7968,
      "8th": 7969,
      "9pm": 7970,
      ":&": 7971,
      ":@": 7972,
      ":$": 7973,
      ":,": 7974,
      ";:": 7975,
      ";~~": 7976,
      "=/": 7977,
      "===": 7978,
      "AR": 7979,
      "AD": 7980,
      "Ant": 7981,
      "Ahaha": 7982,
      "Ahhh": 7983,
      "AGA": 7984,
      "Ba": 7985,
      "BU": 7986,
      "Bay": 7987,
      "Bit": 7988,
      "Band": 7989,
      "Bry": 7990,
      "Bath": 7991,
      "Bost": 7992,
      "Bless": 7993,
      "Boss": 7994,
      "BEA": 7995,
      "Bright": 7996,
      "Biology": 7997,
      "Brian": 7998,
      "BTW": 7999,
      "BBC": 8000,
      "CJ": 8001,
      "Cre": 8002,
      "Cond": 8003,
      "City": 8004,
      "Cody": 8005,
      "CON": 8006,
      "Catching": 8007,
      "Cla": 8008,
      "Cale": 8009,
      "CST": 8010,
      "COME": 8011,
      "Candy": 8012,
      "CUP": 8013,
      "Dun": 8014,
      "Dro": 8015,
      "Dance": 8016,
      "Div": 8017,
      "Dating": 8018,
      "Dog": 8019,
      "DIS": 8020,
      "During": 8021,
      "Dale": 8022,
      "Double": 8023,
      "Desp": 8024,
      "ES": 8025,
      "EN": 8026,
      "Eff": 8027,
      "Ext": 8028,
      "Ess": 8029,
      "Easy": 8030,
      "EVE": 8031,
      "Edd": 8032,
      "ELE": 8033,
      "Evan": 8034,
      "EFF": 8035,
      "Fe": 8036,
      "FM": 8037,
      "FB": 8038,
      "FF": 8039,
      "Fit": 8040,
      "Fre": 8041,
      "Fall": 8042,
      "Fam": 8043,
      "Fur": 8044,
      "Fol": 8045,
      "Four": 8046,
      "Fab": 8047,
      "FIR": 8048,
      "Future": 8049,
      "FIVE": 8050,
      "Frau": 8051,
      "Fabulous": 8052,
      "Favorite": 8053,
      "GL": 8054,
      "Gon": 8055,
      "Gent": 8056,
      "Gill": 8057,
      "Gone": 8058,
      "Gary": 8059,
      "Gord": 8060,
      "Gma": 8061,
      "Green": 8062,
      "GAME": 8063,
      "Hy": 8064,
      "Ham": 8065,
      "Heel": 8066,
      "Hand": 8067,
      "Hurt": 8068,
      "Horror": 8069,
      "Hockey": 8070,
      "HEAR": 8071,
      "II": 8072,
      "Ima": 8073,
      "JO": 8074,
      "JA": 8075,
      "Jer": 8076,
      "Jon": 8077,
      "Jam": 8078,
      "Jud": 8079,
      "Jac": 8080,
      "Jose": 8081,
      "Jah": 8082,
      "Join": 8083,
      "Juice": 8084,
      "Junior": 8085,
      "Kar": 8086,
      "Kay": 8087,
      "Kris": 8088,
      "KNOW": 8089,
      "LL": 8090,
      "LT": 8091,
      "Lor": 8092,
      "Len": 8093,
      "Las": 8094,
      "Lion": 8095,
      "Lag": 8096,
      "Line": 8097,
      "Lunch": 8098,
      "Laying": 8099,
      "LIT": 8100,
      "LEA": 8101,
      "Lenn": 8102,
      "Luv": 8103,
      "LSU": 8104,
      "Med": 8105,
      "Men": 8106,
      "Mot": 8107,
      "Mur": 8108,
      "Must": 8109,
      "Mak": 8110,
      "Mus": 8111,
      "Mil": 8112,
      "Mod": 8113,
      "Mau": 8114,
      "Meet": 8115,
      "Mock": 8116,
      "Move": 8117,
      "Maar": 8118,
      "Mung": 8119,
      "Max": 8120,
      "Miller": 8121,
      "Michael": 8122,
      "Muppet": 8123,
      "Nic": 8124,
      "Nord": 8125,
      "Nij": 8126,
      "Nervous": 8127,
      "Nancy": 8128,
      "Nails": 8129,
      "Oc": 8130,
      "Ora": 8131,
      "Oper": 8132,
      "Obs": 8133,
      "O_O": 8134,
      "PE": 8135,
      "PA": 8136,
      "PM": 8137,
      "PC": 8138,
      "Pay": 8139,
      "Pad": 8140,
      "Pun": 8141,
      "Pop": 8142,
      "Past": 8143,
      "Pink": 8144,
      "Path": 8145,
      "Pull": 8146,
      "Person": 8147,
      "Pissed": 8148,
      "Prest": 8149,
      "Positive": 8150,
      "QT": 8151,
      "QB": 8152,
      "RL": 8153,
      "Ran": 8154,
      "Rome": 8155,
      "Race": 8156,
      "River": 8157,
      "Ross": 8158,
      "Russ": 8159,
      "Rape": 8160,
      "Rih": 8161,
      "Russell": 8162,
      "RESP": 8163,
      "Sl": 8164,
      "SA": 8165,
      "SM": 8166,
      "SW": 8167,
      "Soo": 8168,
      "Sch": 8169,
      "Sus": 8170,
      "Sant": 8171,
      "Sum": 8172,
      "Sem": 8173,
      "Spr": 8174,
      "Sea": 8175,
      "Sue": 8176,
      "Squ": 8177,
      "Sav": 8178,
      "Saying": 8179,
      "SOME": 8180,
      "Slept": 8181,
      "Solo": 8182,
      "Slow": 8183,
      "Setting": 8184,
      "TL": 8185,
      "TY": 8186,
      "TA": 8187,
      "Tin": 8188,
      "Tow": 8189,
      "Tri": 8190,
      "Top": 8191,
      "Till": 8192,
      "Town": 8193,
      "Tried": 8194,
      "Times": 8195,
      "TOM": 8196,
      "Tears": 8197,
      "TELL": 8198,
      "Target": 8199,
      "TIME": 8200,
      "Us": 8201,
      "Um": 8202,
      "Unt": 8203,
      "Umm": 8204,
      "Vis": 8205,
      "Val": 8206,
      "Vent": 8207,
      "Vol": 8208,
      "Voice": 8209,
      "Whe": 8210,
      "Went": 8211,
      "Wake": 8212,
      "Wild": 8213,
      "Water": 8214,
      "WON": 8215,
      "WAR": 8216,
      "WAS": 8217,
      "Wishes": 8218,
      "WTF": 8219,
      "XMAS": 8220,
      "XOX": 8221,
      "YO": 8222,
      "Yu": 8223,
      "Yummy": 8224,
      "Y_St": 8225,
      "ax": 8226,
      "aid": 8227,
      "aim": 8228,
      "ahhh": 8229,
      "bi": 8230,
      "bb": 8231,
      "bou": 8232,
      "bent": 8233,
      "bol": 8234,
      "bos": 8235,
      "beet": 8236,
      "bure": 8237,
      "bark": 8238,
      "biz": 8239,
      "bang": 8240,
      "bug": 8241,
      "bail": 8242,
      "bret": 8243,
      "brew": 8244,
      "breed": 8245,
      "bapt": 8246,
      "bouw": 8247,
      "bugs": 8248,
      "coo": 8249,
      "corr": 8250,
      "cass": 8251,
      "cos": 8252,
      "cott": 8253,
      "cats": 8254,
      "cuis": 8255,
      "cops": 8256,
      "dy": 8257,
      "dé": 8258,
      "der": 8259,
      "dust": 8260,
      "dime": 8261,
      "dig": 8262,
      "dip": 8263,
      "dave": 8264,
      "dia": 8265,
      "diving": 8266,
      "daar": 8267,
      "dates": 8268,
      "dhan": 8269,
      "dumped": 8270,
      "eve": 8271,
      "eind": 8272,
      "eww": 8273,
      "ewww": 8274,
      "fot": 8275,
      "fle": 8276,
      "fate": 8277,
      "fired": 8278,
      "fatter": 8279,
      "fib": 8280,
      "firm": 8281,
      "gn": 8282,
      "ga": 8283,
      "git": 8284,
      "gear": 8285,
      "gest": 8286,
      "gig": 8287,
      "gap": 8288,
      "geen": 8289,
      "hen": 8290,
      "hist": 8291,
      "hoor": 8292,
      "hug": 8293,
      "hier": 8294,
      "hanna": 8295,
      "hooked": 8296,
      "hits": 8297,
      "hoes": 8298,
      "hrs": 8299,
      "harris": 8300,
      "iw": 8301,
      "iH": 8302,
      "iets": 8303,
      "iemand": 8304,
      "ihate": 8305,
      "jag": 8306,
      "jaar": 8307,
      "jaw": 8308,
      "john": 8309,
      "jajaj": 8310,
      "junior": 8311,
      "kc": 8312,
      "kw": 8313,
      "k_": 8314,
      "kj": 8315,
      "kor": 8316,
      "kay": 8317,
      "kad": 8318,
      "kir": 8319,
      "kla": 8320,
      "kree": 8321,
      "kitty": 8322,
      "ly": 8323,
      "lat": 8324,
      "lay": 8325,
      "lent": 8326,
      "lac": 8327,
      "laz": 8328,
      "lane": 8329,
      "larg": 8330,
      "lumber": 8331,
      "luke": 8332,
      "loop": 8333,
      "loner": 8334,
      "lmfao": 8335,
      "mt": 8336,
      "mam": 8337,
      "mod": 8338,
      "mia": 8339,
      "mates": 8340,
      "master": 8341,
      "mmmmm": 8342,
      "nic": 8343,
      "nous": 8344,
      "nans": 8345,
      "nause": 8346,
      "nik": 8347,
      "naked": 8348,
      "nuts": 8349,
      "opt": 8350,
      "odd": 8351,
      "oops": 8352,
      "option": 8353,
      "o_O": 8354,
      "pc": 8355,
      "ps": 8356,
      "pal": 8357,
      "pak": 8358,
      "pus": 8359,
      "pant": 8360,
      "pil": 8361,
      "poll": 8362,
      "pathetic": 8363,
      "pamper": 8364,
      "position": 8365,
      "pattern": 8366,
      "ré": 8367,
      "rou": 8368,
      "ric": 8369,
      "roy": 8370,
      "rick": 8371,
      "ros": 8372,
      "rip": 8373,
      "rose": 8374,
      "rug": 8375,
      "rhy": 8376,
      "route": 8377,
      "raging": 8378,
      "sou": 8379,
      "san": 8380,
      "sis": 8381,
      "sle": 8382,
      "sout": 8383,
      "sack": 8384,
      "smas": 8385,
      "sne": 8386,
      "sending": 8387,
      "sib": 8388,
      "searching": 8389,
      "tb": 8390,
      "ting": 8391,
      "tic": 8392,
      "tend": 8393,
      "tum": 8394,
      "tag": 8395,
      "tac": 8396,
      "txt": 8397,
      "trag": 8398,
      "tah": 8399,
      "tens": 8400,
      "tail": 8401,
      "tayl": 8402,
      "tuesday": 8403,
      "teeter": 8404,
      "ultim": 8405,
      "vir": 8406,
      "vra": 8407,
      "via": 8408,
      "voc": 8409,
      "vict": 8410,
      "vanda": 8411,
      "wer": 8412,
      "wre": 8413,
      "west": 8414,
      "wood": 8415,
      "www": 8416,
      "waar": 8417,
      "wif": 8418,
      "wana": 8419,
      "weren": 8420,
      "wheel": 8421,
      "wishes": 8422,
      "wrapped": 8423,
      "woebe": 8424,
      "xD": 8425,
      "ye": 8426,
      "yee": 8427,
      "yum": 8428,
      "yah": 8429,
      "yummy": 8430,
      "yucky": 8431,
      "zoo": 8432,
      "zus": 8433,
      "zero": 8434,
      "##hat": 8435,
      "##har": 8436,
      "##hog": 8437,
      "##hands": 8438,
      "##hinking": 8439,
      "##iy": 8440,
      "##iM": 8441,
      "##ió": 8442,
      "##iant": 8443,
      "##iour": 8444,
      "##ials": 8445,
      "##iams": 8446,
      "##cr": 8447,
      "##cou": 8448,
      "##cad": 8449,
      "##cere": 8450,
      "##cord": 8451,
      "##cox": 8452,
      "##case": 8453,
      "##code": 8454,
      "##kon": 8455,
      "##kill": 8456,
      "##kled": 8457,
      "##kaar": 8458,
      "##know": 8459,
      "##Is": 8460,
      "##If": 8461,
      "##IGH": 8462,
      "##IEL": 8463,
      "##Sc": 8464,
      "##Sp": 8465,
      "##Sw": 8466,
      "##SG": 8467,
      "##SA": 8468,
      "##SC": 8469,
      "##She": 8470,
      "##Sad": 8471,
      "##SIC": 8472,
      "##Scott": 8473,
      "##nen": 8474,
      "##name": 8475,
      "##nog": 8476,
      "##n615": 8477,
      "##tre": 8478,
      "##eur": 8479,
      "##eak": 8480,
      "##eie": 8481,
      "##eff": 8482,
      "##ds": 8483,
      "##due": 8484,
      "##door": 8485,
      "##rou": 8486,
      "##ran": 8487,
      "##rar": 8488,
      "##rot": 8489,
      "##rome": 8490,
      "##run": 8491,
      "##rink": 8492,
      "##rough": 8493,
      "##ression": 8494,
      "##rently": 8495,
      "##ressing": 8496,
      "##ranny": 8497,
      "##rouw": 8498,
      "##oft": 8499,
      "##she": 8500,
      "##sis": 8501,
      "##seeth": 8502,
      "##yk": 8503,
      "##yF": 8504,
      "##yes": 8505,
      "##yaa": 8506,
      "##vd": 8507,
      "##vas": 8508,
      "##vee": 8509,
      "##vre": 8510,
      "##via": 8511,
      "##voc": 8512,
      "##viour": 8513,
      "##aR": 8514,
      "##ais": 8515,
      "##aign": 8516,
      "##aSt": 8517,
      "##moo": 8518,
      "##mid": 8519,
      "##mart": 8520,
      "##mos": 8521,
      "##made": 8522,
      "##mosp": 8523,
      "##pc": 8524,
      "##pg": 8525,
      "##pon": 8526,
      "##pot": 8527,
      "##pse": 8528,
      "##pear": 8529,
      "##pun": 8530,
      "##wy": 8531,
      "##wis": 8532,
      "##wic": 8533,
      "##wel": 8534,
      "##werk": 8535,
      "##lit": 8536,
      "##lim": 8537,
      "##look": 8538,
      "##los": 8539,
      "##lip": 8540,
      "##lished": 8541,
      "##liness": 8542,
      "##lah": 8543,
      "##gi": 8544,
      "##gt": 8545,
      "##gs": 8546,
      "##gor": 8547,
      "##gly": 8548,
      "##gement": 8549,
      "##gars": 8550,
      "##gonn": 8551,
      "##green": 8552,
      "##za": 8553,
      "##Or": 8554,
      "##Off": 8555,
      "##OLL": 8556,
      "##OCK": 8557,
      "##bi": 8558,
      "##bu": 8559,
      "##bay": 8560,
      "##bow": 8561,
      "##bid": 8562,
      "##bul": 8563,
      "##bro": 8564,
      "##bol": 8565,
      "##bry": 8566,
      "##bag": 8567,
      "##bers": 8568,
      "##bac": 8569,
      "##burn": 8570,
      "##bij": 8571,
      "##bled": 8572,
      "##broken": 8573,
      "##bread": 8574,
      "##born": 8575,
      "##16": 8576,
      "##1st": 8577,
      "##xo": 8578,
      "##GM": 8579,
      "##GN": 8580,
      "##God": 8581,
      "##He": 8582,
      "##LING": 8583,
      "##Em": 8584,
      "##EEN": 8585,
      "##uing": 8586,
      "##uce": 8587,
      "##uim": 8588,
      "##uel": 8589,
      "##uha": 8590,
      "##uence": 8591,
      "##uade": 8592,
      "##uwe": 8593,
      "##VING": 8594,
      "##RO": 8595,
      "##RR": 8596,
      "##RY": 8597,
      "##Ray": 8598,
      "##ROO": 8599,
      "##Real": 8600,
      "##You": 8601,
      "##DS": 8602,
      "##Ds": 8603,
      "##Don": 8604,
      "##Des": 8605,
      "##Down": 8606,
      "##Diva": 8607,
      "##An": 8608,
      "##As": 8609,
      "##And": 8610,
      "##Away": 8611,
      "##_d": 8612,
      "##_o": 8613,
      "##_C": 8614,
      "##_J": 8615,
      "##_10": 8616,
      "##_sp": 8617,
      "##ME": 8618,
      "##Mon": 8619,
      "##NA": 8620,
      "##Pe": 8621,
      "##PO": 8622,
      "##PC": 8623,
      "##P3": 8624,
      "##Pol": 8625,
      "##PED": 8626,
      "##Un": 8627,
      "##UST": 8628,
      "##27": 8629,
      "##TO": 8630,
      "##Time": 8631,
      "##Tweets": 8632,
      "##fs": 8633,
      "##fg": 8634,
      "##fting": 8635,
      "##foot": 8636,
      "##fare": 8637,
      "##fair": 8638,
      "##fits": 8639,
      "##faction": 8640,
      "##Way": 8641,
      "##WOR": 8642,
      "##jk": 8643,
      "##jo": 8644,
      "##ju": 8645,
      "##By": 8646,
      "##BY": 8647,
      "##Boo": 8648,
      "##CI": 8649,
      "##Co": 8650,
      "##C_": 8651,
      "##06": 8652,
      "##Kn": 8653,
      "##KILL": 8654,
      "##Fa": 8655,
      "##Far": 8656,
      "##FUL": 8657,
      "##From": 8658,
      "##Js": 8659,
      "##82": 8660,
      "##80": 8661,
      "##85": 8662,
      "##35": 8663,
      "##50": 8664,
      "##97": 8665,
      "##95": 8666,
      "##ZPO": 8667,
      "##éé": 8668,
      "##Qu": 8669,
      "##êt": 8670,
      "##¬¬": 8671,
      "##ยย": 8672,
      "##ining": 8673,
      "##inate": 8674,
      "##inary": 8675,
      "##inson": 8676,
      "##inbieber": 8677,
      "##inge": 8678,
      "##erc": 8679,
      "##er_": 8680,
      "##eron": 8681,
      "##ores": 8682,
      "##orse": 8683,
      "##orter": 8684,
      "##orable": 8685,
      "##orado": 8686,
      "##ouis": 8687,
      "##ouver": 8688,
      "##ouston": 8689,
      "tool": 8690,
      "##eda": 8691,
      "##eder": 8692,
      "##edge": 8693,
      "##edere": 8694,
      "##edict": 8695,
      "##aton": 8696,
      "##atty": 8697,
      "##atures": 8698,
      "##atoes": 8699,
      "##ativity": 8700,
      "##enb": 8701,
      "##ono": 8702,
      "##str": 8703,
      "##sthe": 8704,
      "##stift": 8705,
      "##sthinking": 8706,
      "##aning": 8707,
      "##anian": 8708,
      "##ancial": 8709,
      "##arian": 8710,
      "##eserv": 8711,
      "##esoc": 8712,
      "##itary": 8713,
      "##isp": 8714,
      "##iser": 8715,
      "##isel": 8716,
      "##isms": 8717,
      "##issey": 8718,
      "##isco": 8719,
      "ant": 8720,
      "anth": 8721,
      "anton": 8722,
      "anti": 8723,
      "anthem": 8724,
      "##asi": 8725,
      "##asa": 8726,
      "##asha": 8727,
      "##asco": 8728,
      "##eest": 8729,
      "thou": 8730,
      "##otes": 8731,
      "##otally": 8732,
      "##otic": 8733,
      "##otest": 8734,
      "##otha": 8735,
      "##otto": 8736,
      "##relled": 8737,
      "myst": 8738,
      "inn": 8739,
      "inj": 8740,
      "inve": 8741,
      "ineed": 8742,
      "informed": 8743,
      "##riet": 8744,
      "##riel": 8745,
      "##rici": 8746,
      "##rived": 8747,
      "##lea": 8748,
      "##leys": 8749,
      "##lema": 8750,
      "##ador": 8751,
      "##aded": 8752,
      "##adush": 8753,
      "##adows": 8754,
      "andre": 8755,
      "##ooit": 8756,
      "##ooke": 8757,
      "begg": 8758,
      "forg": 8759,
      "forest": 8760,
      "forth": 8761,
      "forbid": 8762,
      "##ution": 8763,
      "##aly": 8764,
      "##alu": 8765,
      "##aling": 8766,
      "##alah": 8767,
      "##lyss": 8768,
      "hast": 8769,
      "hack": 8770,
      "##idd": 8771,
      "islam": 8772,
      "relie": 8773,
      "rearr": 8774,
      "##alls": 8775,
      "stir": 8776,
      "stone": 8777,
      "steep": 8778,
      "stance": 8779,
      "stup": 8780,
      "stret": 8781,
      "stars": 8782,
      "stunn": 8783,
      "##aman": 8784,
      "##amond": 8785,
      "##amines": 8786,
      "##ente": 8787,
      "##entice": 8788,
      "...!": 8789,
      "meg": 8790,
      "measure": 8791,
      "mexic": 8792,
      "mechan": 8793,
      "onto": 8794,
      "##ira": 8795,
      "itu": 8796,
      "itst": 8797,
      "##race": 8798,
      "##razy": 8799,
      "##kem": 8800,
      "loll": 8801,
      "##season": 8802,
      "liz": 8803,
      "lif": 8804,
      "lick": 8805,
      "liqu": 8806,
      "##ur_": 8807,
      "##urance": 8808,
      "##urkey": 8809,
      "##verend": 8810,
      "##ppen": 8811,
      "##ims": 8812,
      "##cting": 8813,
      "##ctic": 8814,
      "##ctn615": 8815,
      "##una": 8816,
      "##orres": 8817,
      "thisis": 8818,
      "atmosp": 8819,
      "notting": 8820,
      "soap": 8821,
      "society": 8822,
      "##icing": 8823,
      "##ication": 8824,
      "##ichelle": 8825,
      "shan": 8826,
      "shake": 8827,
      "shove": 8828,
      "shatter": 8829,
      "##heres": 8830,
      "##elijk": 8831,
      "##open": 8832,
      "##opher": 8833,
      "##tered": 8834,
      "##endo": 8835,
      "##outof": 8836,
      "todays": 8837,
      "##ula": 8838,
      "##ulp": 8839,
      "##ulation": 8840,
      "aboard": 8841,
      "##ros": 8842,
      "##roso": 8843,
      "##roaches": 8844,
      "##roval": 8845,
      "whip": 8846,
      "Whenever": 8847,
      "##akh": 8848,
      "##akers": 8849,
      "##akkelijk": 8850,
      "Them": 8851,
      "quand": 8852,
      "tommor": 8853,
      "tommorrow": 8854,
      "##usi": 8855,
      "##usive": 8856,
      "##ussing": 8857,
      "##antW": 8858,
      "##ieuw": 8859,
      "tomorrows": 8860,
      "deod": 8861,
      "defe": 8862,
      "deceived": 8863,
      "chin": 8864,
      "chill": 8865,
      "chain": 8866,
      "charm": 8867,
      "champ": 8868,
      "china": 8869,
      "chances": 8870,
      "gosh": 8871,
      "goeie": 8872,
      "##olt": 8873,
      "doen": 8874,
      "doom": 8875,
      "dove": 8876,
      "doct": 8877,
      "alwe": 8878,
      "algebra": 8879,
      "ups": 8880,
      "upcoming": 8881,
      "##than": 8882,
      "##thought": 8883,
      "##thanksgiving": 8884,
      "seas": 8885,
      "juste": 8886,
      "justified": 8887,
      "justinbieber": 8888,
      "##ilm": 8889,
      "afmaken": 8890,
      "##ourse": 8891,
      "##ourne": 8892,
      "Than": 8893,
      "Thail": 8894,
      "Three": 8895,
      "outing": 8896,
      "outrage": 8897,
      "outfit": 8898,
      "outstanding": 8899,
      "fris": 8900,
      "franc": 8901,
      "frowned": 8902,
      "comin": 8903,
      "comme": 8904,
      "comfor": 8905,
      "##aby": 8906,
      "##abet": 8907,
      "##abel": 8908,
      "##about": 8909,
      "##ablish": 8910,
      "##abama": 8911,
      "##abby": 8912,
      "##abeth": 8913,
      "##ability": 8914,
      "heat": 8915,
      "held": 8916,
      "Chip": 8917,
      "Change": 8918,
      "Charg": 8919,
      "Choose": 8920,
      "Chicago": 8921,
      "unc": 8922,
      "unus": 8923,
      "unto": 8924,
      "univers": 8925,
      "##umst": 8926,
      "alle": 8927,
      "alll": 8928,
      "MyLife": 8929,
      "lean": 8930,
      "leap": 8931,
      "##agn": 8932,
      "##agle": 8933,
      "##agine": 8934,
      "##agement": 8935,
      "##agraph": 8936,
      "cane": 8937,
      "canada": 8938,
      "weap": 8939,
      "weave": 8940,
      "fave": 8941,
      "facing": 8942,
      "enorm": 8943,
      "energ": 8944,
      "##issy": 8945,
      "spit": 8946,
      "spell": 8947,
      "space": 8948,
      "spont": 8949,
      "spring": 8950,
      "##assion": 8951,
      "##ersen": 8952,
      "imiss": 8953,
      "##ucker": 8954,
      "##eeping": 8955,
      "##isted": 8956,
      "##istan": 8957,
      "##istics": 8958,
      "cong": 8959,
      "congr": 8960,
      "conquer": 8961,
      "##ffff": 8962,
      "blam": 8963,
      "blush": 8964,
      "blowing": 8965,
      "blessing": 8966,
      "blinked": 8967,
      "peur": 8968,
      "peoples": 8969,
      "clue": 8970,
      "clipp": 8971,
      "##udge": 8972,
      "background": 8973,
      "##haw": 8974,
      "##have": 8975,
      "##haven": 8976,
      "##onge": 8977,
      "##ongen": 8978,
      "##odd": 8979,
      "##igy": 8980,
      "##igan": 8981,
      "somewhat": 8982,
      "rights": 8983,
      "##eme": 8984,
      "##emic": 8985,
      "##emble": 8986,
      "##owns": 8987,
      "Rees": 8988,
      "Reverend": 8989,
      "##ishi": 8990,
      "##ishing": 8991,
      "trend": 8992,
      "trade": 8993,
      "trash": 8994,
      "trucks": 8995,
      "##aping": 8996,
      "##aped": 8997,
      "##present": 8998,
      "##oso": 8999,
      "##osa": 9000,
      "##osite": 9001,
      "goodness": 9002,
      "financial": 9003,
      "grind": 9004,
      "grinding": 9005,
      "grinn": 9006,
      "gratitude": 9007,
      "gratification": 9008,
      "plat": 9009,
      "plate": 9010,
      "gott": 9011,
      "slut": 9012,
      "slipping": 9013,
      "slipped": 9014,
      "aggr": 9015,
      "twit": 9016,
      "twee": 9017,
      "tweeter": 9018,
      "twenty": 9019,
      "tweeps": 9020,
      "!!!!!!!!!!!": 9021,
      "sugar": 9022,
      "succeed": 9023,
      "##naire": 9024,
      "##nacle": 9025,
      "Health": 9026,
      "shes": 9027,
      "sheer": 9028,
      "sheet": 9029,
      "carried": 9030,
      "Stan": 9031,
      "Stuck": 9032,
      "Stock": 9033,
      "Story": 9034,
      "States": 9035,
      "moe": 9036,
      "moves": 9037,
      "mocha": 9038,
      "scott": 9039,
      "scotty": 9040,
      "morn": 9041,
      "compare": 9042,
      "bren": 9043,
      "britt": 9044,
      "waiter": 9045,
      "##pton": 9046,
      "##ucht": 9047,
      "##itto": 9048,
      "##ittstift": 9049,
      "angel": 9050,
      "angrier": 9051,
      "##acular": 9052,
      "##ació": 9053,
      "mornings": 9054,
      "protect": 9055,
      "protest": 9056,
      "prittstift": 9057,
      "disp": 9058,
      "displ": 9059,
      "prob": 9060,
      "sleepless": 9061,
      "mann": 9062,
      "downheart": 9063,
      "aww": 9064,
      "award": 9065,
      "appl": 9066,
      "greater": 9067,
      "greatness": 9068,
      "smart": 9069,
      "smooth": 9070,
      "sadd": 9071,
      "##next": 9072,
      "##necess": 9073,
      "glanc": 9074,
      "##aze": 9075,
      "##azine": 9076,
      "##arkson": 9077,
      "afterwards": 9078,
      "ada": 9079,
      "adorable": 9080,
      "adalah": 9081,
      "##athy": 9082,
      "##atholic": 9083,
      "examinations": 9084,
      "hearted": 9085,
      "coaster": 9086,
      "coco": 9087,
      "cocon": 9088,
      "chees": 9089,
      "actions": 9090,
      "##izabeth": 9091,
      "##ciful": 9092,
      "##answ": 9093,
      "##anson": 9094,
      "veget": 9095,
      "crave": 9096,
      "crawl": 9097,
      "tev": 9098,
      "teasing": 9099,
      "##shAll": 9100,
      "##ivan": 9101,
      "##ivid": 9102,
      "##ivities": 9103,
      "classy": 9104,
      "classic": 9105,
      "drop": 9106,
      "drank": 9107,
      "dressed": 9108,
      "dressing": 9109,
      "drops": 9110,
      "drugs": 9111,
      "##obe": 9112,
      "##oba": 9113,
      "##friends": 9114,
      "desc": 9115,
      "fried": 9116,
      "fridge": 9117,
      "reserv": 9118,
      "Shepherd": 9119,
      "stressing": 9120,
      "strugg": 9121,
      "Beat": 9122,
      "Beck": 9123,
      "Beij": 9124,
      "##aaa": 9125,
      "##aaay": 9126,
      "pharm": 9127,
      "Andy": 9128,
      "laat": 9129,
      "laid": 9130,
      "lawn": 9131,
      "##oga": 9132,
      "##ogging": 9133,
      "##nessee": 9134,
      "prem": 9135,
      "prevent": 9136,
      "prezz": 9137,
      "previously": 9138,
      "Inn": 9139,
      "InshAll": 9140,
      "terms": 9141,
      "pleasant": 9142,
      "##ichigan": 9143,
      "flood": 9144,
      "flown": 9145,
      "flames": 9146,
      "flower": 9147,
      "##solutely": 9148,
      "paran": 9149,
      "paradise": 9150,
      "paragraph": 9151,
      "contract": 9152,
      "contrad": 9153,
      "housewives": 9154,
      "omkled": 9155,
      "##quel": 9156,
      "##quake": 9157,
      "needles": 9158,
      "surprises": 9159,
      "undeserv": 9160,
      "##ootje": 9161,
      "##ootjes": 9162,
      "insult": 9163,
      "weekends": 9164,
      "swift": 9165,
      "switch": 9166,
      "##intosh": 9167,
      "elf": 9168,
      "elim": 9169,
      "Gods": 9170,
      "##akespear": 9171,
      "##iverse": 9172,
      "assaulted": 9173,
      "assumption": 9174,
      "mini": 9175,
      "##armony": 9176,
      "Shiona": 9177,
      "passing": 9178,
      "travelling": 9179,
      "##ijd": 9180,
      "minds": 9181,
      "minded": 9182,
      "personally": 9183,
      "rooms": 9184,
      "remark": 9185,
      "10pm": 9186,
      "olds": 9187,
      "momentary": 9188,
      "mono": 9189,
      "monic": 9190,
      "monsters": 9191,
      "kindness": 9192,
      "breaks": 9193,
      "eyed": 9194,
      "decent": 9195,
      "cray": 9196,
      "crush": 9197,
      "crushing": 9198,
      "crashing": 9199,
      "##lessly": 9200,
      "incens": 9201,
      "Devil": 9202,
      "Dexter": 9203,
      "endure": 9204,
      "Gettin": 9205,
      "tots": 9206,
      "##nya": 9207,
      "##gets": 9208,
      "##ERO": 9209,
      "loljk": 9210,
      "##ocate": 9211,
      "male": 9212,
      "maison": 9213,
      "##aterdag": 9214,
      "##ertation": 9215,
      "Ate": 9216,
      "##ampa": 9217,
      "##urig": 9218,
      "foundation": 9219,
      "worlds": 9220,
      "despised": 9221,
      "Alright": 9222,
      "jeg": 9223,
      "##ictweet": 9224,
      "career": 9225,
      "Blu": 9226,
      "Blade": 9227,
      "##ESE": 9228,
      "babysitting": 9229,
      "Spend": 9230,
      "Spark": 9231,
      "Spiders": 9232,
      "helps": 9233,
      "helpen": 9234,
      "tells": 9235,
      "haircut": 9236,
      "runs": 9237,
      "HappyH": 9238,
      "Lovely": 9239,
      "Somebody": 9240,
      "Somewhere": 9241,
      "Finn": 9242,
      "Finals": 9243,
      "Goodnight": 9244,
      "trial": 9245,
      "##megen": 9246,
      "##bec": 9247,
      "##bean": 9248,
      "##becca": 9249,
      "lately": 9250,
      "Amaz": 9251,
      "Amanda": 9252,
      "Twerk": 9253,
      "Twilight": 9254,
      "couples": 9255,
      "##INGS": 9256,
      "##rency": 9257,
      "##actly": 9258,
      "##phy": 9259,
      "kidneys": 9260,
      "##peak": 9261,
      "##OUR": 9262,
      "##OUGH": 9263,
      "##OUNT": 9264,
      "##anns": 9265,
      "Forgot": 9266,
      "##myf": 9267,
      "##mylife": 9268,
      "interface": 9269,
      "interrupt": 9270,
      "diner": 9271,
      "dinning": 9272,
      "serial": 9273,
      "##ONEL": 9274,
      "##uffle": 9275,
      "lighter": 9276,
      "##ggg": 9277,
      "##ggie": 9278,
      "Isn": 9279,
      "Island": 9280,
      "Lets": 9281,
      "girlfriends": 9282,
      "Frustr": 9283,
      "Fruit": 9284,
      "Worked": 9285,
      "highly": 9286,
      "metro": 9287,
      "sinus": 9288,
      "sincere": 9289,
      "wordt": 9290,
      "commenc": 9291,
      "killer": 9292,
      "killme": 9293,
      "devil": 9294,
      "Peg": 9295,
      "alarms": 9296,
      "Unable": 9297,
      "basis": 9298,
      "clever": 9299,
      "hoping": 9300,
      "hopes": 9301,
      "##atted": 9302,
      "booked": 9303,
      "##ifa": 9304,
      "indoor": 9305,
      "practically": 9306,
      "wherever": 9307,
      "##ixon": 9308,
      "pretending": 9309,
      "Mean": 9310,
      "thrill": 9311,
      "##icially": 9312,
      "Exc": 9313,
      "Except": 9314,
      "Exhausted": 9315,
      "Express": 9316,
      "Exactly": 9317,
      "##atterson": 9318,
      "Everytime": 9319,
      "messy": 9320,
      "snowman": 9321,
      "Imma": 9322,
      "Imagine": 9323,
      "cutno": 9324,
      "##IST": 9325,
      "##sof": 9326,
      "##enched": 9327,
      "30am": 9328,
      "paint": 9329,
      "##ibb": 9330,
      "##otted": 9331,
      "recip": 9332,
      "##ungry": 9333,
      "freezer": 9334,
      "Britt": 9335,
      "Brought": 9336,
      "Brandon": 9337,
      "Mrctn615": 9338,
      "confr": 9339,
      "confession": 9340,
      "confirm": 9341,
      "sono": 9342,
      "##reaming": 9343,
      "discourag": 9344,
      "Guilty": 9345,
      "Manning": 9346,
      "standard": 9347,
      "LOCK": 9348,
      "##duce": 9349,
      "secondary": 9350,
      "priest": 9351,
      "##ITH": 9352,
      "##ITY": 9353,
      "##aws": 9354,
      "##awning": 9355,
      "visual": 9356,
      "##gnes": 9357,
      "##heads": 9358,
      "incredibly": 9359,
      "appreciated": 9360,
      "Officially": 9361,
      "essence": 9362,
      "humbled": 9363,
      "##formation": 9364,
      "hello": 9365,
      "newspap": 9366,
      "Absolutely": 9367,
      "Chew": 9368,
      "cherry": 9369,
      "##iiii": 9370,
      "##dington": 9371,
      "##123": 9372,
      "texts": 9373,
      "falls": 9374,
      "fallen": 9375,
      "polish": 9376,
      "policy": 9377,
      "##uzzy": 9378,
      "##ricks": 9379,
      "youngsters": 9380,
      "openly": 9381,
      "Scr": 9382,
      "Scor": 9383,
      "fille": 9384,
      "controlled": 9385,
      "controller": 9386,
      "fights": 9387,
      "##uking": 9388,
      "receiving": 9389,
      "surely": 9390,
      "1000": 9391,
      "Ughhhh": 9392,
      "YOUR": 9393,
      "calming": 9394,
      "##EET": 9395,
      "regulation": 9396,
      "peaceful": 9397,
      "Plum": 9398,
      "Plato": 9399,
      "Trust": 9400,
      "esteem": 9401,
      "establish": 9402,
      "straw": 9403,
      "##ussat": 9404,
      "##umbug": 9405,
      "##umblr": 9406,
      "decorated": 9407,
      "Close": 9408,
      "Club": 9409,
      "Newark": 9410,
      "esa": 9411,
      "pasta": 9412,
      "##ddd": 9413,
      "superior": 9414,
      "sweetheart": 9415,
      "Heard": 9416,
      "Tommy": 9417,
      "corn": 9418,
      "##onnie": 9419,
      "extreme": 9420,
      "legit": 9421,
      "##hhhhhh": 9422,
      "medals": 9423,
      "medical": 9424,
      "similar": 9425,
      "##load": 9426,
      "experiment": 9427,
      "profound": 9428,
      "Listen": 9429,
      "Yourself": 9430,
      "caf": 9431,
      "causes": 9432,
      "holds": 9433,
      "sexually": 9434,
      "sexual": 9435,
      "differently": 9436,
      "Afterwards": 9437,
      "NOTH": 9438,
      "bench": 9439,
      "camping": 9440,
      "campaign": 9441,
      "mouths": 9442,
      "finishing": 9443,
      "laughs": 9444,
      "Hero": 9445,
      "Sex": 9446,
      "Seattle": 9447,
      "pointed": 9448,
      "sarcastic": 9449,
      "touching": 9450,
      "##step": 9451,
      "artist": 9452,
      "disapproval": 9453,
      "##OOOOOO": 9454,
[...]
