{
  "version": "1.0",
  "truncation": null,
  "padding": null,
  "added_tokens": [
    {
      "id": 0,
      "content": "[PAD]",
      "single_word": false,
      "lstrip": false,
      "rstrip": false,
      "normalized": false,
      "special": true
    },
    {
      "id": 1,
      "content": "[UNK]",
      "single_word": false,
      "lstrip": false,
      "rstrip": false,
      "normalized": false,
      "special": true
    },
    {
      "id": 2,
      "content": "[CLS]",
      "single_word": false,
      "lstrip": false,
      "rstrip": false,
      "normalized": false,
      "special": true
    },
    {
      "id": 3,
      "content": "[SEP]",
      "single_word": false,
      "lstrip": false,
      "rstrip": false,
      "normalized": false,
      "special": true
    },
    {
      "id": 4,
      "content": "[MASK]",
      "single_word": false,
      "lstrip": false,
      "rstrip": false,
      "normalized": false,
      "special": true
    }
  ],
  "normalizer": null,
  "pre_tokenizer": {
    "type": "Whitespace"
  },
  "post_processor": {
    "type": "TemplateProcessing",
    "single": [
      {
        "Sequence": {
          "id": "A",
          "type_id": 0
        }
      }
    ],
    "pair": [
      {
        "Sequence": {
          "id": "A",
          "type_id": 0
        }
      },
      {
        "SpecialToken": {
          "id": "[SEP]",
          "type_id": 0
        }
      },
      {
        "Sequence": {
          "id": "B",
          "type_id": 1
        }
      }
    ],
    "special_tokens": {
      "[SEP]": {
        "id": "[SEP]",
        "ids": [
          3
        ],
        "tokens": [
          "[SEP]"
        ]
      }
    }
  },
  "decoder": null,
  "model": {
    "type": "WordPiece",
    "unk_token": "[UNK]",
    "continuing_subword_prefix": "##",
    "max_input_chars_per_word": 100,
    "vocab": {
      "[PAD]": 0,
      "[UNK]": 1,
      "[CLS]": 2,
      "[SEP]": 3,
      "[MASK]": 4,
      "!": 5,
      "\"": 6,
      "#": 7,
      "$": 8,
      "%": 9,
      "&": 10,
      "'": 11,
      "(": 12,
      ")": 13,
      "*": 14,
      "+": 15,
      ",": 16,
      "-": 17,
      ".": 18,
      "/": 19,
      "0": 20,
      "1": 21,
      "2": 22,
      "3": 23,
      "4": 24,
      "5": 25,
      "6": 26,
      "7": 27,
      "8": 28,
      "9": 29,
      ":": 30,
      ";": 31,
      "<": 32,
      "=": 33,
      ">": 34,
      "?": 35,
      "A": 36,
      "B": 37,
      "C": 38,
      "D": 39,
      "E": 40,
      "F": 41,
      "G": 42,
      "H": 43,
      "I": 44,
      "J": 45,
      "K": 46,
      "L": 47,
      "M": 48,
      "N": 49,
      "O": 50,
      "P": 51,
      "Q": 52,
      "R": 53,
      "S": 54,
      "T": 55,
      "U": 56,
      "V": 57,
      "W": 58,
      "X": 59,
      "Y": 60,
      "Z": 61,
      "[": 62,
      "]": 63,
      "_": 64,
      "`": 65,
      "a": 66,
      "b": 67,
      "c": 68,
      "d": 69,
      "e": 70,
      "f": 71,
      "g": 72,
      "h": 73,
      "i": 74,
      "j": 75,
      "k": 76,
      "l": 77,
      "m": 78,
      "n": 79,
      "o": 80,
      "p": 81,
      "q": 82,
      "r": 83,
      "s": 84,
      "t": 85,
      "u": 86,
      "v": 87,
      "w": 88,
      "x": 89,
      "y": 90,
      "z": 91,
      "~": 92,
      "": 93,
      "£": 94,
      "«": 95,
      "°": 96,
      "»": 97,
      "À": 98,
      "Â": 99,
      "Æ": 100,
      "Ç": 101,
      "È": 102,
      "É": 103,
      "Ê": 104,
      "Î": 105,
      "Ï": 106,
      "Ô": 107,
      "Ù": 108,
      "Û": 109,
      "à": 110,
      "á": 111,
      "â": 112,
      "ã": 113,
      "ä": 114,
      "æ": 115,
      "ç": 116,
      "è": 117,
      "é": 118,
      "ê": 119,
      "ë": 120,
      "î": 121,
      "ï": 122,
      "ñ": 123,
      "ò": 124,
      "ô": 125,
      "ö": 126,
      "ù": 127,
      "û": 128,
      "ü": 129,
      "Œ": 130,
      "œ": 131,
      "ί": 132,
      "α": 133,
      "γ": 134,
      "ε": 135,
      "ν": 136,
      "ο": 137,
      "τ": 138,
      "ϊ": 139,
      "А": 140,
      "Г": 141,
      "Н": 142,
      "–": 143,
      "—": 144,
      "‘": 145,
      "’": 146,
      "“": 147,
      "”": 148,
      "−": 149,
      "##e": 150,
      "##s": 151,
      "##o": 152,
      "##u": 153,
      "##v": 154,
      "##n": 155,
      "##i": 156,
      "##r": 157,
      "##l": 158,
      "##d": 159,
      "##g": 160,
      "##m": 161,
      "##a": 162,
      "##t": 163,
      "##é": 164,
      "##f": 165,
      "##y": 166,
      "##_": 167,
      "##c": 168,
      "##k": 169,
      "##x": 170,
      "##p": 171,
      "##h": 172,
      "##û": 173,
      "##O": 174,
      "##H": 175,
      "##E": 176,
      "##M": 177,
      "##I": 178,
      "##A": 179,
      "##N": 180,
      "##b": 181,
      "##z": 182,
      "##w": 183,
      "##q": 184,
      "##T": 185,
      "##R": 186,
      "##ï": 187,
      "##Q": 188,
      "##U": 189,
      "##P": 190,
      "##G": 191,
      "##à": 192,
      "##[": 193,
      "##â": 194,
      "##j": 195,
      "##è": 196,
      "##L": 197,
      "##D": 198,
      "##5": 199,
      "##0": 200,
      "##6": 201,
      "##2": 202,
      "##8": 203,
      "##î": 204,
      "##F": 205,
      "##V": 206,
      "##É": 207,
      "##,": 208,
      "##C": 209,
      "##W": 210,
      "##S": 211,
      "##ô": 212,
      "##.": 213,
      "##»": 214,
      "##Y": 215,
      "##ç": 216,
      "##\"": 217,
      "##)": 218,
      "##4": 219,
      "##ê": 220,
      "##B": 221,
      "##X": 222,
      "##K": 223,
      "##È": 224,
      "##7": 225,
      "##ã": 226,
      "##ñ": 227,
      "##1": 228,
      "##3": 229,
      "##ë": 230,
      "##'": 231,
      "##ö": 232,
      "##—": 233,
      "##œ": 234,
      "##Œ": 235,
      "##!": 236,
      "##*": 237,
      "##Z": 238,
      "##9": 239,
      "##J": 240,
      "##’": 241,
      "##-": 242,
      "##]": 243,
      "##ä": 244,
      "##Î": 245,
      "##−": 246,
      "##?": 247,
      "##;": 248,
      "##Ù": 249,
      "##”": 250,
      "##:": 251,
      "##«": 252,
      "##~": 253,
      "##>": 254,
      "##Ê": 255,
      "##(": 256,
      "##Ô": 257,
      "##á": 258,
      "##‘": 259,
      "##“": 260,
      "##æ": 261,
      "##Ç": 262,
      "##ü": 263,
      "##Æ": 264,
      "##ù": 265,
      "##–": 266,
      "##ò": 267,
      "##/": 268,
      "##&": 269,
      "##Ï": 270,
      "##τ": 271,
      "##ο": 272,
      "##ϊ": 273,
      "##Û": 274,
      "##ν": 275,
      "##α": 276,
      "##γ": 277,
      "##ε": 278,
      "##ί": 279,
      "##Г": 280,
      "##Н": 281,
      "##er": 282,
      "##ou": 283,
      "##en": 284,
      "##es": 285,
      "##ai": 286,
      "th": 287,
      "##on": 288,
      "##an": 289,
      "##re": 290,
      "##in": 291,
      "the": 292,
      "##is": 293,
      "##le": 294,
      "de": 295,
      "##ar": 296,
      "##it": 297,
      "##at": 298,
      "##ed": 299,
      "##as": 300,
      "##ent": 301,
      "##or": 302,
      "qu": 303,
      "##ait": 304,
      "##om": 305,
      "##ur": 306,
      "##nd": 307,
      "to": 308,
      "##ing": 309,
      "##ll": 310,
      "of": 311,
      "le": 312,
      "##ut": 313,
      "##ne": 314,
      "la": 315,
      "in": 316,
      "##ous": 317,
      "##ch": 318,
      "##us": 319,
      "##et": 320,
      "##el": 321,
      "and": 322,
      "##our": 323,
      "en": 324,
      "##ve": 325,
      "##ir": 326,
      "##te": 327,
      "##ce": 328,
      "et": 329,
      "##ad": 330,
      "##ot": 331,
      "##me": 332,
      "##ant": 333,
      "##ais": 334,
      "##he": 335,
      "##ri": 336,
      "re": 337,
      "se": 338,
      "il": 339,
      "##st": 340,
      "##al": 341,
      "he": 342,
      "##ro": 343,
      "##il": 344,
      "##ion": 345,
      "##qu": 346,
      "un": 347,
      "wh": 348,
      "be": 349,
      "##ie": 350,
      "was": 351,
      "##se": 352,
      "que": 353,
      "ne": 354,
      "##and": 355,
      "##ment": 356,
      "on": 357,
      "ét": 358,
      "##ow": 359,
      "les": 360,
      "me": 361,
      "##ver": 362,
      "##im": 363,
      "pas": 364,
      "##ig": 365,
      "##ter": 366,
      "##ag": 367,
      "that": 368,
      "##ere": 369,
      "--": 370,
      "##ain": 371,
      "you": 372,
      "je": 373,
      "##id": 374,
      "it": 375,
      "##ith": 376,
      "for": 377,
      "com": 378,
      "##ans": 379,
      "##ien": 380,
      "##out": 381,
      "##ay": 382,
      "##ld": 383,
      "##ux": 384,
      "par": 385,
      "##end": 386,
      "his": 387,
      "con": 388,
      "ch": 389,
      "av": 390,
      "##lle": 391,
      "as": 392,
      "pl": 393,
      "at": 394,
      "une": 395,
      "with": 396,
      "not": 397,
      "##res": 398,
      "des": 399,
      "vous": 400,
      "##ab": 401,
      "##ui": 402,
      "##ly": 403,
      "an": 404,
      "##am": 405,
      "##ap": 406,
      "##ac": 407,
      "##ard": 408,
      "had": 409,
      "##os": 410,
      "##ul": 411,
      "mo": 412,
      "qui": 413,
      "est": 414,
      ".\"": 415,
      "##ol": 416,
      "##ill": 417,
      "ce": 418,
      "st": 419,
      "tr": 420,
      "##ave": 421,
      "is": 422,
      "her": 423,
      "##ic": 424,
      "pr": 425,
      "du": 426,
      "su": 427,
      "##ht": 428,
      "sa": 429,
      "##ould": 430,
      "##mp": 431,
      "him": 432,
      "The": 433,
      "##ure": 434,
      "##tre": 435,
      "mon": 436,
      "##th": 437,
      "était": 438,
      "ex": 439,
      "dans": 440,
      "so": 441,
      "son": 442,
      "##ff": 443,
      "pour": 444,
      "##au": 445,
      "##aient": 446,
      "my": 447,
      "##ers": 448,
      "sur": 449,
      "au": 450,
      "elle": 451,
      "sh": 452,
      "##pp": 453,
      "fr": 454,
      "##aid": 455,
      "##ée": 456,
      "dé": 457,
      "##ess": 458,
      "all": 459,
      "Il": 460,
      "##ct": 461,
      "ar": 462,
      "##ort": 463,
      "##que": 464,
      "##ire": 465,
      "##est": 466,
      "said": 467,
      "##all": 468,
      "ré": 469,
      "Th": 470,
      "have": 471,
      "lui": 472,
      "##ich": 473,
      "##ons": 474,
      ",\"": 475,
      "##ond": 476,
      "dit": 477,
      "##oo": 478,
      "vo": 479,
      "she": 480,
      "##ak": 481,
      "##ge": 482,
      "##ation": 483,
      "plus": 484,
      "ave": 485,
      "we": 486,
      "this": 487,
      "dis": 488,
      "don": 489,
      "fe": 490,
      "##ue": 491,
      "avait": 492,
      "##pr": 493,
      "Je": 494,
      "##li": 495,
      "li": 496,
      "##ite": 497,
      "which": 498,
      "##ille": 499,
      "do": 500,
      "##pe": 501,
      "pe": 502,
      "##ine": 503,
      "pro": 504,
      "##ore": 505,
      "##ight": 506,
      "ab": 507,
      "?\"": 508,
      "nous": 509,
      "am": 510,
      "##si": 511,
      "##age": 512,
      "##ette": 513,
      "man": 514,
      "gr": 515,
      "##ong": 516,
      "no": 517,
      "##ère": 518,
      "##able": 519,
      "by": 520,
      "tout": 521,
      "##av": 522,
      "al": 523,
      "##oug": 524,
      "##mb": 525,
      "##ier": 526,
      "##és": 527,
      "##tr": 528,
      "##de": 529,
      "avec": 530,
      "##un": 531,
      "si": 532,
      "##her": 533,
      "##ouv": 534,
      "but": 535,
      "up": 536,
      "##sel": 537,
      "app": 538,
      "He": 539,
      "##ame": 540,
      "were": 541,
      "##ust": 542,
      "from": 543,
      "!\"": 544,
      "po": 545,
      "##uis": 546,
      "br": 547,
      "##ence": 548,
      "##ord": 549,
      "bien": 550,
      "##aire": 551,
      "##ace": 552,
      "who": 553,
      "##ert": 554,
      "##ile": 555,
      "mais": 556,
      "##ast": 557,
      "##ck": 558,
      "or": 559,
      "they": 560,
      "Le": 561,
      "##..": 562,
      "##cc": 563,
      "one": 564,
      "##ven": 565,
      "te": 566,
      "##elle": 567,
      "Wh": 568,
      "would": 569,
      "##aut": 570,
      "##ble": 571,
      "##art": 572,
      "##ance": 573,
      "cette": 574,
      "##ind": 575,
      "ser": 576,
      "##self": 577,
      "It": 578,
      "##are": 579,
      "rep": 580,
      "som": 581,
      "ro": 582,
      "ag": 583,
      "will": 584,
      "##ès": 585,
      "##ist": 586,
      "ou": 587,
      "##ors": 588,
      "##urs": 589,
      "ses": 590,
      "éc": 591,
      "rép": 592,
      "##ér": 593,
      "##mes": 594,
      "##ide": 595,
      "##ois": 596,
      "see": 597,
      "##agn": 598,
      "##ions": 599,
      "##ach": 600,
      "##ound": 601,
      "pass": 602,
      "##ke": 603,
      "are": 604,
      "##oir": 605,
      "##int": 606,
      "cou": 607,
      "int": 608,
      "mar": 609,
      "##use": 610,
      "co": 611,
      "##ang": 612,
      "them": 613,
      "La": 614,
      "comme": 615,
      "##ate": 616,
      "aut": 617,
      "cl": 618,
      "out": 619,
      "Ar": 620,
      "lo": 621,
      "comp": 622,
      "your": 623,
      "##ood": 624,
      "##if": 625,
      "##ked": 626,
      "##iss": 627,
      "##ade": 628,
      "go": 629,
      "there": 630,
      "##ive": 631,
      "##ens": 632,
      "ai": 633,
      "ad": 634,
      "Mais": 635,
      "But": 636,
      "##itt": 637,
      "ret": 638,
      "##les": 639,
      "##ci": 640,
      "moi": 641,
      "##ish": 642,
      "part": 643,
      "long": 644,
      "##che": 645,
      "##onn": 646,
      "##ieur": 647,
      "##iv": 648,
      "hom": 649,
      "##um": 650,
      "ma": 651,
      "per": 652,
      "##tend": 653,
      "##ours": 654,
      "##ress": 655,
      "quel": 656,
      "##ery": 657,
      "been": 658,
      "dem": 659,
      "Et": 660,
      "could": 661,
      "ob": 662,
      "dev": 663,
      "And": 664,
      "cr": 665,
      "what": 666,
      "reg": 667,
      "imp": 668,
      "##ep": 669,
      "tou": 670,
      "es": 671,
      "##urn": 672,
      "##enc": 673,
      "che": 674,
      "##ose": 675,
      "##ise": 676,
      "res": 677,
      "car": 678,
      "##ix": 679,
      "##ass": 680,
      "##op": 681,
      "##anc": 682,
      "fait": 683,
      "pre": 684,
      "their": 685,
      "kn": 686,
      "if": 687,
      "##ont": 688,
      "##app": 689,
      "can": 690,
      "bl": 691,
      "##ack": 692,
      "##ake": 693,
      "cri": 694,
      "us": 695,
      "##ign": 696,
      "tw": 697,
      "rem": 698,
      "##hing": 699,
      "more": 700,
      "##ice": 701,
      "répond": 702,
      "Qu": 703,
      "deux": 704,
      "Jul": 705,
      "##reat": 706,
      "ces": 707,
      "##ays": 708,
      "Julien": 709,
      "##uit": 710,
      "sans": 711,
      "##ft": 712,
      "##une": 713,
      "cont": 714,
      "##ême": 715,
      "##ité": 716,
      "dou": 717,
      "then": 718,
      "##oment": 719,
      "##onne": 720,
      "##one": 721,
      "moment": 722,
      "...": 723,
      "Ch": 724,
      "acc": 725,
      "##oy": 726,
      "##od": 727,
      "ils": 728,
      "know": 729,
      "être": 730,
      "##ese": 731,
      "when": 732,
      "grand": 733,
      "##ôt": 734,
      "##ud": 735,
      "sp": 736,
      "##ough": 737,
      "fut": 738,
      "##ime": 739,
      "main": 740,
      "##ale": 741,
      "##ez": 742,
      "##ought": 743,
      "##ins": 744,
      "##air": 745,
      "You": 746,
      "enc": 747,
      "##med": 748,
      "did": 749,
      "off": 750,
      "exp": 751,
      "cour": 752,
      "very": 753,
      "again": 754,
      "has": 755,
      "We": 756,
      "sou": 757,
      "##eux": 758,
      "fl": 759,
      "ter": 760,
      "##tagn": 761,
      "some": 762,
      "##ures": 763,
      "En": 764,
      "Elle": 765,
      "##mo": 766,
      "ever": 767,
      "let": 768,
      "##aine": 769,
      "##aiss": 770,
      "regard": 771,
      "cro": 772,
      "cap": 773,
      "##ques": 774,
      "même": 775,
      "rec": 776,
      "On": 777,
      "too": 778,
      "##ante": 779,
      "Artagn": 780,
      "Artagnan": 781,
      "tro": 782,
      "##ner": 783,
      "She": 784,
      "into": 785,
      "##up": 786,
      "dire": 787,
      "fo": 788,
      "hand": 789,
      "faire": 790,
      "demand": 791,
      "like": 792,
      "##ela": 793,
      "Ne": 794,
      "arri": 795,
      "homme": 796,
      "Mr": 797,
      "##ieu": 798,
      "any": 799,
      "##led": 800,
      "##otre": 801,
      "##ity": 802,
      "##own": 803,
      "##ies": 804,
      "af": 805,
      "##ées": 806,
      "loo": 807,
      "##ely": 808,
      "##orte": 809,
      "##endant": 810,
      "time": 811,
      "##ieux": 812,
      "##ved": 813,
      "over": 814,
      "donc": 815,
      "What": 816,
      "##thos": 817,
      "##ady": 818,
      "point": 819,
      "our": 820,
      "only": 821,
      "encore": 822,
      "comm": 823,
      "litt": 824,
      "##fore": 825,
      "##ière": 826,
      "gl": 827,
      "##vers": 828,
      "di": 829,
      "tu": 830,
      "##mps": 831,
      "str": 832,
      "##ath": 833,
      "##tes": 834,
      "##rent": 835,
      "##ches": 836,
      "air": 837,
      "wor": 838,
      "must": 839,
      "himself": 840,
      "little": 841,
      "than": 842,
      "two": 843,
      "peu": 844,
      "##og": 845,
      "vou": 846,
      "##ather": 847,
      "pos": 848,
      "##oi": 849,
      "##ated": 850,
      "inst": 851,
      "made": 852,
      "enf": 853,
      "ven": 854,
      "now": 855,
      "day": 856,
      "là": 857,
      "##ther": 858,
      "répondit": 859,
      "mot": 860,
      "##wn": 861,
      "should": 862,
      "jour": 863,
      "##uch": 864,
      "##act": 865,
      "##per": 866,
      "##lles": 867,
      "eff": 868,
      "about": 869,
      "##ied": 870,
      "##ink": 871,
      "sec": 872,
      "##endre": 873,
      "##aux": 874,
      "cons": 875,
      "im": 876,
      "autre": 877,
      "##bre": 878,
      "##én": 879,
      "mal": 880,
      "ey": 881,
      "pré": 882,
      "##ût": 883,
      "##ect": 884,
      "pet": 885,
      "##ten": 886,
      "aux": 887,
      "emp": 888,
      "##ug": 889,
      "##ree": 890,
      "##ps": 891,
      "mons": 892,
      "##yr": 893,
      "sent": 894,
      "##lied": 895,
      "monsieur": 896,
      "fort": 897,
      "fir": 898,
      "upon": 899,
      "thought": 900,
      "aff": 901,
      "leur": 902,
      "these": 903,
      "down": 904,
      "say": 905,
      "##ered": 906,
      "aus": 907,
      "even": 908,
      "In": 909,
      "ind": 910,
      "fri": 911,
      "Vous": 912,
      "puis": 913,
      "und": 914,
      "##tain": 915,
      "sc": 916,
      "##pt": 917,
      "went": 918,
      "##cher": 919,
      "été": 920,
      "##près": 921,
      "##ary": 922,
      "##ants": 923,
      "où": 924,
      "##min": 925,
      "##ra": 926,
      "##ry": 927,
      "##ail": 928,
      "écri": 929,
      "Ce": 930,
      "replied": 931,
      "cor": 932,
      "ép": 933,
      "rien": 934,
      "Com": 935,
      "##ient": 936,
      "mat": 937,
      "spe": 938,
      "##eur": 939,
      "##ret": 940,
      "att": 941,
      "##cl": 942,
      "good": 943,
      "fem": 944,
      "before": 945,
      "Les": 946,
      "##ars": 947,
      "##ule": 948,
      "cela": 949,
      "##ête": 950,
      "Par": 951,
      "aw": 952,
      "back": 953,
      "min": 954,
      "how": 955,
      "They": 956,
      "##ments": 957,
      "##ique": 958,
      "op": 959,
      "This": 960,
      "every": 961,
      "great": 962,
      "At": 963,
      "after": 964,
      "##ré": 965,
      "##ouve": 966,
      "votre": 967,
      "Oh": 968,
      "ass": 969,
      "aur": 970,
      "##ng": 971,
      "Penc": 972,
      "Pencro": 973,
      "##èrent": 974,
      "pers": 975,
      "pouv": 976,
      "##ious": 977,
      "##llow": 978,
      "##ole": 979,
      "char": 980,
      "##mbl": 981,
      "other": 982,
      "##ared": 983,
      "ple": 984,
      "entend": 985,
      "without": 986,
      "vis": 987,
      "shall": 988,
      "##ened": 989,
      "pres": 990,
      "contin": 991,
      "Ah": 992,
      "étaient": 993,
      "##adame": 994,
      "##amais": 995,
      "##vre": 996,
      "bo": 997,
      "##asse": 998,
      "##ouse": 999,
      ",'": 1000,
      "tous": 1001,
      "come": 1002,
      "rest": 1003,
      "end": 1004,
      "parl": 1005,
      "suis": 1006,
      "Mar": 1007,
      "sil": 1008,
      "never": 1009,
      "##ally": 1010,
      "avoir": 1011,
      "##éri": 1012,
      "##ward": 1013,
      "##aî": 1014,
      "##be": 1015,
      "bet": 1016,
      "##ern": 1017,
      "##orm": 1018,
      "##sible": 1019,
      "heure": 1020,
      "cal": 1021,
      "ans": 1022,
      "##cle": 1023,
      "##ult": 1024,
      "fit": 1025,
      "under": 1026,
      "mes": 1027,
      "##ings": 1028,
      "##ét": 1029,
      "##ude": 1030,
      "##ince": 1031,
      "No": 1032,
      "##ett": 1033,
      "eyes": 1034,
      "first": 1035,
      "nothing": 1036,
      "voy": 1037,
      "cert": 1038,
      "jus": 1039,
      "sous": 1040,
      "fer": 1041,
      "##red": 1042,
      "well": 1043,
      "aussi": 1044,
      "bec": 1045,
      "its": 1046,
      "##prit": 1047,
      "beg": 1048,
      "temps": 1049,
      "inter": 1050,
      "ve": 1051,
      "think": 1052,
      "quelque": 1053,
      "vie": 1054,
      "##bert": 1055,
      "##ran": 1056,
      "came": 1057,
      "##omp": 1058,
      "Then": 1059,
      "There": 1060,
      "Ma": 1061,
      "##we": 1062,
      "sort": 1063,
      "##abri": 1064,
      "yeux": 1065,
      "##king": 1066,
      "##ock": 1067,
      "##urent": 1068,
      "prof": 1069,
      "##ton": 1070,
      "##ght": 1071,
      "inc": 1072,
      "fin": 1073,
      "##iz": 1074,
      "last": 1075,
      "##êt": 1076,
      "mor": 1077,
      "quand": 1078,
      "hor": 1079,
      "##ater": 1080,
      "dés": 1081,
      "peut": 1082,
      "ord": 1083,
      "word": 1084,
      "place": 1085,
      "##ning": 1086,
      "##ness": 1087,
      "cried": 1088,
      "##rait": 1089,
      "pens": 1090,
      "jamais": 1091,
      "dep": 1092,
      "fois": 1093,
      "avez": 1094,
      "ten": 1095,
      "put": 1096,
      "continu": 1097,
      "mer": 1098,
      "dist": 1099,
      "turn": 1100,
      "head": 1101,
      "##éd": 1102,
      "##pect": 1103,
      ".'": 1104,
      "Athos": 1105,
      "still": 1106,
      "coup": 1107,
      "col": 1108,
      "just": 1109,
      "femme": 1110,
      "ho": 1111,
      "asked": 1112,
      "Un": 1113,
      "##ienne": 1114,
      "trouv": 1115,
      "ins": 1116,
      "Al": 1117,
      "##ser": 1118,
      "way": 1119,
      "dont": 1120,
      "young": 1121,
      "Fabri": 1122,
      "bon": 1123,
      "much": 1124,
      "wom": 1125,
      "friend": 1126,
      "##ves": 1127,
      "##ful": 1128,
      "trou": 1129,
      "conf": 1130,
      "face": 1131,
      "vers": 1132,
      "room": 1133,
      "entre": 1134,
      "##ition": 1135,
      "##omb": 1136,
      "##sez": 1137,
      "##par": 1138,
      "gu": 1139,
      "such": 1140,
      "##ents": 1141,
      "##other": 1142,
      "##jours": 1143,
      "ref": 1144,
      "men": 1145,
      "toute": 1146,
      "heures": 1147,
      "pu": 1148,
      "cham": 1149,
      "jeune": 1150,
      "voul": 1151,
      "##onse": 1152,
      "entr": 1153,
      "arriv": 1154,
      "faut": 1155,
      "voir": 1156,
      "supp": 1157,
      "##ger": 1158,
      "##ks": 1159,
      "fais": 1160,
      "trois": 1161,
      "après": 1162,
      "##ase": 1163,
      "##insi": 1164,
      "Nous": 1165,
      "ca": 1166,
      "##oth": 1167,
      "Oui": 1168,
      "##mer": 1169,
      "##ations": 1170,
      "##ild": 1171,
      "Yes": 1172,
      "toujours": 1173,
      "prem": 1174,
      "pri": 1175,
      "attend": 1176,
      "##fe": 1177,
      "here": 1178,
      "##ente": 1179,
      "appe": 1180,
      "##rit": 1181,
      "##row": 1182,
      "sont": 1183,
      "away": 1184,
      "make": 1185,
      "##oun": 1186,
      "##aking": 1187,
      "bel": 1188,
      "porte": 1189,
      "sav": 1190,
      "##arr": 1191,
      "##ts": 1192,
      "##thing": 1193,
      "##ty": 1194,
      "quelques": 1195,
      "port": 1196,
      "Cyr": 1197,
      "left": 1198,
      "Cyrus": 1199,
      "occ": 1200,
      "That": 1201,
      "serv": 1202,
      "Mme": 1203,
      "took": 1204,
      "##rai": 1205,
      "##ull": 1206,
      "écria": 1207,
      "ac": 1208,
      "cher": 1209,
      "tour": 1210,
      "saw": 1211,
      "##iers": 1212,
      "rou": 1213,
      "##igne": 1214,
      "inf": 1215,
      ".»": 1216,
      "lar": 1217,
      "nom": 1218,
      "##ature": 1219,
      "cet": 1220,
      "where": 1221,
      "arr": 1222,
      "return": 1223,
      "going": 1224,
      "Mons": 1225,
      "fall": 1226,
      "##ros": 1227,
      "met": 1228,
      "hab": 1229,
      "##land": 1230,
      "petit": 1231,
      "night": 1232,
      "thr": 1233,
      "##ted": 1234,
      "As": 1235,
      "take": 1236,
      "mur": 1237,
      "##oire": 1238,
      "##lic": 1239,
      "##men": 1240,
      "capit": 1241,
      "instant": 1242,
      "alors": 1243,
      "sm": 1244,
      "sal": 1245,
      "##iè": 1246,
      "##du": 1247,
      "Monsieur": 1248,
      "pris": 1249,
      "##gu": 1250,
      "##orter": 1251,
      "bri": 1252,
      "may": 1253,
      "Mil": 1254,
      "##ction": 1255,
      "rais": 1256,
      "arm": 1257,
      "minut": 1258,
      "quest": 1259,
      "old": 1260,
      "sui": 1261,
      "emb": 1262,
      "moins": 1263,
      "##ished": 1264,
      "avaient": 1265,
      "Fr": 1266,
      "three": 1267,
      "##igh": 1268,
      "diff": 1269,
      "déc": 1270,
      "ph": 1271,
      "Char": 1272,
      "laiss": 1273,
      "found": 1274,
      "gent": 1275,
      "prom": 1276,
      "tête": 1277,
      "##oud": 1278,
      "jusqu": 1279,
      "rev": 1280,
      "notre": 1281,
      "voix": 1282,
      "certain": 1283,
      "##vent": 1284,
      "might": 1285,
      "env": 1286,
      "##lé": 1287,
      "chose": 1288,
      "##ane": 1289,
      "once": 1290,
      "tre": 1291,
      "##iez": 1292,
      "seemed": 1293,
      "##ome": 1294,
      "##ardin": 1295,
      "six": 1296,
      "##man": 1297,
      "##ip": 1298,
      "Eh": 1299,
      "four": 1300,
      "soon": 1301,
      "##ilus": 1302,
      "##ages": 1303,
      "eng": 1304,
      "answ": 1305,
      "##und": 1306,
      "My": 1307,
      "eût": 1308,
      "trop": 1309,
      "prop": 1310,
      "##autilus": 1311,
      "sour": 1312,
      "ainsi": 1313,
      "mis": 1314,
      "##ained": 1315,
      "tri": 1316,
      "conn": 1317,
      "seule": 1318,
      "sl": 1319,
      "Well": 1320,
      "##nes": 1321,
      "love": 1322,
      "woman": 1323,
      "tell": 1324,
      "##ât": 1325,
      "##ily": 1326,
      "door": 1327,
      "beau": 1328,
      "happ": 1329,
      "soir": 1330,
      "déj": 1331,
      "De": 1332,
      "##uss": 1333,
      "Madame": 1334,
      "sembl": 1335,
      "wind": 1336,
      "Gr": 1337,
      "bou": 1338,
      "##ian": 1339,
      "##aster": 1340,
      "heart": 1341,
      "demanda": 1342,
      "mil": 1343,
      "id": 1344,
      "##ange": 1345,
      "ste": 1346,
      "heard": 1347,
      "avant": 1348,
      "devant": 1349,
      "##aud": 1350,
      "avais": 1351,
      "##esse": 1352,
      "follow": 1353,
      "##aque": 1354,
      "appro": 1355,
      "donn": 1356,
      "desc": 1357,
      "Ét": 1358,
      "gard": 1359,
      "##tered": 1360,
      "far": 1361,
      "maî": 1362,
      "chez": 1363,
      "through": 1364,
      "dép": 1365,
      "ni": 1366,
      "capitaine": 1367,
      "Milady": 1368,
      "haut": 1369,
      "##aving": 1370,
      "##oup": 1371,
      "##éc": 1372,
      "life": 1373,
      "If": 1374,
      "Non": 1375,
      "Sir": 1376,
      "##io": 1377,
      "esp": 1378,
      "cur": 1379,
      "##imp": 1380,
      "non": 1381,
      "##eld": 1382,
      "cent": 1383,
      "##tenant": 1384,
      "##elt": 1385,
      "##ets": 1386,
      "très": 1387,
      "silence": 1388,
      "fille": 1389,
      "How": 1390,
      "sais": 1391,
      "##hed": 1392,
      "pied": 1393,
      "hal": 1394,
      "bre": 1395,
      "ye": 1396,
      "##inc": 1397,
      "##ma": 1398,
      "##ilet": 1399,
      "autres": 1400,
      "##anger": 1401,
      "##pris": 1402,
      "sub": 1403,
      "dr": 1404,
      "most": 1405,
      "want": 1406,
      "##gn": 1407,
      "##ched": 1408,
      "mort": 1409,
      "##atre": 1410,
      "cin": 1411,
      "fam": 1412,
      "##illes": 1413,
      "table": 1414,
      "toutes": 1415,
      "##ib": 1416,
      "contre": 1417,
      "Her": 1418,
      "being": 1419,
      "##aint": 1420,
      "Au": 1421,
      "habit": 1422,
      "light": 1423,
      "looked": 1424,
      "##çon": 1425,
      "bar": 1426,
      "dro": 1427,
      "ent": 1428,
      "prés": 1429,
      "Nemo": 1430,
      "rel": 1431,
      "##ways": 1432,
      "kne": 1433,
      "nuit": 1434,
      "house": 1435,
      "vol": 1436,
      "add": 1437,
      "those": 1438,
      "disc": 1439,
      "##az": 1440,
      "abs": 1441,
      "bes": 1442,
      "seul": 1443,
      "coun": 1444,
      "question": 1445,
      "##ues": 1446,
      "##ene": 1447,
      "same": 1448,
      "Pr": 1449,
      "##aps": 1450,
      "obser": 1451,
      "felt": 1452,
      "Dieu": 1453,
      "##rew": 1454,
      "Ils": 1455,
      "eut": 1456,
      "Une": 1457,
      "pouvait": 1458,
      "sir": 1459,
      "suff": 1460,
      "give": 1461,
      "own": 1462,
      "##dd": 1463,
      "sat": 1464,
      "All": 1465,
      "##vres": 1466,
      "dess": 1467,
      "exc": 1468,
      "terre": 1469,
      "##ogg": 1470,
      "Si": 1471,
      "get": 1472,
      "voice": 1473,
      "gen": 1474,
      "tra": 1475,
      "leurs": 1476,
      "few": 1477,
      "hands": 1478,
      "reprit": 1479,
      "St": 1480,
      "red": 1481,
      "right": 1482,
      "Fogg": 1483,
      "jours": 1484,
      "ici": 1485,
      "##uck": 1486,
      "##less": 1487,
      "##ident": 1488,
      "év": 1489,
      "##ils": 1490,
      "Paris": 1491,
      "sign": 1492,
      "##ott": 1493,
      "##ick": 1494,
      "Pencroff": 1495,
      "Pencroft": 1496,
      "aim": 1497,
      "Conse": 1498,
      "pendant": 1499,
      "##ever": 1500,
      "find": 1501,
      "##ilà": 1502,
      "myself": 1503,
      "chambre": 1504,
      "When": 1505,
      "began": 1506,
      "suiv": 1507,
      "##ether": 1508,
      "Puis": 1509,
      "##eth": 1510,
      "ouv": 1511,
      "minutes": 1512,
      "ir": 1513,
      "##ense": 1514,
      "êtes": 1515,
      "second": 1516,
      "His": 1517,
      "simp": 1518,
      "ég": 1519,
      "Alors": 1520,
      "sol": 1521,
      "##ég": 1522,
      "tomb": 1523,
      "Étienne": 1524,
      "jo": 1525,
      "##ark": 1526,
      "bat": 1527,
      "##aill": 1528,
      "Conseil": 1529,
      "herself": 1530,
      "Bon": 1531,
      "Pour": 1532,
      "##ention": 1533,
      "auc": 1534,
      "Charles": 1535,
      "##oc": 1536,
      "bas": 1537,
      "quatre": 1538,
      "against": 1539,
      "tal": 1540,
      "##ict": 1541,
      "##irent": 1542,
      "Ned": 1543,
      "##tres": 1544,
      "pol": 1545,
      "Por": 1546,
      "côt": 1547,
      "##ats": 1548,
      "quite": 1549,
      "nouve": 1550,
      "##ible": 1551,
      "éch": 1552,
      "##ject": 1553,
      "child": 1554,
      "somet": 1555,
      "##wards": 1556,
      "Porthos": 1557,
      "##ides": 1558,
      "gentle": 1559,
      "##quer": 1560,
      "conv": 1561,
      "monde": 1562,
      "##ey": 1563,
      "rend": 1564,
      "##ville": 1565,
      "##amp": 1566,
      "fro": 1567,
      "##iens": 1568,
      "serait": 1569,
      "dern": 1570,
      "Sp": 1571,
      "##ople": 1572,
      "vi": 1573,
      "another": 1574,
      "sing": 1575,
      "cond": 1576,
      "##aken": 1577,
      "ann": 1578,
      "morning": 1579,
      "##aul": 1580,
      "told": 1581,
      "always": 1582,
      "esc": 1583,
      "##imes": 1584,
      "Que": 1585,
      "cle": 1586,
      "anim": 1587,
      "near": 1588,
      "##mble": 1589,
      "evening": 1590,
      "!»": 1591,
      "jet": 1592,
      "water": 1593,
      "##erri": 1594,
      "##ots": 1595,
      "##ience": 1596,
      "Ph": 1597,
      "rap": 1598,
      "Jane": 1599,
      "##arc": 1600,
      "while": 1601,
      "ll": 1602,
      "lev": 1603,
      "chev": 1604,
      "So": 1605,
      "assez": 1606,
      "days": 1607,
      "letter": 1608,
      "lors": 1609,
      "Me": 1610,
      "half": 1611,
      "fond": 1612,
      "nature": 1613,
      "##ause": 1614,
      "##quoi": 1615,
      "doub": 1616,
      "Ro": 1617,
      "ear": 1618,
      "##ume": 1619,
      "##cept": 1620,
      "##rible": 1621,
      "##ables": 1622,
      "disait": 1623,
      "##ié": 1624,
      "ont": 1625,
      "parler": 1626,
      "##tement": 1627,
      "près": 1628,
      "mé": 1629,
      "ci": 1630,
      "hum": 1631,
      "##haps": 1632,
      "yet": 1633,
      "depuis": 1634,
      "##ardinal": 1635,
      "Is": 1636,
      "Cap": 1637,
      "étais": 1638,
      "adm": 1639,
      "passed": 1640,
      "##ating": 1641,
      "seen": 1642,
      "beh": 1643,
      "doute": 1644,
      "matin": 1645,
      "bro": 1646,
      "Tout": 1647,
      "mid": 1648,
      "wr": 1649,
      "##ween": 1650,
      "bras": 1651,
      "work": 1652,
      "pau": 1653,
      "Mahe": 1654,
      "Cette": 1655,
      "rapp": 1656,
      "extr": 1657,
      "open": 1658,
      "##lev": 1659,
      "##ory": 1660,
      "feel": 1661,
      "écl": 1662,
      "wait": 1663,
      "ami": 1664,
      "grande": 1665,
      "##ced": 1666,
      "##amis": 1667,
      "round": 1668,
      "ver": 1669,
      "##ances": 1670,
      "look": 1671,
      "##ilett": 1672,
      "ide": 1673,
      "##opp": 1674,
      "rés": 1675,
      "##mber": 1676,
      "fig": 1677,
      "aper": 1678,
      "hour": 1679,
      "vit": 1680,
      "##anch": 1681,
      "new": 1682,
      "Aramis": 1683,
      "For": 1684,
      "plac": 1685,
      "##guer": 1686,
      "lad": 1687,
      "maintenant": 1688,
      "ang": 1689,
      "maison": 1690,
      "##--": 1691,
      "##onc": 1692,
      "wal": 1693,
      "whom": 1694,
      "##ys": 1695,
      "##iness": 1696,
      "cardinal": 1697,
      "name": 1698,
      "mind": 1699,
      "form": 1700,
      "##mith": 1701,
      "##enne": 1702,
      "between": 1703,
      "large": 1704,
      "Pl": 1705,
      "disp": 1706,
      "people": 1707,
      "##HA": 1708,
      "##lez": 1709,
      "##ured": 1710,
      "contr": 1711,
      "##let": 1712,
      "##irl": 1713,
      "compr": 1714,
      "petite": 1715,
      "sw": 1716,
      "##part": 1717,
      "##ber": 1718,
      "compan": 1719,
      "belie": 1720,
      "##ged": 1721,
      "eau": 1722,
      "##issait": 1723,
      "possible": 1724,
      "él": 1725,
      "##ces": 1726,
      "retour": 1727,
      "dear": 1728,
      "Marguer": 1729,
      "Marguerite": 1730,
      "##ph": 1731,
      "##els": 1732,
      "##aise": 1733,
      "##usement": 1734,
      "effet": 1735,
      "sea": 1736,
      "quoi": 1737,
      "##ook": 1738,
      "##xt": 1739,
      "enough": 1740,
      "##ying": 1741,
      "##zio": 1742,
      "Fabrice": 1743,
      "faisait": 1744,
      "##ieurs": 1745,
      "done": 1746,
      "Fabrizio": 1747,
      "longer": 1748,
      "souv": 1749,
      "tant": 1750,
      "peine": 1751,
      "travers": 1752,
      "Smith": 1753,
      "gave": 1754,
      "##anqu": 1755,
      "hommes": 1756,
      "bonne": 1757,
      "##ired": 1758,
      "expl": 1759,
      "##gr": 1760,
      "reconn": 1761,
      "words": 1762,
      "maître": 1763,
      "inv": 1764,
      "prendre": 1765,
      "Why": 1766,
      "vrai": 1767,
      "##ither": 1768,
      "##ancs": 1769,
      "##ouss": 1770,
      "wat": 1771,
      "##elui": 1772,
      "Mon": 1773,
      "vent": 1774,
      "impos": 1775,
      "Hard": 1776,
      "mieux": 1777,
      "##ined": 1778,
      "hon": 1779,
      "##ains": 1780,
      "speak": 1781,
      "Spilett": 1782,
      "CHA": 1783,
      "Re": 1784,
      "ke": 1785,
      "souff": 1786,
      "Se": 1787,
      "murm": 1788,
      "cinq": 1789,
      "##ready": 1790,
      "##ried": 1791,
      "rece": 1792,
      "personne": 1793,
      "God": 1794,
      "##aille": 1795,
      "##...": 1796,
      "##most": 1797,
      "imag": 1798,
      "turned": 1799,
      "does": 1800,
      "poor": 1801,
      "To": 1802,
      "each": 1803,
      "master": 1804,
      "aj": 1805,
      "side": 1806,
      "##ze": 1807,
      "father": 1808,
      "##ourd": 1809,
      "girl": 1810,
      "alone": 1811,
      "##eng": 1812,
      "##itude": 1813,
      "dur": 1814,
      "viv": 1815,
      "##ouver": 1816,
      "hear": 1817,
      "An": 1818,
      "leave": 1819,
      "trav": 1820,
      "clock": 1821,
      "eu": 1822,
      "fa": 1823,
      "bout": 1824,
      "##lice": 1825,
      "##liz": 1826,
      "Harding": 1827,
      "##ça": 1828,
      "##iter": 1829,
      "eux": 1830,
      "mother": 1831,
      "diffic": 1832,
      "doubt": 1833,
      "madame": 1834,
      "ton": 1835,
      "laug": 1836,
      "got": 1837,
      "mille": 1838,
      "##ines": 1839,
      "##owed": 1840,
      "adv": 1841,
      "côté": 1842,
      "Do": 1843,
      "having": 1844,
      "CHAP": 1845,
      "##arm": 1846,
      "oncle": 1847,
      "underst": 1848,
      "!'": 1849,
      "##ler": 1850,
      "aller": 1851,
      "fat": 1852,
      "gar": 1853,
      "##coup": 1854,
      "Laurent": 1855,
      "pleas": 1856,
      "Eliz": 1857,
      "compagn": 1858,
      "set": 1859,
      "excl": 1860,
      "fac": 1861,
      "aurait": 1862,
      "##main": 1863,
      "?'": 1864,
      "low": 1865,
      "inqu": 1866,
      "already": 1867,
      "##wh": 1868,
      "thing": 1869,
      "read": 1870,
      "bed": 1871,
      "##fois": 1872,
      "##ham": 1873,
      "fur": 1874,
      "##lig": 1875,
      "##ER": 1876,
      "Captain": 1877,
      "vu": 1878,
      "ving": 1879,
      "##osed": 1880,
      "##selves": 1881,
      "fou": 1882,
      "act": 1883,
      "uncle": 1884,
      "feet": 1885,
      "captain": 1886,
      "Can": 1887,
      "##ape": 1888,
      "profond": 1889,
      "##ister": 1890,
      "del": 1891,
      "Vo": 1892,
      "##ru": 1893,
      "##ank": 1894,
      "##ached": 1895,
      "knew": 1896,
      "wish": 1897,
      "##ving": 1898,
      "whole": 1899,
      "##heur": 1900,
      "mont": 1901,
      "nos": 1902,
      "##iver": 1903,
      "déjà": 1904,
      "##ling": 1905,
      "comment": 1906,
      "crois": 1907,
      "##aître": 1908,
      "sure": 1909,
      "forg": 1910,
      "##ody": 1911,
      "five": 1912,
      "fix": 1913,
      "nor": 1914,
      "##ici": 1915,
      "something": 1916,
      "##uv": 1917,
      "##ife": 1918,
      "##quet": 1919,
      "##abeth": 1920,
      "window": 1921,
      "Har": 1922,
      "cir": 1923,
      "##fait": 1924,
      "mari": 1925,
      "better": 1926,
      "accomp": 1927,
      "idée": 1928,
      "Be": 1929,
      "##ression": 1930,
      "Mrs": 1931,
      "venait": 1932,
      "gros": 1933,
      "care": 1934,
      "##iment": 1935,
      "jou": 1936,
      "rent": 1937,
      "##ia": 1938,
      "##ientôt": 1939,
      "elles": 1940,
      "##ting": 1941,
      "Elizabeth": 1942,
      "sit": 1943,
      "##ement": 1944,
      "##ived": 1945,
      "viol": 1946,
      "feu": 1947,
      "since": 1948,
      "convers": 1949,
      "sk": 1950,
      "##so": 1951,
      "perd": 1952,
      "appeared": 1953,
      "dom": 1954,
      "tranqu": 1955,
      "Jean": 1956,
      "mains": 1957,
      "hard": 1958,
      "pen": 1959,
      "##II": 1960,
      "towards": 1961,
      "reven": 1962,
      "##aires": 1963,
      "allait": 1964,
      "occup": 1965,
      "##undred": 1966,
      "hundred": 1967,
      "##nal": 1968,
      "donner": 1969,
      "##ressed": 1970,
      "père": 1971,
      "##enait": 1972,
      "Quand": 1973,
      "##als": 1974,
      "route": 1975,
      "answered": 1976,
      "##na": 1977,
      "things": 1978,
      "beaucoup": 1979,
      "plais": 1980,
      "returned": 1981,
      "##ém": 1982,
      "##ently": 1983,
      "trans": 1984,
      "appar": 1985,
      "##cip": 1986,
      "##fin": 1987,
      "spo": 1988,
      "vois": 1989,
      "arrêt": 1990,
      "dix": 1991,
      "va": 1992,
      "##uy": 1993,
      "##ately": 1994,
      "devait": 1995,
      "everything": 1996,
      "consid": 1997,
      "Land": 1998,
      "aille": 1999,
      "##over": 2000,
      "##ason": 2001,
      "##iste": 2002,
      "Pier": 2003,
      "##pir": 2004,
      "matter": 2005,
      "pat": 2006,
      "##oses": 2007,
      "vingt": 2008,
      "enfant": 2009,
      "pieds": 2010,
      "celui": 2011,
      "beaut": 2012,
      "##RE": 2013,
      "francs": 2014,
      "many": 2015,
      "ren": 2016,
      "Not": 2017,
      "gens": 2018,
      "##quis": 2019,
      "milieu": 2020,
      "Nautilus": 2021,
      "vos": 2022,
      "##oin": 2023,
      "##ley": 2024,
      "##oles": 2025,
      "île": 2026,
      "##enir": 2027,
      "##dden": 2028,
      "figure": 2029,
      "##enty": 2030,
      "simple": 2031,
      "sé": 2032,
      "ut": 2033,
      "prov": 2034,
      "also": 2035,
      "##leep": 2036,
      "reporter": 2037,
      "Passe": 2038,
      "##ub": 2039,
      "const": 2040,
      "lettre": 2041,
      "Em": 2042,
      "ill": 2043,
      "##ular": 2044,
      "remar": 2045,
      "##leur": 2046,
      "##uses": 2047,
      "sera": 2048,
      "dra": 2049,
      "bruit": 2050,
      "perhaps": 2051,
      "enfin": 2052,
      "ris": 2053,
      "»,": 2054,
      "keep": 2055,
      "sang": 2056,
      "almost": 2057,
      "nouveau": 2058,
      "full": 2059,
      "less": 2060,
      "##érie": 2061,
      "dark": 2062,
      "##ards": 2063,
      "anything": 2064,
      "friends": 2065,
      "pauvre": 2066,
      "prit": 2067,
      "##fort": 2068,
      "temp": 2069,
      "Now": 2070,
      "##rup": 2071,
      "##ément": 2072,
      "sudden": 2073,
      "loin": 2074,
      "Quel": 2075,
      "mit": 2076,
      "Dans": 2077,
      "meme": 2078,
      "seulement": 2079,
      "##ength": 2080,
      "sail": 2081,
      "##çait": 2082,
      "quar": 2083,
      "##chant": 2084,
      "##arris": 2085,
      "semblait": 2086,
      "##partout": 2087,
      "Passepartout": 2088,
      "dessus": 2089,
      "idea": 2090,
      "abord": 2091,
      "dir": 2092,
      "fire": 2093,
      "impossible": 2094,
      "reste": 2095,
      "Emma": 2096,
      "tend": 2097,
      "##used": 2098,
      "##gent": 2099,
      "ing": 2100,
      "avons": 2101,
      "premier": 2102,
      "land": 2103,
      "pap": 2104,
      "perm": 2105,
      "because": 2106,
      "Herbert": 2107,
      "ailleurs": 2108,
      "Hol": 2109,
      "Harris": 2110,
      "##lect": 2111,
      "exam": 2112,
      "continued": 2113,
      "gone": 2114,
      "tir": 2115,
      "engine": 2116,
      "Harbert": 2117,
      "##cess": 2118,
      "trouver": 2119,
      "ajout": 2120,
      "Math": 2121,
      "##eed": 2122,
      "##ove": 2123,
      "next": 2124,
      "brought": 2125,
      "remained": 2126,
      "world": 2127,
      "Cep": 2128,
      "One": 2129,
      "ap": 2130,
      "save": 2131,
      "taken": 2132,
      "##ete": 2133,
      "cas": 2134,
      "##arn": 2135,
      "##orge": 2136,
      "##acieux": 2137,
      "exist": 2138,
      "descend": 2139,
      "Cependant": 2140,
      "conversation": 2141,
      "lieu": 2142,
      "##chait": 2143,
      "déb": 2144,
      "##its": 2145,
      "vér": 2146,
      "##ché": 2147,
      "terrible": 2148,
      "Lord": 2149,
      "followed": 2150,
      "though": 2151,
      "least": 2152,
      "##teur": 2153,
      "##temps": 2154,
      "etre": 2155,
      "##amb": 2156,
      "amour": 2157,
      "bord": 2158,
      "mère": 2159,
      "black": 2160,
      "circ": 2161,
      "mist": 2162,
      "vais": 2163,
      "chemin": 2164,
      "Af": 2165,
      "sett": 2166,
      "passer": 2167,
      "mine": 2168,
      "##ream": 2169,
      "##ilde": 2170,
      "presque": 2171,
      "Mathilde": 2172,
      "fine": 2173,
      "##jet": 2174,
      "pain": 2175,
      "##ical": 2176,
      "years": 2177,
      "behind": 2178,
      "##outh": 2179,
      "##ept": 2180,
      "ess": 2181,
      "Ayr": 2182,
      "nu": 2183,
      "run": 2184,
      "Ayrton": 2185,
      "Jo": 2186,
      "##uge": 2187,
      "##ided": 2188,
      "arch": 2189,
      "esprit": 2190,
      "Alice": 2191,
      "présent": 2192,
      "_N": 2193,
      "coming": 2194,
      "déf": 2195,
      "list": 2196,
      "##bli": 2197,
      "##prise": 2198,
      "demi": 2199,
      "##uf": 2200,
      "##itter": 2201,
      "##cha": 2202,
      "force": 2203,
      "mois": 2204,
      "Est": 2205,
      "deven": 2206,
      "fell": 2207,
      "##rir": 2208,
      "##iff": 2209,
      "repe": 2210,
      "secret": 2211,
      "gri": 2212,
      "soit": 2213,
      "looking": 2214,
      "voyage": 2215,
      "Mole": 2216,
      "hur": 2217,
      "##iant": 2218,
      "dét": 2219,
      "along": 2220,
      "roi": 2221,
      "bal": 2222,
      "pay": 2223,
      "sens": 2224,
      "both": 2225,
      "##ingoire": 2226,
      "##temp": 2227,
      "Gringoire": 2228,
      "death": 2229,
      "##ution": 2230,
      "perf": 2231,
      "Cather": 2232,
      "rather": 2233,
      "croy": 2234,
      "Catherine": 2235,
      "##tant": 2236,
      "montr": 2237,
      "front": 2238,
      "raison": 2239,
      "Son": 2240,
      "##être": 2241,
      "heav": 2242,
      "##autilus_": 2243,
      "##aulnes": 2244,
      "ingén": 2245,
      "_Nautilus_": 2246,
      "##ris": 2247,
      "aperç": 2248,
      "swe": 2249,
      "believe": 2250,
      "fai": 2251,
      "gre": 2252,
      "dec": 2253,
      "##omm": 2254,
      "called": 2255,
      "Bonacieux": 2256,
      "bientôt": 2257,
      "##ms": 2258,
      "empl": 2259,
      "respect": 2260,
      "##née": 2261,
      "##ivement": 2262,
      "el": 2263,
      "##ific": 2264,
      "Cl": 2265,
      "ev": 2266,
      "hun": 2267,
      "opp": 2268,
      "##ield": 2269,
      "cann": 2270,
      "cheval": 2271,
      "exclai": 2272,
      "##day": 2273,
      "voilà": 2274,
      "fear": 2275,
      "Holmes": 2276,
      "oblig": 2277,
      "Cand": 2278,
      "##erc": 2279,
      "##ering": 2280,
      "##ura": 2281,
      "##ousand": 2282,
      "##ende": 2283,
      "whose": 2284,
      "##range": 2285,
      "eas": 2286,
      "gén": 2287,
      "choses": 2288,
      "Meaulnes": 2289,
      "pays": 2290,
      "succ": 2291,
      "Pe": 2292,
      "Ren": 2293,
      "##agne": 2294,
      "chaque": 2295,
      "sold": 2296,
      "surf": 2297,
      "##try": 2298,
      "wife": 2299,
      "sole": 2300,
      "Comment": 2301,
      "why": 2302,
      "##essa": 2303,
      "##ushed": 2304,
      "##veill": 2305,
      "added": 2306,
      "Candide": 2307,
      "high": 2308,
      "lit": 2309,
      "##enez": 2310,
      "cold": 2311,
      "Ge": 2312,
      "##orn": 2313,
      "course": 2314,
      "opened": 2315,
      "engineer": 2316,
      "thousand": 2317,
      "quitt": 2318,
      "month": 2319,
      "charm": 2320,
      "##ute": 2321,
      "twenty": 2322,
      "however": 2323,
      "hope": 2324,
      "bois": 2325,
      "hours": 2326,
      "sound": 2327,
      "tard": 2328,
      "ça": 2329,
      "##aves": 2330,
      "road": 2331,
      "sus": 2332,
      "##udence": 2333,
      "cause": 2334,
      "Fel": 2335,
      "cab": 2336,
      "coeur": 2337,
      "lost": 2338,
      "satis": 2339,
      "vue": 2340,
      "##rais": 2341,
      "House": 2342,
      "ast": 2343,
      "##ov": 2344,
      "kind": 2345,
      "##bres": 2346,
      "##qua": 2347,
      "art": 2348,
      "Lond": 2349,
      "##ination": 2350,
      "comb": 2351,
      "island": 2352,
      "Rê": 2353,
      "attention": 2354,
      "Du": 2355,
      "cach": 2356,
      "wall": 2357,
      "Rênal": 2358,
      "pal": 2359,
      "veux": 2360,
      "##antes": 2361,
      "##vert": 2362,
      "stood": 2363,
      "voit": 2364,
      "aime": 2365,
      "Sa": 2366,
      "import": 2367,
      "##ized": 2368,
      "surface": 2369,
      "toi": 2370,
      "themselves": 2371,
      "##til": 2372,
      "##ates": 2373,
      "After": 2374,
      "exclaimed": 2375,
      "aband": 2376,
      "longtemps": 2377,
      "préc": 2378,
      "Renal": 2379,
      "sac": 2380,
      "##isse": 2381,
      "arms": 2382,
      "Tr": 2383,
      "##ceed": 2384,
      "belle": 2385,
      "fût": 2386,
      "order": 2387,
      "ingénieur": 2388,
      "Saint": 2389,
      "fen": 2390,
      "fact": 2391,
      "##ss": 2392,
      "##erent": 2393,
      "##appe": 2394,
      "rose": 2395,
      "##él": 2396,
      "##bed": 2397,
      "##aissait": 2398,
      "stand": 2399,
      "amis": 2400,
      "affaire": 2401,
      "joy": 2402,
      "need": 2403,
      "##aring": 2404,
      "##iven": 2405,
      "##ken": 2406,
      "Joh": 2407,
      "##quel": 2408,
      "##oss": 2409,
      "sommes": 2410,
      "##oiselle": 2411,
      "##chester": 2412,
      "understand": 2413,
      "celle": 2414,
      "stopp": 2415,
      "With": 2416,
      "press": 2417,
      "##elp": 2418,
      "sight": 2419,
      "##éon": 2420,
      "furent": 2421,
      "hors": 2422,
      "##âmes": 2423,
      "##oul": 2424,
      "hist": 2425,
      "##encon": 2426,
      "gal": 2427,
      "tog": 2428,
      "play": 2429,
      "##indre": 2430,
      "##aw": 2431,
      "mean": 2432,
      "##auv": 2433,
      "##ières": 2434,
      "situ": 2435,
      "together": 2436,
      "offic": 2437,
      "smile": 2438,
      "Pro": 2439,
      "difficult": 2440,
      "Des": 2441,
      "says": 2442,
      "##ral": 2443,
      "##ax": 2444,
      "ask": 2445,
      "Felton": 2446,
      "became": 2447,
      "pâ": 2448,
      "fellow": 2449,
      "##anche": 2450,
      "##ited": 2451,
      "cru": 2452,
      "##endemain": 2453,
      "Darc": 2454,
      "Jim": 2455,
      "##oute": 2456,
      "Darcy": 2457,
      "##mment": 2458,
      "sever": 2459,
      "entendre": 2460,
      "huit": 2461,
      "##ères": 2462,
      "##heure": 2463,
      "##iles": 2464,
      "small": 2465,
      "Rochester": 2466,
      "bu": 2467,
      "bene": 2468,
      "rencon": 2469,
      "##pendant": 2470,
      "##erv": 2471,
      "oubli": 2472,
      "John": 2473,
      "##ager": 2474,
      "partie": 2475,
      "##ully": 2476,
      "fallait": 2477,
      "besoin": 2478,
      "ajouta": 2479,
      "cannot": 2480,
      "boy": 2481,
      "thir": 2482,
      "dead": 2483,
      "##ric": 2484,
      "Canad": 2485,
      "call": 2486,
      "##gs": 2487,
      "##qué": 2488,
      "marin": 2489,
      "present": 2490,
      "##cell": 2491,
      "argent": 2492,
      "nav": 2493,
      "Enfin": 2494,
      "foot": 2495,
      "answer": 2496,
      "##œur": 2497,
      "##erez": 2498,
      "danger": 2499,
      "yes": 2500,
      "##iques": 2501,
      "##ah": 2502,
      "##ety": 2503,
      "aucun": 2504,
      "pow": 2505,
      "dispar": 2506,
      "horse": 2507,
      "Miss": 2508,
      "home": 2509,
      "Maheu": 2510,
      "##itié": 2511,
      "##ades": 2512,
      "##iend": 2513,
      "##arp": 2514,
      "##atur": 2515,
      "noir": 2516,
      "Here": 2517,
      "derri": 2518,
      "mour": 2519,
      "pouss": 2520,
      "vieux": 2521,
      "##era": 2522,
      "pourquoi": 2523,
      "##anged": 2524,
      "retr": 2525,
      "première": 2526,
      "prison": 2527,
      "rich": 2528,
      "##ren": 2529,
      "cependant": 2530,
      "lendemain": 2531,
      "mad": 2532,
      "##ows": 2533,
      "chair": 2534,
      "##igneur": 2535,
      "!...": 2536,
      "bour": 2537,
      "best": 2538,
      "##IT": 2539,
      "deep": 2540,
      "passion": 2541,
      "##ual": 2542,
      "able": 2543,
      "courage": 2544,
      "affect": 2545,
      "riv": 2546,
      "##phe": 2547,
      "##bour": 2548,
      "deme": 2549,
      "entered": 2550,
      "réf": 2551,
      "passage": 2552,
      "yourself": 2553,
      "king": 2554,
      "agit": 2555,
      "##chesse": 2556,
      "Gri": 2557,
      "lat": 2558,
      "surpris": 2559,
      "##ateau": 2560,
      "George": 2561,
      "quelle": 2562,
      "reason": 2563,
      "aucune": 2564,
      "Cam": 2565,
      "kept": 2566,
      "laqu": 2567,
      "hold": 2568,
      "##inter": 2569,
      "repr": 2570,
      "##aval": 2571,
      "commen": 2572,
      "start": 2573,
      "Con": 2574,
      "Cela": 2575,
      "given": 2576,
      "##ôte": 2577,
      "##ige": 2578,
      "Hen": 2579,
      "among": 2580,
      "soul": 2581,
      "indeed": 2582,
      "##ount": 2583,
      "propos": 2584,
      "admir": 2585,
      "##oux": 2586,
      "##ash": 2587,
      "mots": 2588,
      "savoir": 2589,
      "##rif": 2590,
      "sun": 2591,
      "distance": 2592,
      "draw": 2593,
      "Tu": 2594,
      "plan": 2595,
      "true": 2596,
      "moy": 2597,
      "prob": 2598,
      "poss": 2599,
      "sleep": 2600,
      "##hter": 2601,
      "din": 2602,
      "lum": 2603,
      "mus": 2604,
      "vag": 2605,
      "##aqu": 2606,
      "##erie": 2607,
      "until": 2608,
      "comte": 2609,
      "money": 2610,
      "##mbre": 2611,
      "Gran": 2612,
      "cut": 2613,
      "##uite": 2614,
      "myst": 2615,
      "##fully": 2616,
      "bur": 2617,
      "ru": 2618,
      "##oure": 2619,
      "autour": 2620,
      "gentleman": 2621,
      "Bes": 2622,
      "##ror": 2623,
      "desp": 2624,
      "##thers": 2625,
      "country": 2626,
      "##der": 2627,
      "##cteur": 2628,
      "##unes": 2629,
      "appear": 2630,
      "garçon": 2631,
      "mess": 2632,
      "pie": 2633,
      "rac": 2634,
      "Granite": 2635,
      "Let": 2636,
      "##read": 2637,
      "reme": 2638,
      "##èse": 2639,
      "occas": 2640,
      "##old": 2641,
      "expect": 2642,
      "effort": 2643,
      "##teau": 2644,
      "surprise": 2645,
      "prod": 2646,
      "##action": 2647,
      "help": 2648,
      "##ges": 2649,
      "##TER": 2650,
      "##ellement": 2651,
      "fortune": 2652,
      "Chap": 2653,
      "boat": 2654,
      "bus": 2655,
      "fus": 2656,
      "##lait": 2657,
      "##roit": 2658,
      "suddenly": 2659,
      "##oe": 2660,
      "voud": 2661,
      "voulait": 2662,
      "spoke": 2663,
      "Duch": 2664,
      "##sc": 2665,
      "--\"": 2666,
      "##erait": 2667,
      "duchesse": 2668,
      "Ces": 2669,
      "ran": 2670,
      "##ray": 2671,
      "##riage": 2672,
      "really": 2673,
      "position": 2674,
      "Pierre": 2675,
      "Camille": 2676,
      "Fix": 2677,
      "breat": 2678,
      "corps": 2679,
      "observ": 2680,
      "##gé": 2681,
      "pard": 2682,
      "anx": 2683,
      "##ames": 2684,
      "Comme": 2685,
      "continua": 2686,
      "bott": 2687,
      "making": 2688,
      "pale": 2689,
      "times": 2690,
      "ready": 2691,
      "trouvait": 2692,
      "Co": 2693,
      "gaz": 2694,
      "##llez": 2695,
      "colon": 2696,
      "batt": 2697,
      "##rez": 2698,
      "regardait": 2699,
      "venir": 2700,
      "saying": 2701,
      "person": 2702,
      "oui": 2703,
      "##ras": 2704,
      "above": 2705,
      "Come": 2706,
      "clear": 2707,
      "satisf": 2708,
      "##moiselle": 2709,
      "change": 2710,
      "peur": 2711,
      "appel": 2712,
      "Neb": 2713,
      "command": 2714,
      "âme": 2715,
      "##antage": 2716,
      "eye": 2717,
      "Nab": 2718,
      "ign": 2719,
      "nouv": 2720,
      "##gré": 2721,
      "proc": 2722,
      "cria": 2723,
      "enfants": 2724,
      "décid": 2725,
      "Voilà": 2726,
      "conc": 2727,
      "visage": 2728,
      "horiz": 2729,
      "others": 2730,
      "##aisse": 2731,
      "trouble": 2732,
      "chercher": 2733,
      "lorsque": 2734,
      "##ener": 2735,
      "chance": 2736,
      "dév": 2737,
      "voulez": 2738,
      "become": 2739,
      "froid": 2740,
      "stopped": 2741,
      "hus": 2742,
      "sû": 2743,
      "sorte": 2744,
      "##oign": 2745,
      "##ial": 2746,
      "pi": 2747,
      "étonn": 2748,
      "##acle": 2749,
      "short": 2750,
      "bonheur": 2751,
      "##oor": 2752,
      "livres": 2753,
      "grands": 2754,
      "ay": 2755,
      "lay": 2756,
      "regarda": 2757,
      "cre": 2758,
      "##band": 2759,
      "##urer": 2760,
      "stri": 2761,
      "répét": 2762,
      "##umed": 2763,
      "##bles": 2764,
      "##odo": 2765,
      "##ope": 2766,
      "##port": 2767,
      "thus": 2768,
      "##itôt": 2769,
      "parole": 2770,
      "##aught": 2771,
      "##ennet": 2772,
      "enter": 2773,
      "partir": 2774,
      "voyait": 2775,
      "Votre": 2776,
      "pur": 2777,
      "##otion": 2778,
      "façon": 2779,
      "By": 2780,
      "wood": 2781,
      "parut": 2782,
      "##idement": 2783,
      "##enant": 2784,
      "suite": 2785,
      "réc": 2786,
      "Prince": 2787,
      "tranquille": 2788,
      "##voir": 2789,
      "##af": 2790,
      "##cul": 2791,
      "##abl": 2792,
      "rock": 2793,
      "gall": 2794,
      "##aign": 2795,
      "object": 2796,
      "##aît": 2797,
      "taking": 2798,
      "##ump": 2799,
      "##iere": 2800,
      "##itable": 2801,
      "##onneur": 2802,
      "caus": 2803,
      "Pourquoi": 2804,
      "beneath": 2805,
      "Pendant": 2806,
      "mauv": 2807,
      "##bus": 2808,
      "##ised": 2809,
      "##lement": 2810,
      "prince": 2811,
      "ground": 2812,
      "calm": 2813,
      "Bennet": 2814,
      "##00": 2815,
      "ceux": 2816,
      "val": 2817,
      "##ool": 2818,
      "white": 2819,
      "Duchessa": 2820,
      "husband": 2821,
      "brother": 2822,
      "##ission": 2823,
      "impat": 2824,
      "##ogn": 2825,
      "mettre": 2826,
      "lady": 2827,
      "savez": 2828,
      "Mont": 2829,
      "dest": 2830,
      "##pped": 2831,
      "partic": 2832,
      "##airs": 2833,
      "trouva": 2834,
      "fatig": 2835,
      "Ind": 2836,
      "##mand": 2837,
      "aurais": 2838,
      "eight": 2839,
      "real": 2840,
      "femmes": 2841,
      "##né": 2842,
      "fright": 2843,
      "opin": 2844,
      "sailor": 2845,
      "Après": 2846,
      "dri": 2847,
      "fif": 2848,
      "##oon": 2849,
      "##ron": 2850,
      "frapp": 2851,
      "court": 2852,
      "ram": 2853,
      "begin": 2854,
      "tried": 2855,
      "CHAPTER": 2856,
      "past": 2857,
      "quick": 2858,
      "train": 2859,
      "pron": 2860,
      "rég": 2861,
      "cross": 2862,
      "##iously": 2863,
      "trembl": 2864,
      "pier": 2865,
      "##asim": 2866,
      "compl": 2867,
      "fils": 2868,
      "##body": 2869,
      "##resh": 2870,
      "##aug": 2871,
      "embr": 2872,
      "Top": 2873,
      "case": 2874,
      "dî": 2875,
      "coll": 2876,
      "hui": 2877,
      "necess": 2878,
      "##ists": 2879,
      "occasion": 2880,
      "##ased": 2881,
      "move": 2882,
      "super": 2883,
      "Quasim": 2884,
      "douce": 2885,
      "Quasimodo": 2886,
      "cat": 2887,
      "tone": 2888,
      "reply": 2889,
      "##iving": 2890,
      "women": 2891,
      "held": 2892,
      "use": 2893,
      "##ney": 2894,
      "shout": 2895,
      "content": 2896,
      "gener": 2897,
      "animal": 2898,
      "camp": 2899,
      "strange": 2900,
      "ciel": 2901,
      "rencontr": 2902,
      "magn": 2903,
      "rid": 2904,
      "##erai": 2905,
      "##ching": 2906,
      "Eng": 2907,
      "désir": 2908,
      "power": 2909,
      "Rod": 2910,
      "fav": 2911,
      "##itions": 2912,
      "break": 2913,
      "rue": 2914,
      "regret": 2915,
      "certaine": 2916,
      "absol": 2917,
      "rire": 2918,
      "vint": 2919,
      "##ument": 2920,
      "##inte": 2921,
      "##essor": 2922,
      "stre": 2923,
      "tears": 2924,
      "##alement": 2925,
      "France": 2926,
      "ball": 2927,
      "em": 2928,
      "##uve": 2929,
      "##bé": 2930,
      "These": 2931,
      "plaisir": 2932,
      "perfect": 2933,
      "tort": 2934,
      "##inct": 2935,
      "##ably": 2936,
      "ém": 2937,
      "##can": 2938,
      "##very": 2939,
      "##aces": 2940,
      "extre": 2941,
      "pensée": 2942,
      "##lling": 2943,
      "paroles": 2944,
      "##ends": 2945,
      "conse": 2946,
      "glo": 2947,
      "brill": 2948,
      "joie": 2949,
      "children": 2950,
      "aston": 2951,
      "pare": 2952,
      "##bl": 2953,
      "##jest": 2954,
      "##esp": 2955,
      "##ileas": 2956,
      "expression": 2957,
      "##ails": 2958,
      "Phileas": 2959,
      "during": 2960,
      "employ": 2961,
      "?»": 2962,
      "##rer": 2963,
      "##ening": 2964,
      "reached": 2965,
      "##ief": 2966,
      "trait": 2967,
      "##ession": 2968,
      "##ounded": 2969,
      "##nem": 2970,
      "exe": 2971,
      "lamp": 2972,
      "reç": 2973,
      "passé": 2974,
      "entendu": 2975,
      "oe": 2976,
      "##ène": 2977,
      "pourtant": 2978,
      "plusieurs": 2979,
      "arrived": 2980,
      "struck": 2981,
      "certainly": 2982,
      "earth": 2983,
      "vill": 2984,
      "deb": 2985,
      "##andis": 2986,
      "monst": 2987,
      "lips": 2988,
      "##ored": 2989,
      "cover": 2990,
      "longue": 2991,
      "visit": 2992,
      "dernier": 2993,
      "companions": 2994,
      "repeated": 2995,
      "génér": 2996,
      "dress": 2997,
      "ore": 2998,
      "till": 2999,
      "##ina": 3000,
      "bring": 3001,
      "obst": 3002,
      "##medi": 3003,
      "From": 3004,
      "lorsqu": 3005,
      "existence": 3006,
      "Bing": 3007,
      "cœur": 3008,
      "spr": 3009,
      "##âce": 3010,
      "##omet": 3011,
      "malheure": 3012,
      "Bingley": 3013,
      "jol": 3014,
      "pén": 3015,
      "##ouill": 3016,
      "glass": 3017,
      "##ross": 3018,
      "compagnons": 3019,
      "nouvelle": 3020,
      "cents": 3021,
      "live": 3022,
      "##uc": 3023,
      "Thér": 3024,
      "close": 3025,
      "##issant": 3026,
      "family": 3027,
      "échapp": 3028,
      "horizon": 3029,
      "Thérèse": 3030,
      "often": 3031,
      "post": 3032,
      "interest": 3033,
      "happy": 3034,
      "soleil": 3035,
      "Tre": 3036,
      "bad": 3037,
      "fle": 3038,
      "larmes": 3039,
      "embarr": 3040,
      "Ad": 3041,
      "dut": 3042,
      "mouve": 3043,
      "##jourd": 3044,
      "Ther": 3045,
      "appr": 3046,
      "bless": 3047,
      "inqui": 3048,
      "Or": 3049,
      "##ctor": 3050,
      "salle": 3051,
      "dispos": 3052,
      "opinion": 3053,
      "Qui": 3054,
      "ble": 3055,
      "grave": 3056,
      "##ives": 3057,
      "rester": 3058,
      "sister": 3059,
      "frère": 3060,
      "carried": 3061,
      "colons": 3062,
      "Therese": 3063,
      "##dle": 3064,
      "##vez": 3065,
      "pret": 3066,
      "##ugg": 3067,
      "rendre": 3068,
      "##ussi": 3069,
      "##aude": 3070,
      "immen": 3071,
      "tenait": 3072,
      "ought": 3073,
      "arriver": 3074,
      "gentlemen": 3075,
      "laquelle": 3076,
      "mous": 3077,
      "##aissez": 3078,
      "conven": 3079,
      "else": 3080,
      "lang": 3081,
      "sn": 3082,
      "##usion": 3083,
      "recogn": 3084,
      "tor": 3085,
      "##erm": 3086,
      "requ": 3087,
      "parfait": 3088,
      "Where": 3089,
      "obsc": 3090,
      "salon": 3091,
      "rapid": 3092,
      "several": 3093,
      "length": 3094,
      "##uire": 3095,
      "soci": 3096,
      "direction": 3097,
      "worth": 3098,
      "voiture": 3099,
      "immense": 3100,
      "mod": 3101,
      "Who": 3102,
      "strong": 3103,
      "cast": 3104,
      "##quait": 3105,
      "##oln": 3106,
      "repro": 3107,
      "##incoln": 3108,
      "souvent": 3109,
      "situation": 3110,
      "Lincoln": 3111,
      "Your": 3112,
      "os": 3113,
      "vain": 3114,
      "##lled": 3115,
      "##onner": 3116,
      "known": 3117,
      "##ouvez": 3118,
      "talk": 3119,
      "Maheude": 3120,
      "gagn": 3121,
      "##ira": 3122,
      "Bar": 3123,
      "inn": 3124,
      "##ieuse": 3125,
      "disappe": 3126,
      "seeing": 3127,
      "instru": 3128,
      "slow": 3129,
      "##raid": 3130,
      "condu": 3131,
      "commun": 3132,
      "##este": 3133,
      "##ences": 3134,
      "désesp": 3135,
      "placed": 3136,
      "Sur": 3137,
      "band": 3138,
      "meet": 3139,
      "stud": 3140,
      "##akes": 3141,
      "ferm": 3142,
      "CHAPIT": 3143,
      "CHAPITRE": 3144,
      "##ités": 3145,
      "##aged": 3146,
      "parce": 3147,
      "anc": 3148,
      "famille": 3149,
      "Good": 3150,
      "natur": 3151,
      "##urait": 3152,
      "compte": 3153,
      "Never": 3154,
      "miles": 3155,
      "Island": 3156,
      "rê": 3157,
      "cry": 3158,
      "used": 3159,
      "essay": 3160,
      "derrière": 3161,
      "mê": 3162,
      "mouth": 3163,
      "tent": 3164,
      "##ève": 3165,
      "##tell": 3166,
      "sum": 3167,
      "accept": 3168,
      "##aughter": 3169,
      "Ex": 3170,
      "tres": 3171,
      "won": 3172,
      "wond": 3173,
      "##sitôt": 3174,
      "##ually": 3175,
      "##rel": 3176,
      "##att": 3177,
      "show": 3178,
      "aussitôt": 3179,
      "service": 3180,
      "donné": 3181,
      "iron": 3182,
      "Ly": 3183,
      "##−−": 3184,
      "##ales": 3185,
      "##lia": 3186,
      "moments": 3187,
      "##otte": 3188,
      "##cted": 3189,
      "wee": 3190,
      "autant": 3191,
      "suppose": 3192,
      "##ettre": 3193,
      "##olog": 3194,
      "stay": 3195,
      "dites": 3196,
      "##ablement": 3197,
      "afraid": 3198,
      "##inaire": 3199,
      "##ask": 3200,
      "passa": 3201,
      "coups": 3202,
      "éclair": 3203,
      "sch": 3204,
      "##teen": 3205,
      "##ili": 3206,
      "##ices": 3207,
      "sauv": 3208,
      "journée": 3209,
      "##anchet": 3210,
      "either": 3211,
      "##ouis": 3212,
      "##resse": 3213,
      "demander": 3214,
      "tourn": 3215,
      "Planchet": 3216,
      "dream": 3217,
      "hôt": 3218,
      "honneur": 3219,
      "sor": 3220,
      "wished": 3221,
      "rej": 3222,
      "écout": 3223,
      "parti": 3224,
      "##érieur": 3225,
      "creat": 3226,
      "##iful": 3227,
      "refus": 3228,
      "discover": 3229,
      "éloign": 3230,
      "fenêtre": 3231,
      "allez": 3232,
      "burn": 3233,
      "##assi": 3234,
      "immedi": 3235,
      "leva": 3236,
      "dîner": 3237,
      "later": 3238,
      "##lin": 3239,
      "##HE": 3240,
      "rouge": 3241,
      "Br": 3242,
      "##mon": 3243,
      "##aste": 3244,
      "means": 3245,
      "doit": 3246,
      "ordre": 3247,
      "savait": 3248,
      "laisser": 3249,
      "wanted": 3250,
      "waiting": 3251,
      "Tw": 3252,
      "div": 3253,
      "vite": 3254,
      "ville": 3255,
      "##den": 3256,
      "##ended": 3257,
      "within": 3258,
      "stup": 3259,
      "org": 3260,
      "received": 3261,
      "lè": 3262,
      "##ef": 3263,
      "##ainte": 3264,
      "##oland": 3265,
      "blood": 3266,
      "répondre": 3267,
      "Quant": 3268,
      "heureux": 3269,
      "##lly": 3270,
      "faites": 3271,
      "envoy": 3272,
      "garde": 3273,
      "moyen": 3274,
      "Every": 3275,
      "tandis": 3276,
      "town": 3277,
      "conce": 3278,
      "excell": 3279,
      "recomm": 3280,
      "Just": 3281,
      "côte": 3282,
      "gro": 3283,
      "pist": 3284,
      "##iner": 3285,
      "quitter": 3286,
      "ense": 3287,
      "aujourd": 3288,
      "facile": 3289,
      "Conte": 3290,
      "lut": 3291,
      "sait": 3292,
      "##onge": 3293,
      "##usse": 3294,
      "songe": 3295,
      "accord": 3296,
      "croire": 3297,
      "voulu": 3298,
      "eat": 3299,
      "sad": 3300,
      "##vait": 3301,
      "##idence": 3302,
      "brus": 3303,
      "pleasure": 3304,
      "susp": 3305,
      "Sans": 3306,
      "thro": 3307,
      "##lex": 3308,
      "sept": 3309,
      "étr": 3310,
      "quiet": 3311,
      "corral": 3312,
      "Am": 3313,
      "cam": 3314,
      "##tout": 3315,
      "##asp": 3316,
      "remp": 3317,
      "crow": 3318,
      "daughter": 3319,
      "hat": 3320,
      "tim": 3321,
      "itself": 3322,
      "shut": 3323,
      "disting": 3324,
      "droit": 3325,
      "éclat": 3326,
      "##équ": 3327,
      "plut": 3328,
      "somme": 3329,
      "expli": 3330,
      "calme": 3331,
      "##ench": 3332,
      "therefore": 3333,
      "polit": 3334,
      "police": 3335,
      "Bov": 3336,
      "die": 3337,
      "##erve": 3338,
      "##ility": 3339,
      "contemp": 3340,
      "brave": 3341,
      "réponse": 3342,
      "didn": 3343,
      "précip": 3344,
      "petits": 3345,
      "maîtres": 3346,
      "Bovary": 3347,
      "étions": 3348,
      "envir": 3349,
      "dorm": 3350,
      "eaux": 3351,
      "mass": 3352,
      "sourire": 3353,
      "human": 3354,
      "manger": 3355,
      "vieille": 3356,
      "walked": 3357,
      "té": 3358,
      "##side": 3359,
      "##itation": 3360,
      "quin": 3361,
      "prêt": 3362,
      "soup": 3363,
      "vérité": 3364,
      "vert": 3365,
      "incl": 3366,
      "enn": 3367,
      "whether": 3368,
      "étrange": 3369,
      "voici": 3370,
      "Besides": 3371,
      "##gy": 3372,
      "##ôle": 3373,
      "around": 3374,
      "hasard": 3375,
      "imm": 3376,
      "18": 3377,
      "Mlle": 3378,
      "Per": 3379,
      "dim": 3380,
      "drew": 3381,
      "moun": 3382,
      "avou": 3383,
      "pouvoir": 3384,
      "minute": 3385,
      "Henry": 3386,
      "Géd": 3387,
      "Hans": 3388,
      "Pas": 3389,
      "Roland": 3390,
      "def": 3391,
      "devil": 3392,
      "crime": 3393,
      "resta": 3394,
      "restait": 3395,
      "##esseur": 3396,
      "domest": 3397,
      "##rupt": 3398,
      "##tellig": 3399,
      "Gédéon": 3400,
      "Notre": 3401,
      "##han": 3402,
      "##quement": 3403,
      "bris": 3404,
      "puiss": 3405,
      "Chapter": 3406,
      "Cert": 3407,
      "jud": 3408,
      "quart": 3409,
      "dég": 3410,
      "silent": 3411,
      "necessary": 3412,
      "crowd": 3413,
      "##nor": 3414,
      "##iments": 3415,
      "##uring": 3416,
      "##rid": 3417,
      "extrême": 3418,
      "led": 3419,
      "pit": 3420,
      "##ost": 3421,
      "##con": 3422,
      "intellig": 3423,
      "##ache": 3424,
      "adress": 3425,
      "##aissance": 3426,
      "spect": 3427,
      "Fran": 3428,
      "dès": 3429,
      "##urch": 3430,
      "donne": 3431,
      "demain": 3432,
      "##asser": 3433,
      "turning": 3434,
      "delight": 3435,
      "beautiful": 3436,
      "quarter": 3437,
      "Ang": 3438,
      "Ainsi": 3439,
      "grow": 3440,
      "hair": 3441,
      "##alier": 3442,
      "priest": 3443,
      "cinqu": 3444,
      "##issement": 3445,
      "Made": 3446,
      "milles": 3447,
      "lead": 3448,
      "semble": 3449,
      "état": 3450,
      "perdu": 3451,
      "##uits": 3452,
      "ignor": 3453,
      "##ision": 3454,
      "suc": 3455,
      "##beau": 3456,
      "lumière": 3457,
      "élev": 3458,
      "##uer": 3459,
      "##gre": 3460,
      "##ouff": 3461,
      "##ative": 3462,
      "learn": 3463,
      "carry": 3464,
      "##ième": 3465,
      "months": 3466,
      "histoire": 3467,
      "pan": 3468,
      "manner": 3469,
      "happened": 3470,
      "espér": 3471,
      "remember": 3472,
      "lèvres": 3473,
      "Tous": 3474,
      "fast": 3475,
      "fresh": 3476,
      "det": 3477,
      "##termin": 3478,
      "surtout": 3479,
      "grâce": 3480,
      "fool": 3481,
      "##retched": 3482,
      "slight": 3483,
      "Ab": 3484,
      "kiss": 3485,
      "##erville": 3486,
      "##uth": 3487,
      "venu": 3488,
      "thinking": 3489,
      "Ses": 3490,
      "ache": 3491,
      "big": 3492,
      "sy": 3493,
      "ta": 3494,
      "perce": 3495,
      "répondis": 3496,
      "empê": 3497,
      "sortir": 3498,
      "colère": 3499,
      "travail": 3500,
      "Chaval": 3501,
      "demande": 3502,
      "pensa": 3503,
      "faute": 3504,
      "acqu": 3505,
      "nombre": 3506,
      "year": 3507,
      "résol": 3508,
      "cous": 3509,
      "##vant": 3510,
      "##ior": 3511,
      "lequel": 3512,
      "##roy": 3513,
      "cho": 3514,
      "##écess": 3515,
      "bir": 3516,
      "fore": 3517,
      "##ète": 3518,
      "##eless": 3519,
      "exact": 3520,
      "ship": 3521,
      "resumed": 3522,
      "##etting": 3523,
      "##rons": 3524,
      "étend": 3525,
      "sup": 3526,
      "doing": 3527,
      "##ung": 3528,
      "souvenir": 3529,
      "dinner": 3530,
      "lég": 3531,
      "nécess": 3532,
      "vient": 3533,
      "##anç": 3534,
      "##isc": 3535,
      "reach": 3536,
      "##ilité": 3537,
      "prin": 3538,
      "marquis": 3539,
      "immo": 3540,
      "singul": 3541,
      "extra": 3542,
      "laugh": 3543,
      "Very": 3544,
      "squ": 3545,
      "##oint": 3546,
      "##cé": 3547,
      "jeunes": 3548,
      "plein": 3549,
      "attendre": 3550,
      "arrêta": 3551,
      "Londres": 3552,
      "Aussi": 3553,
      "fre": 3554,
      "##rib": 3555,
      "##été": 3556,
      "voulut": 3557,
      "arriva": 3558,
      "murmura": 3559,
      "piece": 3560,
      "plutôt": 3561,
      "##alité": 3562,
      "##ortun": 3563,
      "rév": 3564,
      "tenir": 3565,
      "entrer": 3566,
      "dernière": 3567,
      "feeling": 3568,
      "immediately": 3569,
      "body": 3570,
      "gau": 3571,
      "forme": 3572,
      "##anced": 3573,
      "double": 3574,
      "happiness": 3575,
      "observed": 3576,
      "gest": 3577,
      "mere": 3578,
      "mill": 3579,
      "nar": 3580,
      "##âche": 3581,
      "loved": 3582,
      "speaking": 3583,
      "pâle": 3584,
      "Did": 3585,
      "hés": 3586,
      "##ises": 3587,
      "##acre": 3588,
      "pourrait": 3589,
      "Quelle": 3590,
      "trouvé": 3591,
      "haute": 3592,
      "ouvrit": 3593,
      "forgot": 3594,
      "messieurs": 3595,
      "ayant": 3596,
      "Are": 3597,
      "Dep": 3598,
      "Te": 3599,
      "dos": 3600,
      "fol": 3601,
      "hé": 3602,
      "miss": 3603,
      "vivement": 3604,
      "shore": 3605,
      "##onnes": 3606,
      "presence": 3607,
      "incre": 3608,
      "horrible": 3609,
      "village": 3610,
      "mouvement": 3611,
      "Main": 3612,
      "noble": 3613,
      "sombre": 3614,
      "strength": 3615,
      "professeur": 3616,
      "extraord": 3617,
      "vict": 3618,
      "chien": 3619,
      "##sib": 3620,
      "malheur": 3621,
      "pub": 3622,
      "raised": 3623,
      "trees": 3624,
      "Have": 3625,
      "THE": 3626,
      "juge": 3627,
      "vess": 3628,
      "##pl": 3629,
      "Jehan": 3630,
      "noise": 3631,
      "Majest": 3632,
      "##oncer": 3633,
      "easy": 3634,
      "vague": 3635,
      "##aquin": 3636,
      "business": 3637,
      "natural": 3638,
      "Rien": 3639,
      "##uil": 3640,
      "##rier": 3641,
      "duc": 3642,
      "abbé": 3643,
      "grav": 3644,
      "carriage": 3645,
      "départ": 3646,
      "considér": 3647,
      "pretty": 3648,
      "Maintenant": 3649,
      "public": 3650,
      "Sh": 3651,
      "river": 3652,
      "sout": 3653,
      "send": 3654,
      "##suite": 3655,
      "##erable": 3656,
      "truth": 3657,
      "allons": 3658,
      "effect": 3659,
      "veut": 3660,
      "##entement": 3661,
      "Allons": 3662,
      "walk": 3663,
      "oppos": 3664,
      "immob": 3665,
      "Will": 3666,
      "signe": 3667,
      "##raient": 3668,
      "##aped": 3669,
      "##acun": 3670,
      "commenc": 3671,
      "diable": 3672,
      "morrow": 3673,
      "entra": 3674,
      "bread": 3675,
      "?...": 3676,
      "Es": 3677,
      "Où": 3678,
      "equ": 3679,
      "roug": 3680,
      "sin": 3681,
      "van": 3682,
      "##oly": 3683,
      "##lu": 3684,
      "##stances": 3685,
      "##iced": 3686,
      "Lev": 3687,
      "spir": 3688,
      "##ettait": 3689,
      "attendait": 3690,
      "broken": 3691,
      "aperce": 3692,
      "##where": 3693,
      "basse": 3694,
      "laid": 3695,
      "sel": 3696,
      "##ios": 3697,
      "##nel": 3698,
      "##ously": 3699,
      "##eté": 3700,
      "neigh": 3701,
      "atte": 3702,
      "##arde": 3703,
      "ext": 3704,
      "except": 3705,
      "alla": 3706,
      "##ize": 3707,
      "Nothing": 3708,
      "standing": 3709,
      "Raquin": 3710,
      "cart": 3711,
      "pense": 3712,
      "tel": 3713,
      "##eun": 3714,
      "##iné": 3715,
      "##rig": 3716,
      "##stance": 3717,
      "produ": 3718,
      "seems": 3719,
      "closed": 3720,
      "sentait": 3721,
      "However": 3722,
      "single": 3723,
      "jeta": 3724,
      "Buck": 3725,
      "Hom": 3726,
      "cuis": 3727,
      "fair": 3728,
      "tap": 3729,
      "##ON": 3730,
      "##çons": 3731,
      "law": 3732,
      "##iling": 3733,
      "asc": 3734,
      "march": 3735,
      "malgré": 3736,
      "puisque": 3737,
      "Prudence": 3738,
      "camar": 3739,
      "##té": 3740,
      "chasse": 3741,
      "##aven": 3742,
      "##itting": 3743,
      "prevent": 3744,
      "Là": 3745,
      "warm": 3746,
      "##îmes": 3747,
      "libert": 3748,
      "##onté": 3749,
      "##ièrement": 3750,
      "attent": 3751,
      "box": 3752,
      "bouche": 3753,
      "égl": 3754,
      "midi": 3755,
      "Prof": 3756,
      "burst": 3757,
      "##ush": 3758,
      "exh": 3759,
      "doig": 3760,
      "##....": 3761,
      "##aled": 3762,
      "direct": 3763,
      "Claude": 3764,
      "Lyd": 3765,
      "fing": 3766,
      "ine": 3767,
      "##ote": 3768,
      "##rée": 3769,
      "##hors": 3770,
      "##ury": 3771,
      "neither": 3772,
      "spite": 3773,
      "juste": 3774,
      "servant": 3775,
      "heavy": 3776,
      "embarrass": 3777,
      "Jup": 3778,
      "Moi": 3779,
      "Verri": 3780,
      "cord": 3781,
      "dame": 3782,
      "hast": 3783,
      "avions": 3784,
      "répli": 3785,
      "prépar": 3786,
      "déjeun": 3787,
      "fight": 3788,
      "équ": 3789,
      "##lish": 3790,
      "deal": 3791,
      "##rie": 3792,
      "prot": 3793,
      "passait": 3794,
      "cost": 3795,
      "Quoi": 3796,
      "inconn": 3797,
      "Winter": 3798,
      "gai": 3799,
      "lim": 3800,
      "##reur": 3801,
      "quelqu": 3802,
      "aura": 3803,
      "voyez": 3804,
      "across": 3805,
      "midst": 3806,
      "despair": 3807,
      "slowly": 3808,
      ",−−": 3809,
      "cand": 3810,
      "caught": 3811,
      "telle": 3812,
      "tete": 3813,
      "##sou": 3814,
      "leaving": 3815,
      "##ounds": 3816,
      "complet": 3817,
      "demandai": 3818,
      "board": 3819,
      "parlait": 3820,
      "depth": 3821,
      "suivre": 3822,
      "##léch": 3823,
      "steps": 3824,
      "bottom": 3825,
      "Mademoiselle": 3826,
      "Lors": 3827,
      "ray": 3828,
      "smo": 3829,
      "##ita": 3830,
      "seized": 3831,
      "##tern": 3832,
      "forward": 3833,
      "saut": 3834,
      "manière": 3835,
      "##ustom": 3836,
      "faite": 3837,
      "signal": 3838,
      "perdre": 3839,
      "fil": 3840,
      "hy": 3841,
      "##ities": 3842,
      "écrit": 3843,
      "clo": 3844,
      "chem": 3845,
      "account": 3846,
      "belong": 3847,
      "ach": 3848,
      "pun": 3849,
      "vale": 3850,
      "##lant": 3851,
      "##form": 3852,
      "passe": 3853,
      "##acter": 3854,
      "cell": 3855,
      "distr": 3856,
      "chevaux": 3857,
      "aperçut": 3858,
      "sûr": 3859,
      "disappeared": 3860,
      "Mart": 3861,
      "aid": 3862,
      "ring": 3863,
      "##fs": 3864,
      "##alais": 3865,
      "blow": 3866,
      "##ussent": 3867,
      "transport": 3868,
      "Montsou": 3869,
      "oeil": 3870,
      "Professor": 3871,
      "Deux": 3872,
      "##èle": 3873,
      "##ison": 3874,
      "##ites": 3875,
      "enj": 3876,
      "plain": 3877,
      "##amm": 3878,
      "marche": 3879,
      "termin": 3880,
      "letters": 3881,
      "foule": 3882,
      "Levaque": 3883,
      "##romp": 3884,
      "##ril": 3885,
      "##onde": 3886,
      "épaul": 3887,
      "endroit": 3888,
      "justice": 3889,
      "##ceeded": 3890,
      "fish": 3891,
      "##AR": 3892,
      "##omme": 3893,
      "##ingham": 3894,
      "##acon": 3895,
      "state": 3896,
      "ouver": 3897,
      "##itted": 3898,
      "lettres": 3899,
      "fixed": 3900,
      "sépar": 3901,
      "darkness": 3902,
      "evident": 3903,
      "obliged": 3904,
      "drawing": 3905,
      "Jamais": 3906,
      "vig": 3907,
      "neuf": 3908,
      "concl": 3909,
      "triste": 3910,
      "##illed": 3911,
      "arrivé": 3912,
      "surprised": 3913,
      "inquiét": 3914,
      "ensemble": 3915,
      "rage": 3916,
      "##mple": 3917,
      "aud": 3918,
      "décl": 3919,
      "réveill": 3920,
      "dog": 3921,
      "regardant": 3922,
      "shoulders": 3923,
      "Comp": 3924,
      "entendit": 3925,
      "escalier": 3926,
      "véritable": 3927,
      "decided": 3928,
      "London": 3929,
      "quickly": 3930,
      "covered": 3931,
      "Val": 3932,
      "ele": 3933,
      "##rant": 3934,
      "##mi": 3935,
      "thé": 3936,
      "comes": 3937,
      "church": 3938,
      "##amment": 3939,
      "thoughts": 3940,
      "step": 3941,
      "following": 3942,
      "présence": 3943,
      "vivre": 3944,
      "Henne": 3945,
      "ait": 3946,
      "wild": 3947,
      "épr": 3948,
      "##rois": 3949,
      "meille": 3950,
      "cloth": 3951,
      "cré": 3952,
      "revint": 3953,
      "drink": 3954,
      "talking": 3955,
      "navire": 3956,
      "debout": 3957,
      "rempl": 3958,
      "bag": 3959,
      "chant": 3960,
      "##amed": 3961,
      "attach": 3962,
      "questions": 3963,
      "subject": 3964,
      "escape": 3965,
      "murmured": 3966,
      "Depuis": 3967,
      "Buckingham": 3968,
      "##aded": 3969,
      "##llement": 3970,
      "asse": 3971,
      "living": 3972,
      "##avantage": 3973,
      "brû": 3974,
      "regarder": 3975,
      "volcan": 3976,
      "watch": 3977,
      "épaules": 3978,
      "Louis": 3979,
      "lie": 3980,
      "porter": 3981,
      "##ned": 3982,
      "##ES": 3983,
      "##outer": 3984,
      "thick": 3985,
      "##alous": 3986,
      "##isted": 3987,
      "importe": 3988,
      "remain": 3989,
      "##onnement": 3990,
      "knows": 3991,
      "curios": 3992,
      "nearly": 3993,
      "Peut": 3994,
      "mauvais": 3995,
      "Was": 3996,
      "cad": 3997,
      "hes": 3998,
      "##iait": 3999,
      "uns": 4000,
      "stop": 4001,
      "try": 4002,
      "##essed": 4003,
      "coast": 4004,
      "....": 4005,
      "sortit": 4006,
      "broke": 4007,
      "Canadian": 4008,
      "King": 4009,
      "bit": 4010,
      "pouvez": 4011,
      "##uir": 4012,
      "motion": 4013,
      "##minence": 4014,
      "imagination": 4015,
      "horses": 4016,
      "général": 4017,
      "hôtel": 4018,
      "Don": 4019,
      "er": 4020,
      "ombre": 4021,
      "rang": 4022,
      "##ança": 4023,
      "charge": 4024,
      "March": 4025,
      "sometimes": 4026,
      "news": 4027,
      "profonde": 4028,
      "running": 4029,
      "mourir": 4030,
      "Hennebeau": 4031,
      "ed": 4032,
      "##ging": 4033,
      "##esc": 4034,
      "##inary": 4035,
      "##entes": 4036,
      "attemp": 4037,
      "affection": 4038,
      "breath": 4039,
      "Tré": 4040,
      "mut": 4041,
      "tom": 4042,
      "inj": 4043,
      "ant": 4044,
      "Marquis": 4045,
      "voyant": 4046,
      "finished": 4047,
      "Perhaps": 4048,
      "cinquante": 4049,
      "vessel": 4050,
      "Homais": 4051,
      "Voy": 4052,
      "davantage": 4053,
      "hot": 4054,
      "##iacre": 4055,
      "##any": 4056,
      "##cep": 4057,
      "canot": 4058,
      "courant": 4059,
      "effray": 4060,
      "interromp": 4061,
      "fini": 4062,
      "donna": 4063,
      "##arcely": 4064,
      "success": 4065,
      "Canadien": 4066,
      "église": 4067,
      "hop": 4068,
      "piè": 4069,
      "##ètres": 4070,
      "formed": 4071,
      "##urez": 4072,
      "comple": 4073,
      "afin": 4074,
      "merc": 4075,
      "promen": 4076,
      "tomber": 4077,
      "##oured": 4078,
      "##ator": 4079,
      "relev": 4080,
      "##sive": 4081,
      "Gide": 4082,
      "##étr": 4083,
      "##hip": 4084,
      "lean": 4085,
      "paraissait": 4086,
      "plateau": 4087,
      "##aced": 4088,
      "##olphe": 4089,
      "story": 4090,
      "arbres": 4091,
      "abbe": 4092,
      "##cious": 4093,
      "faith": 4094,
      "instants": 4095,
      "distur": 4096,
      "##venture": 4097,
      "drag": 4098,
      "réfléch": 4099,
      "obscur": 4100,
      "Gideon": 4101,
      "Some": 4102,
      "Wats": 4103,
      "##iller": 4104,
      "allow": 4105,
      "colle": 4106,
      "##issaient": 4107,
      "resol": 4108,
      "veille": 4109,
      "depart": 4110,
      "entire": 4111,
      "listened": 4112,
      "déjeuner": 4113,
      "Watson": 4114,
      "XX": 4115,
      "book": 4116,
      "##antly": 4117,
      "##head": 4118,
      "repris": 4119,
      "traî": 4120,
      "foi": 4121,
      "genoux": 4122,
      "faud": 4123,
      "giving": 4124,
      "mach": 4125,
      "##lais": 4126,
      "threw": 4127,
      "avis": 4128,
      "liv": 4129,
      "cris": 4130,
      "indiff": 4131,
      "absence": 4132,
      "hardly": 4133,
      "revenir": 4134,
      "Bel": 4135,
      "free": 4136,
      "filles": 4137,
      "pere": 4138,
      "##aie": 4139,
      "##uré": 4140,
      "top": 4141,
      "seven": 4142,
      "##ilos": 4143,
      "##ande": 4144,
      "sujet": 4145,
      "sharp": 4146,
      "##mbled": 4147,
      "repos": 4148,
      "journey": 4149,
      "pouvais": 4150,
      "relig": 4151,
      "wrong": 4152,
      "comprendre": 4153,
      "understood": 4154,
      "forget": 4155,
      "##oureux": 4156,
      "quinze": 4157,
      "gauche": 4158,
      "ress": 4159,
      "##rine": 4160,
      "##la": 4161,
      "##gne": 4162,
      "##ensible": 4163,
      "##ires": 4164,
      "tromp": 4165,
      "monter": 4166,
      "clim": 4167,
      "retir": 4168,
      "floor": 4169,
      "priv": 4170,
      "filled": 4171,
      "discuss": 4172,
      "write": 4173,
      "difficile": 4174,
      "grew": 4175,
      "waves": 4176,
      "##bing": 4177,
      "##inet": 4178,
      "##atter": 4179,
      "##tez": 4180,
      "avent": 4181,
      "attr": 4182,
      "##osph": 4183,
      "pock": 4184,
      "serious": 4185,
      "compt": 4186,
      "glance": 4187,
      "sentiment": 4188,
      "speed": 4189,
      "please": 4190,
      "calcul": 4191,
      "occur": 4192,
      "irrit": 4193,
      "companion": 4194,
      "Rodolphe": 4195,
      "Rou": 4196,
      "kill": 4197,
      "##son": 4198,
      "##hab": 4199,
      "##elopp": 4200,
      "##angers": 4201,
      "##ifique": 4202,
      "champ": 4203,
      "apres": 4204,
      "abandonn": 4205,
      "shouted": 4206,
      "week": 4207,
      "Mus": 4208,
      "fan": 4209,
      "##uff": 4210,
      "##ias": 4211,
      "##anches": 4212,
      "##atic": 4213,
      "terror": 4214,
      "corner": 4215,
      "visite": 4216,
      "honour": 4217,
      "sweet": 4218,
      "Treville": 4219,
      "Tréville": 4220,
      "Go": 4221,
      "bank": 4222,
      "##OU": 4223,
      "dehors": 4224,
      "plat": 4225,
      "##ishment": 4226,
      "circum": 4227,
      "mistress": 4228,
      "Martin": 4229,
      "Nor": 4230,
      "Toute": 4231,
      "age": 4232,
      "action": 4233,
      "hid": 4234,
      "jardin": 4235,
      "##fer": 4236,
      "##pit": 4237,
      "##ît": 4238,
      "##ingly": 4239,
      "##illy": 4240,
      "allum": 4241,
      "##liv": 4242,
      "##ively": 4243,
      "devoir": 4244,
      "impr": 4245,
      "below": 4246,
      "propre": 4247,
      "rapidement": 4248,
      "pardon": 4249,
      "beginning": 4250,
      "English": 4251,
      "getting": 4252,
      "mag": 4253,
      "pic": 4254,
      "##ds": 4255,
      "##EN": 4256,
      "##AN": 4257,
      "##jets": 4258,
      "##ari": 4259,
      "stone": 4260,
      "trente": 4261,
      "future": 4262,
      "regards": 4263,
      "arrive": 4264,
      "strugg": 4265,
      "emport": 4266,
      "rappel": 4267,
      "vraiment": 4268,
      "certainement": 4269,
      "taille": 4270,
      "énor": 4271,
      "##oes": 4272,
      "##fast": 4273,
      "##aind": 4274,
      "##ones": 4275,
      "toward": 4276,
      "neck": 4277,
      "parle": 4278,
      "déch": 4279,
      "scarcely": 4280,
      "idées": 4281,
      "nouvelles": 4282,
      "contraire": 4283,
      "violent": 4284,
      "##érieure": 4285,
      "##ilosop": 4286,
      "Cont": 4287,
      "Rass": 4288,
      "aig": 4289,
      "##IN": 4290,
      "##br": 4291,
      "##cean": 4292,
      "unc": 4293,
      "mem": 4294,
      "chaise": 4295,
      "##aph": 4296,
      "shop": 4297,
      "lived": 4298,
      "diam": 4299,
      "secou": 4300,
      "préf": 4301,
      "view": 4302,
      "donnait": 4303,
      "accompagn": 4304,
      "utter": 4305,
      "paper": 4306,
      "easily": 4307,
      "school": 4308,
      "maîtresse": 4309,
      "Che": 4310,
      "bât": 4311,
      "vin": 4312,
      "former": 4313,
      "##esses": 4314,
      "seem": 4315,
      "character": 4316,
      "Two": 4317,
      "Car": 4318,
      "furn": 4319,
      "pot": 4320,
      "##pent": 4321,
      "##êtes": 4322,
      "showed": 4323,
      "##ency": 4324,
      "faisant": 4325,
      "##while": 4326,
      "princip": 4327,
      "Jac": 4328,
      "ha": 4329,
      "hang": 4330,
      "sem": 4331,
      "parc": 4332,
      "chacun": 4333,
      "moved": 4334,
      "siè": 4335,
      "appuy": 4336,
      "arrivée": 4337,
      "rocks": 4338,
      "wonder": 4339,
      "Cet": 4340,
      "Mou": 4341,
      "##iance": 4342,
      "##dain": 4343,
      "##ara": 4344,
      "##irard": 4345,
      "reine": 4346,
      "prêtre": 4347,
      "different": 4348,
      "rejo": 4349,
      "Dame": 4350,
      "Monse": 4351,
      "fis": 4352,
      "fash": 4353,
      "##uie": 4354,
      "##nent": 4355,
      "##êter": 4356,
      "##eries": 4357,
      "##eneur": 4358,
      "##quette": 4359,
      "whis": 4360,
      "gold": 4361,
      "phys": 4362,
      "philosop": 4363,
      "Voici": 4364,
      "combien": 4365,
      "sacrif": 4366,
      "spectacle": 4367,
      "Monseigneur": 4368,
      "Bien": 4369,
      "loud": 4370,
      "mel": 4371,
      "path": 4372,
      "##ivers": 4373,
      "##aight": 4374,
      "##asc": 4375,
      "##ript": 4376,
      "sear": 4377,
      "forest": 4378,
      "desire": 4379,
      "amus": 4380,
      "gran": 4381,
      "##ords": 4382,
      "caract": 4383,
      "French": 4384,
      "laissa": 4385,
      "mariage": 4386,
      "violence": 4387,
      "##III": 4388,
      "appearance": 4389,
      "fifty": 4390,
      "environ": 4391,
      "bateau": 4392,
      "nour": 4393,
      "##tte": 4394,
      "réser": 4395,
      "docteur": 4396,
      "passing": 4397,
      "straight": 4398,
      "entendait": 4399,
      "heads": 4400,
      "garden": 4401,
      "Stap": 4402,
      "seconde": 4403,
      "malheureux": 4404,
      "bare": 4405,
      "fum": 4406,
      "rare": 4407,
      "##rain": 4408,
      "pours": 4409,
      "shad": 4410,
      "appart": 4411,
      "cheve": 4412,
      "glad": 4413,
      "approach": 4414,
      "extrem": 4415,
      "mousquet": 4416,
      "Rasseneur": 4417,
      "DE": 4418,
      "##aust": 4419,
      "##zy": 4420,
      "##irt": 4421,
      "bell": 4422,
      "##imer": 4423,
      "##ulf": 4424,
      "##idemment": 4425,
      "intro": 4426,
      "coin": 4427,
      "consent": 4428,
      "malade": 4429,
      "incident": 4430,
      "portait": 4431,
      "##ouda": 4432,
      "droite": 4433,
      "excellent": 4434,
      "Master": 4435,
      "sli": 4436,
      "éte": 4437,
      "decl": 4438,
      "lack": 4439,
      "seated": 4440,
      "ard": 4441,
      "dois": 4442,
      "##elled": 4443,
      "##istance": 4444,
      "##itty": 4445,
      "waited": 4446,
      "company": 4447,
      "watched": 4448,
      "circon": 4449,
      "Our": 4450,
      "line": 4451,
      "##nt": 4452,
      "##lers": 4453,
      "##aft": 4454,
      "##urt": 4455,
      "##éré": 4456,
      "soupir": 4457,
      "indi": 4458,
      "entraî": 4459,
      "inform": 4460,
      "Jeanlin": 4461,
      "thirty": 4462,
      ",--": 4463,
      "Mort": 4464,
      "geste": 4465,
      "mou": 4466,
      "mir": 4467,
      "enth": 4468,
      "##cture": 4469,
      "##geois": 4470,
      "amb": 4471,
      "poit": 4472,
      "exper": 4473,
      "flam": 4474,
      "premiers": 4475,
      "Quelques": 4476,
      "Harrison": 4477,
      "faim": 4478,
      "favor": 4479,
      "street": 4480,
      "Bask": 4481,
      "Sc": 4482,
      "ban": 4483,
      "den": 4484,
      "lune": 4485,
      "lentement": 4486,
      "none": 4487,
      "##âteau": 4488,
      "inut": 4489,
      "separ": 4490,
      "##iennes": 4491,
      "chang": 4492,
      "atm": 4493,
      "trouve": 4494,
      "##ested": 4495,
      "##ateur": 4496,
      "douleur": 4497,
      "épouv": 4498,
      "assass": 4499,
      "dessous": 4500,
      "Aouda": 4501,
      "fier": 4502,
      "nord": 4503,
      "##arie": 4504,
      "auprès": 4505,
      "délic": 4506,
      "##itement": 4507,
      "serai": 4508,
      "penser": 4509,
      "portrait": 4510,
      "voudrais": 4511,
      "impatience": 4512,
      "répliqua": 4513,
      "fashion": 4514,
      "lis": 4515,
      "##oque": 4516,
      "##nait": 4517,
      "##night": 4518,
      "mange": 4519,
      "impression": 4520,
      "grandes": 4521,
      "épau": 4522,
      "heureuse": 4523,
      "déja": 4524,
      "laughing": 4525,
      "hung": 4526,
      "particul": 4527,
      "oreille": 4528,
      "fé": 4529,
      "jug": 4530,
      "rav": 4531,
      "##vet": 4532,
      "##vec": 4533,
      "##ctions": 4534,
      "inté": 4535,
      "resse": 4536,
      "##udes": 4537,
      "##udent": 4538,
      "assis": 4539,
      "influ": 4540,
      "sky": 4541,
      "charming": 4542,
      "important": 4543,
      "retrouver": 4544,
      "hyp": 4545,
      "cheveux": 4546,
      "bais": 4547,
      "baiss": 4548,
      "gouver": 4549,
      "pont": 4550,
      "sinc": 4551,
      "##maud": 4552,
      "##field": 4553,
      "##ids": 4554,
      "##icul": 4555,
      "sug": 4556,
      "##ueil": 4557,
      "libre": 4558,
      "##dec": 4559,
      "ago": 4560,
      "married": 4561,
      "travaill": 4562,
      "officer": 4563,
      "anxi": 4564,
      "colonists": 4565,
      "creature": 4566,
      "dressed": 4567,
      "hu": 4568,
      "##éch": 4569,
      "chape": 4570,
      "##uill": 4571,
      "weak": 4572,
      "apport": 4573,
      "stranger": 4574,
      "silenc": 4575,
      "##ounced": 4576,
      "rapport": 4577,
      "waters": 4578,
      "Grimaud": 4579,
      "fatigue": 4580,
      "dû": 4581,
      "hall": 4582,
      "late": 4583,
      "pous": 4584,
      "élé": 4585,
      "##way": 4586,
      "##ailles": 4587,
      "##érable": 4588,
      "spot": 4589,
      "instinct": 4590,
      "différ": 4591,
      "Plus": 4592,
      "commençait": 4593,
      "Nap": 4594,
      "cours": 4595,
      "##rage": 4596,
      "##bor": 4597,
      "##istre": 4598,
      "lac": 4599,
      "ensuite": 4600,
      "shook": 4601,
      "peup": 4602,
      "outside": 4603,
      "respir": 4604,
      "science": 4605,
      "reflect": 4606,
      "support": 4607,
      "steam": 4608,
      "knees": 4609,
      "tomba": 4610,
      "bourgeois": 4611,
      "XI": 4612,
      "couv": 4613,
      "dents": 4614,
      "œil": 4615,
      "##âtre": 4616,
      "##leton": 4617,
      "stro": 4618,
      "accident": 4619,
      "pleine": 4620,
      "uttered": 4621,
      "rising": 4622,
      "number": 4623,
      "Baskerville": 4624,
      "000": 4625,
      "Pirard": 4626,
      "ber": 4627,
      "bound": 4628,
      "nine": 4629,
      "pity": 4630,
      "##lot": 4631,
      "##éne": 4632,
      "##eres": 4633,
      "##alth": 4634,
      "chap": 4635,
      "##lier": 4636,
      "pouvaient": 4637,
      "laissé": 4638,
      "address": 4639,
      "middle": 4640,
      "plaisant": 4641,
      "quarante": 4642,
      "mountain": 4643,
      "bor": 4644,
      "pend": 4645,
      "##rade": 4646,
      "throw": 4647,
      "##ares": 4648,
      "##oral": 4649,
      "##irait": 4650,
      "queen": 4651,
      "##though": 4652,
      "disant": 4653,
      "livre": 4654,
      "teeth": 4655,
      "##ifs": 4656,
      "##itten": 4657,
      "écriai": 4658,
      "becom": 4659,
      "approached": 4660,
      "espoir": 4661,
      "retrouv": 4662,
      "impatient": 4663,
      "éprouv": 4664,
      "Cr": 4665,
      "dam": 4666,
      "por": 4667,
      "rain": 4668,
      "##bs": 4669,
      "##çant": 4670,
      "##ila": 4671,
      "##ending": 4672,
      "noticed": 4673,
      "intérieur": 4674,
      "shoulder": 4675,
      "arrach": 4676,
      "parfaitement": 4677,
      "Of": 4678,
      "gout": 4679,
      "threat": 4680,
      "##anse": 4681,
      "##inait": 4682,
      "meant": 4683,
      "prend": 4684,
      "sau": 4685,
      "soin": 4686,
      "arrange": 4687,
      "noire": 4688,
      "##érêt": 4689,
      "cler": 4690,
      "##ishop": 4691,
      "découver": 4692,
      "habitude": 4693,
      "suivant": 4694,
      "simply": 4695,
      "médec": 4696,
      "duty": 4697,
      "brusquement": 4698,
      "forgotten": 4699,
      "poursui": 4700,
      "Long": 4701,
      "harp": 4702,
      "série": 4703,
      "war": 4704,
      "##ued": 4705,
      "##rase": 4706,
      "##onter": 4707,
      "##ald": 4708,
      "unh": 4709,
      "parmi": 4710,
      "plant": 4711,
      "soft": 4712,
      "touch": 4713,
      "assure": 4714,
      "compagnon": 4715,
      "started": 4716,
      "Ed": 4717,
      "gy": 4718,
      "killed": 4719,
      "mét": 4720,
      "rushed": 4721,
      "vast": 4722,
      "##tead": 4723,
      "##icts": 4724,
      "sud": 4725,
      "intérêt": 4726,
      "prep": 4727,
      "Only": 4728,
      "consult": 4729,
      "sentit": 4730,
      "morce": 4731,
      "ordinaire": 4732,
      "guard": 4733,
      "##iction": 4734,
      "condition": 4735,
      "reconnaître": 4736,
      "imagine": 4737,
      "breakfast": 4738,
      "##céan": 4739,
      "poitrine": 4740,
      "Kitty": 4741,
      "hier": 4742,
      "mu": 4743,
      "##kete": 4744,
      "##IS": 4745,
      "##ining": 4746,
      "unique": 4747,
      "##agé": 4748,
      "Armand": 4749,
      "arrière": 4750,
      "common": 4751,
      "orders": 4752,
      "brig": 4753,
      "beside": 4754,
      "rappro": 4755,
      "ideas": 4756,
      "inex": 4757,
      "inconnu": 4758,
      "enjoy": 4759,
      "Mich": 4760,
      "har": 4761,
      "ocean": 4762,
      "##yond": 4763,
      "##bo": 4764,
      "##oned": 4765,
      "ennem": 4766,
      "aspect": 4767,
      "Their": 4768,
      "rob": 4769,
      "marry": 4770,
      "affre": 4771,
      "interro": 4772,
      "suppos": 4773,
      "honor": 4774,
      "difficulty": 4775,
      "exec": 4776,
      "completely": 4777,
      "May": 4778,
      "cit": 4779,
      "dread": 4780,
      "sense": 4781,
      "##elve": 4782,
      "beyond": 4783,
      "##vern": 4784,
      "plate": 4785,
      "allowed": 4786,
      "intention": 4787,
      "obé": 4788,
      "empty": 4789,
      "parlé": 4790,
      "faisaient": 4791,
      "connais": 4792,
      "walking": 4793,
      "magnific": 4794,
      "absolument": 4795,
      "Muskete": 4796,
      "Fair": 4797,
      "enem": 4798,
      "gun": 4799,
      "jamb": 4800,
      "ladd": 4801,
      "changed": 4802,
      "trom": 4803,
      "##ffe": 4804,
      "blue": 4805,
      "usual": 4806,
      "spl": 4807,
      "aimer": 4808,
      "convicts": 4809,
      "written": 4810,
      "papier": 4811,
      "domestique": 4812,
      "field": 4813,
      "purs": 4814,
      "##yez": 4815,
      "##hor": 4816,
      "##ony": 4817,
      "##rice": 4818,
      "desert": 4819,
      "moor": 4820,
      "pop": 4821,
      "##psy": 4822,
      "interrup": 4823,
      "espère": 4824,
      "walls": 4825,
      "third": 4826,
      "épaule": 4827,
      "Av": 4828,
      "fant": 4829,
      "##va": 4830,
      "##âch": 4831,
      "leag": 4832,
      "beat": 4833,
      "anger": 4834,
      "##unate": 4835,
      "lose": 4836,
      "profound": 4837,
      "ladies": 4838,
      "further": 4839,
      "immobile": 4840,
      "pocket": 4841,
      "atmosph": 4842,
      "Mal": 4843,
      "Rue": 4844,
      "ali": 4845,
      "mention": 4846,
      "##ech": 4847,
      "##ob": 4848,
      "quant": 4849,
      "##uted": 4850,
      "friss": 4851,
      "##uish": 4852,
      "affir": 4853,
      "ferme": 4854,
      "arrivait": 4855,
      "fallen": 4856,
      "movement": 4857,
      "campagne": 4858,
      "pénétr": 4859,
      "motionless": 4860,
      "Stapleton": 4861,
      "influence": 4862,
      "Hél": 4863,
      "Pac": 4864,
      "Wick": 4865,
      "oise": 4866,
      "pa": 4867,
      "pus": 4868,
      "âge": 4869,
      "##upe": 4870,
      "##ories": 4871,
      "##veille": 4872,
      "forêt": 4873,
      "avo": 4874,
      "exéc": 4875,
      "serais": 4876,
      "craign": 4877,
      "prec": 4878,
      "##érieux": 4879,
      "windows": 4880,
      "Wickham": 4881,
      "Zach": 4882,
      "bons": 4883,
      "cess": 4884,
      "##atures": 4885,
      "shock": 4886,
      "lik": 4887,
      "agree": 4888,
      "agré": 4889,
      "log": 4890,
      "venge": 4891,
      "autrefois": 4892,
      "sentiments": 4893,
      "guide": 4894,
      "savais": 4895,
      "centre": 4896,
      "ouvrir": 4897,
      "expected": 4898,
      "particular": 4899,
      "Zacharie": 4900,
      "Bess": 4901,
      "During": 4902,
      "mai": 4903,
      "med": 4904,
      "tall": 4905,
      "##vit": 4906,
      "##mit": 4907,
      "weather": 4908,
      "##aches": 4909,
      "class": 4910,
      "prév": 4911,
      "greatly": 4912,
      "pensait": 4913,
      "host": 4914,
      "approcha": 4915,
      "hauteur": 4916,
      "accompl": 4917,
      "Lydia": 4918,
      "##umes": 4919,
      "##œbus": 4920,
      "enorm": 4921,
      "asleep": 4922,
      "moitié": 4923,
      "station": 4924,
      "franch": 4925,
      "fever": 4926,
      "doctor": 4927,
      "prol": 4928,
      "compli": 4929,
      "flow": 4930,
      "consc": 4931,
      "engage": 4932,
      "besides": 4933,
      "Phoe": 4934,
      "Phœbus": 4935,
      "##gram": 4936,
      "general": 4937,
      "perfectly": 4938,
      "astonished": 4939,
      "Phoebus": 4940,
      "pil": 4941,
      "sab": 4942,
      "##uvre": 4943,
      "##isément": 4944,
      "étouff": 4945,
      "##terday": 4946,
      "prenait": 4947,
      "note": 4948,
      "##oires": 4949,
      "spent": 4950,
      "express": 4951,
      "baron": 4952,
      "aimait": 4953,
      "conditions": 4954,
      "##umeur": 4955,
      "camarades": 4956,
      "Bessie": 4957,
      "Ax": 4958,
      "Merc": 4959,
      "kil": 4960,
      "morte": 4961,
      "##ué": 4962,
      "##itch": 4963,
      "compris": 4964,
      "proud": 4965,
      "##theless": 4966,
      "cloud": 4967,
      "Aronn": 4968,
      "##rég": 4969,
      "envie": 4970,
      "counten": 4971,
      "excuse": 4972,
      "concern": 4973,
      "témo": 4974,
      "spirit": 4975,
      "jambes": 4976,
      "Axel": 4977,
      "Aronnax": 4978,
      "Would": 4979,
      "ner": 4980,
      "##ses": 4981,
      "##gment": 4982,
      "##more": 4983,
      "##ically": 4984,
      "dém": 4985,
      "clos": 4986,
      "twelve": 4987,
      "flots": 4988,
      "New": 4989,
      "affaires": 4990,
      "écrire": 4991,
      "endorm": 4992,
      "##etty": 4993,
      "arrêter": 4994,
      "Franc": 4995,
      "sembla": 4996,
      "dépl": 4997,
      "années": 4998,
      "listen": 4999,
      "jolie": 5000,
      "perceived": 5001,
      "narrow": 5002,
      "self": 5003,
      "##aindre": 5004,
      "Mes": 5005,
      "dare": 5006,
      "ears": 5007,
      "éb": 5008,
      "##ls": 5009,
      "##eness": 5010,
      "##oration": 5011,
      "##tect": 5012,
      "chaud": 5013,
      "party": 5014,
      "obten": 5015,
      "confess": 5016,
      "phrase": 5017,
      "promise": 5018,
      "##under": 5019,
      "absor": 5020,
      "settlers": 5021,
      "smiled": 5022,
      "hesit": 5023,
      "Gener": 5024,
      "Souv": 5025,
      "pav": 5026,
      "rub": 5027,
      "##eurs": 5028,
      "##ca": 5029,
      "tow": 5030,
      "##rim": 5031,
      "pray": 5032,
      "retomb": 5033,
      "blanche": 5034,
      "accus": 5035,
      "époque": 5036,
      "##écile": 5037,
      "archid": 5038,
      "importance": 5039,
      "Coll": 5040,
      "doucement": 5041,
      "reçu": 5042,
      "désespoir": 5043,
      "learned": 5044,
      "Elles": 5045,
      "game": 5046,
      "##lock": 5047,
      "##co": 5048,
      "##pond": 5049,
      "determin": 5050,
      "##vey": 5051,
      "##aines": 5052,
      "comfort": 5053,
      "stream": 5054,
      "##icient": 5055,
      "peace": 5056,
      "##atever": 5057,
      "mademoiselle": 5058,
      "forty": 5059,
      "opening": 5060,
      "croyait": 5061,
      "probable": 5062,
      "gloom": 5063,
      "Avec": 5064,
      "harm": 5065,
      "paid": 5066,
      "pitié": 5067,
      "##met": 5068,
      "##ality": 5069,
      "grat": 5070,
      "couldn": 5071,
      "##appy": 5072,
      "commence": 5073,
      "##ogne": 5074,
      "prétend": 5075,
      "indic": 5076,
      "scene": 5077,
      "découv": 5078,
      "revol": 5079,
      "espè": 5080,
      "believed": 5081,
      "disparu": 5082,
      "pierre": 5083,
      "intelligence": 5084,
      "Ber": 5085,
      "Jus": 5086,
      "Look": 5087,
      "mér": 5088,
      "makes": 5089,
      "##fax": 5090,
      "##erci": 5091,
      "##ouille": 5092,
      "##ormed": 5093,
      "##pper": 5094,
      "ouvert": 5095,
      "chee": 5096,
      "##tained": 5097,
      "interv": 5098,
      "prisonn": 5099,
      "bright": 5100,
      "advanced": 5101,
      "drawn": 5102,
      "tirer": 5103,
      "latter": 5104,
      "purp": 5105,
      "chapeau": 5106,
      "Collins": 5107,
      "Luc": 5108,
      "bitter": 5109,
      "fly": 5110,
      "lé": 5111,
      "lou": 5112,
      "##lever": 5113,
      "lever": 5114,
      "##riers": 5115,
      "##ster": 5116,
      "storm": 5117,
      "marcher": 5118,
      "spread": 5119,
      "glac": 5120,
      "ferait": 5121,
      "##édi": 5122,
      "connaître": 5123,
      "observer": 5124,
      "suffis": 5125,
      "redou": 5126,
      "grief": 5127,
      "efforts": 5128,
      "empêcher": 5129,
      "clothes": 5130,
      "complete": 5131,
      "inutile": 5132,
      "enormous": 5133,
      "Sher": 5134,
      "apart": 5135,
      "font": 5136,
      "pir": 5137,
      "sigh": 5138,
      "##yre": 5139,
      "##ypt": 5140,
      "##right": 5141,
      "##terre": 5142,
      "chat": 5143,
      "moindre": 5144,
      "ceci": 5145,
      "##deacon": 5146,
      "lock": 5147,
      "espe": 5148,
      "##ancy": 5149,
      "##udd": 5150,
      "offer": 5151,
      "consol": 5152,
      "infin": 5153,
      "mépris": 5154,
      "lower": 5155,
      "mauvaise": 5156,
      "innoc": 5157,
      "communic": 5158,
      "Fairfax": 5159,
      "archidiacre": 5160,
      "Eur": 5161,
      "Stre": 5162,
      "fun": 5163,
      "mètres": 5164,
      "##uait": 5165,
      "##itre": 5166,
      "legs": 5167,
      "##ettes": 5168,
      "height": 5169,
      "##rock": 5170,
      "##quise": 5171,
      "beast": 5172,
      "projet": 5173,
      "##cially": 5174,
      "devint": 5175,
      "remont": 5176,
      "capable": 5177,
      "épous": 5178,
      "connaiss": 5179,
      "handsome": 5180,
      "Bec": 5181,
      "settled": 5182,
      "satisfaction": 5183,
      "caractère": 5184,
      "Mortimer": 5185,
      "Mercy": 5186,
      "\"'": 5187,
      "Ap": 5188,
      "Sire": 5189,
      "bond": 5190,
      "gate": 5191,
      "lire": 5192,
      "##nant": 5193,
      "##ork": 5194,
      "##riez": 5195,
      "chest": 5196,
      "stir": 5197,
      "poche": 5198,
      "brut": 5199,
      "##iled": 5200,
      "coucher": 5201,
      "marriage": 5202,
      "crut": 5203,
      "result": 5204,
      "##oyer": 5205,
      "possib": 5206,
      "fera": 5207,
      "attendant": 5208,
      "accep": 5209,
      "early": 5210,
      "beauty": 5211,
      "galop": 5212,
      "anxious": 5213,
      "cousin": 5214,
      "Rich": 5215,
      "Sign": 5216,
      "wine": 5217,
      "##ores": 5218,
      "inhab": 5219,
      "beaux": 5220,
      "##ters": 5221,
      "paraît": 5222,
      "##acked": 5223,
      "##osse": 5224,
      "blanc": 5225,
      "ourselves": 5226,
      "##acted": 5227,
      "personn": 5228,
      "évidemment": 5229,
      "événe": 5230,
      "honest": 5231,
      "grosse": 5232,
      "##lectric": 5233,
      "mistaken": 5234,
      "répéta": 5235,
      "étrang": 5236,
      "obscurité": 5237,
      "Cle": 5238,
      "Mary": 5239,
      "lue": 5240,
      "orig": 5241,
      "sle": 5242,
      "##LE": 5243,
      "##êque": 5244,
      "##omin": 5245,
      "bear": 5246,
      "forces": 5247,
      "saur": 5248,
      "##aked": 5249,
      "appare": 5250,
      "ended": 5251,
      "laissait": 5252,
      "descendre": 5253,
      "lieues": 5254,
      "archdeacon": 5255,
      "Barry": 5256,
      "mêmes": 5257,
      "sauver": 5258,
      "gypsy": 5259,
      "interrupted": 5260,
      "countenance": 5261,
      "Bl": 5262,
      "Ger": 5263,
      "##isions": 5264,
      "##ilt": 5265,
      "prudence": 5266,
      "surr": 5267,
      "arres": 5268,
      "##mbres": 5269,
      "##uisit": 5270,
      "robe": 5271,
      "offered": 5272,
      "guère": 5273,
      "rendez": 5274,
      "globe": 5275,
      "discovered": 5276,
      "sommeil": 5277,
      "Lorsque": 5278,
      "attempt": 5279,
      "sugg": 5280,
      "Had": 5281,
      "Hall": 5282,
      "cli": 5283,
      "caval": 5284,
      "hiver": 5285,
      "sitting": 5286,
      "##bon": 5287,
      "##leterre": 5288,
      "##omie": 5289,
      "doc": 5290,
      "coal": 5291,
      "gliss": 5292,
      "indign": 5293,
      "suivit": 5294,
      "froide": 5295,
      "compagnie": 5296,
      "officier": 5297,
      "admiration": 5298,
      "gazed": 5299,
      "strike": 5300,
      "##umph": 5301,
      "destin": 5302,
      "thrown": 5303,
      "Angleterre": 5304,
      "légère": 5305,
      "Yet": 5306,
      "ice": 5307,
      "pant": 5308,
      "ride": 5309,
      "vap": 5310,
      "writ": 5311,
      "##jor": 5312,
      "delic": 5313,
      "enchant": 5314,
      "##endar": 5315,
      "##ancer": 5316,
      "puisse": 5317,
      "##iana": 5318,
      "talked": 5319,
      "honte": 5320,
      "consider": 5321,
      "green": 5322,
      "England": 5323,
      "occurred": 5324,
      "Because": 5325,
      "ment": 5326,
      "rig": 5327,
      "wounded": 5328,
      "##vé": 5329,
      "réun": 5330,
      "report": 5331,
      "devaient": 5332,
      "quelquefois": 5333,
      "horreur": 5334,
      "contrary": 5335,
      "remarked": 5336,
      "commença": 5337,
      "rememb": 5338,
      "entirely": 5339,
      "Jacques": 5340,
      "vengeance": 5341,
      "Europe": 5342,
      "bent": 5343,
      "dry": 5344,
      "pê": 5345,
      "pict": 5346,
      "tôt": 5347,
      "wide": 5348,
      "##ners": 5349,
      "##light": 5350,
      "##get": 5351,
      "##come": 5352,
      "##zen": 5353,
      "##anis": 5354,
      "##ashed": 5355,
      "##oman": 5356,
      "##etr": 5357,
      "##érer": 5358,
      "##tended": 5359,
      "##ainement": 5360,
      "divers": 5361,
      "servir": 5362,
      "falling": 5363,
      "singular": 5364,
      "croyez": 5365,
      "quitté": 5366,
      "yesterday": 5367,
      "extreme": 5368,
      "increased": 5369,
      "Valen": 5370,
      "inexp": 5371,
      "Barrymore": 5372,
      "Ag": 5373,
      "Galais": 5374,
      "hide": 5375,
      "ligne": 5376,
      "pill": 5377,
      "treat": 5378,
      "wid": 5379,
      "##cation": 5380,
      "##homme": 5381,
      "forte": 5382,
      "allaient": 5383,
      "##assé": 5384,
      "blind": 5385,
      "accent": 5386,
      "chamber": 5387,
      "fallut": 5388,
      "lande": 5389,
      "cruel": 5390,
      "émotion": 5391,
      "burning": 5392,
      "suspic": 5393,
      "énorme": 5394,
      "extremely": 5395,
      "Valenod": 5396,
      "15": 5397,
      "Gu": 5398,
      "Sud": 5399,
      "gendar": 5400,
      "pure": 5401,
      "##of": 5402,
      "##occ": 5403,
      "##rist": 5404,
      "##kn": 5405,
      "##itait": 5406,
      "##ieusement": 5407,
      "appelle": 5408,
      "obey": 5409,
      "knock": 5410,
      "firm": 5411,
      "speech": 5412,
      "petites": 5413,
      "murder": 5414,
      "places": 5415,
      "laughed": 5416,
      "pleasant": 5417,
      "north": 5418,
      "opportun": 5419,
      "exactly": 5420,
      "nécessaire": 5421,
      "memory": 5422,
      "General": 5423,
      "Liz": 5424,
      "sand": 5425,
      "winter": 5426,
      "##rote": 5427,
      "nez": 5428,
      "##ulg": 5429,
      "trace": 5430,
      "poison": 5431,
      "coat": 5432,
      "knowing": 5433,
      "flat": 5434,
      "affair": 5435,
      "scr": 5436,
      "##ovic": 5437,
      "cadav": 5438,
      "pièce": 5439,
      "ressembl": 5440,
      "Pard": 5441,
      "West": 5442,
      "invent": 5443,
      "étant": 5444,
      "avance": 5445,
      "uneas": 5446,
      "##acy": 5447,
      "moon": 5448,
      "isn": 5449,
      "clair": 5450,
      "##ift": 5451,
      "recul": 5452,
      "demandait": 5453,
      "malad": 5454,
      "troub": 5455,
      "rooms": 5456,
      "tourna": 5457,
      "entour": 5458,
      "sufficient": 5459,
      "suivi": 5460,
      "répétait": 5461,
      "pareille": 5462,
      "opposite": 5463,
      "unhappy": 5464,
      "Clé": 5465,
      "Jack": 5466,
      "hér": 5467,
      "humeur": 5468,
      "roo": 5469,
      "viens": 5470,
      "wrote": 5471,
      "##hood": 5472,
      "##by": 5473,
      "##erne": 5474,
      "##erved": 5475,
      "##ouses": 5476,
      "alt": 5477,
      "##unk": 5478,
      "intim": 5479,
      "touched": 5480,
      "##assa": 5481,
      "office": 5482,
      "pointed": 5483,
      "tuer": 5484,
      "venue": 5485,
      "afterwards": 5486,
      "horror": 5487,
      "caf": 5488,
      "pride": 5489,
      "soirée": 5490,
      "annon": 5491,
      "animals": 5492,
      "Mean": 5493,
      "réflex": 5494,
      "étonné": 5495,
      "crossed": 5496,
      "pistoles": 5497,
      "conscience": 5498,
      "Lizzy": 5499,
      "Bonne": 5500,
      "Grég": 5501,
      "vaut": 5502,
      "vive": 5503,
      "##rés": 5504,
      "##erre": 5505,
      "dece": 5506,
      "##ries": 5507,
      "##stairs": 5508,
      "pluie": 5509,
      "tru": 5510,
      "##deur": 5511,
      "died": 5512,
      "##oudre": 5513,
      "mél": 5514,
      "explain": 5515,
      "heaven": 5516,
      "racont": 5517,
      "gesture": 5518,
      "doigts": 5519,
      "valet": 5520,
      "evidently": 5521,
      "especially": 5522,
      "Meanwhile": 5523,
      "##âte": 5524,
      "##anou": 5525,
      "##atique": 5526,
      "##urant": 5527,
      "##eter": 5528,
      "seat": 5529,
      "accro": 5530,
      "##tesse": 5531,
      "##lication": 5532,
      "verre": 5533,
      "angle": 5534,
      "dirige": 5535,
      "favour": 5536,
      "worthy": 5537,
      "symp": 5538,
      "Vers": 5539,
      "wretched": 5540,
      "éveill": 5541,
      "##oie": 5542,
      "##wise": 5543,
      "##reed": 5544,
      "toilet": 5545,
      "chale": 5546,
      "notice": 5547,
      "pract": 5548,
      "diss": 5549,
      "although": 5550,
      "##seless": 5551,
      "##venir": 5552,
      "##moire": 5553,
      "sentir": 5554,
      "sentence": 5555,
      "farther": 5556,
      "pleased": 5557,
      "Henri": 5558,
      "Indeed": 5559,
      "sorry": 5560,
      "quietly": 5561,
      "équip": 5562,
      "circumstances": 5563,
      "whisper": 5564,
      "Amer": 5565,
      "honn": 5566,
      "##lée": 5567,
      "etc": 5568,
      "##str": 5569,
      "plans": 5570,
      "##uls": 5571,
      "feared": 5572,
      "##ueill": 5573,
      "venaient": 5574,
      "épée": 5575,
      "continue": 5576,
      "parlant": 5577,
      "couple": 5578,
      "pulled": 5579,
      "escaped": 5580,
      "Franç": 5581,
      "révol": 5582,
      "ladder": 5583,
      "Americ": 5584,
      "Rassi": 5585,
      "bow": 5586,
      "bête": 5587,
      "cage": 5588,
      "fid": 5589,
      "tante": 5590,
      "ur": 5591,
      "whe": 5592,
      "##vel": 5593,
      "##ket": 5594,
      "##AS": 5595,
      "##erence": 5596,
      "leg": 5597,
      "##adventure": 5598,
      "établ": 5599,
      "avenir": 5600,
      "shot": 5601,
      "appris": 5602,
      "loc": 5603,
      "##onné": 5604,
      "meters": 5605,
      "promised": 5606,
      "égypt": 5607,
      "animaux": 5608,
      "angry": 5609,
      "simplement": 5610,
      "swear": 5611,
      "succeeded": 5612,
      "neighbour": 5613,
      "inquiétude": 5614,
      "Sherlock": 5615,
      "##known": 5616,
      "Ou": 5617,
      "aurez": 5618,
      "boug": 5619,
      "faint": 5620,
      "lant": 5621,
      "méd": 5622,
      "rude": 5623,
      "south": 5624,
      "unable": 5625,
      "##seau": 5626,
      "##agr": 5627,
      "moving": 5628,
      "lift": 5629,
      "##cies": 5630,
      "prefer": 5631,
      "peuvent": 5632,
      "attack": 5633,
      "entendis": 5634,
      "supper": 5635,
      "suffer": 5636,
      "échelle": 5637,
      "résult": 5638,
      "recevoir": 5639,
      "beauté": 5640,
      "temper": 5641,
      "devenait": 5642,
      "build": 5643,
      "tranquillement": 5644,
      "astonishment": 5645,
      "immédi": 5646,
      "intéress": 5647,
      "médecin": 5648,
      "prepared": 5649,
      "Dé": 5650,
      "ah": 5651,
      "dout": 5652,
      "dying": 5653,
      "hill": 5654,
      "lying": 5655,
      "vaste": 5656,
      "##sh": 5657,
      "##iot": 5658,
      "##ipp": 5659,
      "##lo": 5660,
      "##quels": 5661,
      "unfort": 5662,
      "##ands": 5663,
      "forc": 5664,
      "parents": 5665,
      "cha": 5666,
      "prise": 5667,
      "soyez": 5668,
      "##unt": 5669,
      "Ital": 5670,
      "lover": 5671,
      "rese": 5672,
      "doux": 5673,
      "thank": 5674,
      "##wned": 5675,
      "##rét": 5676,
      "persu": 5677,
      "finit": 5678,
      "merveille": 5679,
      "prix": 5680,
      "revoir": 5681,
      "advantage": 5682,
      "faces": 5683,
      "suspect": 5684,
      "holding": 5685,
      "exemple": 5686,
      "apprendre": 5687,
      "Majesté": 5688,
      "exhaust": 5689,
      "machine": 5690,
      "platform": 5691,
      "##occup": 5692,
      ".,": 5693,
      "Dr": 5694,
      "LE": 5695,
      "digne": 5696,
      "eus": 5697,
      "jau": 5698,
      "rass": 5699,
      "tired": 5700,
      "éner": 5701,
      "degre": 5702,
      "rever": 5703,
      "étonnement": 5704,
      "château": 5705,
      "##illon": 5706,
      "stair": 5707,
      "##ureur": 5708,
      "montre": 5709,
      "shr": 5710,
      "liqu": 5711,
      "agreed": 5712,
      "compar": 5713,
      "parts": 5714,
      "longues": 5715,
      "##asses": 5716,
      "remerc": 5717,
      "corp": 5718,
      "parla": 5719,
      "jusque": 5720,
      "instead": 5721,
      "refused": 5722,
      "entrée": 5723,
      "triomp": 5724,
      "battre": 5725,
      "navig": 5726,
      "riche": 5727,
      "##phew": 5728,
      "possession": 5729,
      "prodig": 5730,
      "emotion": 5731,
      "pareil": 5732,
      "lampe": 5733,
      "torrent": 5734,
      "depths": 5735,
      "Belcher": 5736,
      "peuple": 5737,
      "leagues": 5738,
      "degrees": 5739,
      "Nég": 5740,
      "huge": 5741,
      "vide": 5742,
      "##usc": 5743,
      "neve": 5744,
      "nephew": 5745,
      "##iennent": 5746,
      "##icule": 5747,
      "saved": 5748,
      "##ooks": 5749,
      "peux": 5750,
      "manquer": 5751,
      "served": 5752,
      "points": 5753,
      "venez": 5754,
      "##êtres": 5755,
      "confidence": 5756,
      "seuls": 5757,
      "Bonadventure": 5758,
      "retourna": 5759,
      "profondément": 5760,
      "oublié": 5761,
      "consequ": 5762,
      "ouverte": 5763,
      "semaine": 5764,
      "melanch": 5765,
      "search": 5766,
      "Aug": 5767,
      "hôte": 5768,
      "##ips": 5769,
      "##fr": 5770,
      "##ouche": 5771,
      "thin": 5772,
      "enr": 5773,
      "##oted": 5774,
      "forced": 5775,
      "##acles": 5776,
      "isol": 5777,
      "voie": 5778,
      "manque": 5779,
      "poiss": 5780,
      "compos": 5781,
      "goût": 5782,
      "##cient": 5783,
      "faits": 5784,
      "répondait": 5785,
      "anyone": 5786,
      "resté": 5787,
      "voulais": 5788,
      "genre": 5789,
      "rentra": 5790,
      "montrer": 5791,
      "anxiety": 5792,
      "opportunity": 5793,
      "Clélia": 5794,
      "Négrel": 5795,
      "melancholy": 5796,
      "Bour": 5797,
      "Eyre": 5798,
      "Since": 5799,
      "bale": 5800,
      "civ": 5801,
      "sought": 5802,
      "##uille": 5803,
      "##fl": 5804,
      "##zz": 5805,
      "##ètre": 5806,
      "##iser": 5807,
      "##anté": 5808,
      "recher": 5809,
      "unknown": 5810,
      "chois": 5811,
      "exag": 5812,
      "dén": 5813,
      "liked": 5814,
      "##sip": 5815,
      "##istes": 5816,
      "coqu": 5817,
      "yours": 5818,
      "##opin": 5819,
      "##ancing": 5820,
      "terres": 5821,
      "conséqu": 5822,
      "mesure": 5823,
      "année": 5824,
      "jeter": 5825,
      "girls": 5826,
      "occupied": 5827,
      "poussa": 5828,
      "spring": 5829,
      "rapidly": 5830,
      "popul": 5831,
      "Signor": 5832,
      "Clelia": 5833,
      "cow": 5834,
      "mers": 5835,
      "mett": 5836,
      "pes": 5837,
      "péri": 5838,
      "riant": 5839,
      "sensible": 5840,
      "tong": 5841,
      "vas": 5842,
      "viend": 5843,
      "##des": 5844,
      "##utation": 5845,
      "whist": 5846,
      "trying": 5847,
      "group": 5848,
      "##ishing": 5849,
      "souper": 5850,
      "poste": 5851,
      "aurai": 5852,
      "inside": 5853,
      "brick": 5854,
      "breast": 5855,
      "retourner": 5856,
      "reading": 5857,
      "cheminée": 5858,
      "détails": 5859,
      "derriere": 5860,
      "sprang": 5861,
      "departure": 5862,
      "sacrifice": 5863,
      "Avez": 5864,
      "Lady": 5865,
      "Loth": 5866,
      "bill": 5867,
      "lun": 5868,
      "mén": 5869,
      "pushed": 5870,
      "romp": 5871,
      "tis": 5872,
      "##oke": 5873,
      "##ua": 5874,
      "##zaine": 5875,
      "##oupe": 5876,
      "##rose": 5877,
      "jealous": 5878,
      "hero": 5879,
      "##orel": 5880,
      "##ettez": 5881,
      "couvert": 5882,
      "adresse": 5883,
      "partit": 5884,
      "assur": 5885,
      "troupe": 5886,
      "returning": 5887,
      "##grat": 5888,
      "fault": 5889,
      "advice": 5890,
      "oublier": 5891,
      "fifteen": 5892,
      "stupé": 5893,
      "liberté": 5894,
      "neveu": 5895,
      "Lothian": 5896,
      "Lui": 5897,
      "Océan": 5898,
      "Éc": 5899,
      "##ics": 5900,
      "disg": 5901,
      "peau": 5902,
      "pointe": 5903,
      "##aution": 5904,
      "cop": 5905,
      "corrid": 5906,
      "lighted": 5907,
      "vitesse": 5908,
      "sword": 5909,
      "jouer": 5910,
      "colonel": 5911,
      "fingers": 5912,
      "becoming": 5913,
      "Sorel": 5914,
      "brow": 5915,
      "gather": 5916,
      "pai": 5917,
      "wit": 5918,
      "##aques": 5919,
      "##bes": 5920,
      "##urst": 5921,
      "##alt": 5922,
      "##quée": 5923,
      "forth": 5924,
      "##liers": 5925,
      "amoureux": 5926,
      "##uisait": 5927,
      "##ération": 5928,
      "##lesh": 5929,
      "##ixante": 5930,
      "##apped": 5931,
      "remark": 5932,
      "courir": 5933,
      "##ledge": 5934,
      "firent": 5935,
      "visible": 5936,
      "##merald": 5937,
      "promis": 5938,
      "aimé": 5939,
      "rapide": 5940,
      "Toutes": 5941,
      "pieces": 5942,
      "satisfied": 5943,
      "frightful": 5944,
      "recognized": 5945,
      "société": 5946,
      "gagner": 5947,
      "square": 5948,
      "cuisine": 5949,
      "aventure": 5950,
      "magnificent": 5951,
      "determined": 5952,
      "espèce": 5953,
      "August": 5954,
      ",»": 5955,
      "dared": 5956,
      "eussent": 5957,
      "fâ": 5958,
      "serez": 5959,
      "##mn": 5960,
      "##hait": 5961,
      "##but": 5962,
      "##ème": 5963,
      "lake": 5964,
      "##adually": 5965,
      "prenant": 5966,
      "monse": 5967,
      "dél": 5968,
      "##ueux": 5969,
      "poign": 5970,
      "roches": 5971,
      "agissait": 5972,
      "##érence": 5973,
      "marchait": 5974,
      "goes": 5975,
      "terrif": 5976,
      "boire": 5977,
      "refuge": 5978,
      "prie": 5979,
      "##ièvre": 5980,
      "connaissance": 5981,
      "spoken": 5982,
      "soldats": 5983,
      "birds": 5984,
      "shadow": 5985,
      "17": 5986,
      "Crois": 5987,
      "Pers": 5988,
      "luck": 5989,
      "laisse": 5990,
      "pût": 5991,
      "vac": 5992,
      "Ça": 5993,
      "##ium": 5994,
      "unif": 5995,
      "étud": 5996,
      "jeu": 5997,
      "réuss": 5998,
      "##agement": 5999,
      "siff": 6000,
      "loge": 6001,
      "##igned": 6002,
      "##ogr": 6003,
      "install": 6004,
      "ferai": 6005,
      "pensées": 6006,
      "caused": 6007,
      "cherchait": 6008,
      "terreur": 6009,
      "##oncé": 6010,
      "fatal": 6011,
      "faible": 6012,
      "rivière": 6013,
      "dining": 6014,
      "trembling": 6015,
      "##ustomed": 6016,
      "promenade": 6017,
      "parcour": 6018,
      "Hélas": 6019,
      "monseigneur": 6020,
      "Col": 6021,
      "Fou": 6022,
      "Somet": 6023,
      "Take": 6024,
      "event": 6025,
      "oh": 6026,
      "tellement": 6027,
      "useless": 6028,
      "##enaient": 6029,
      "##elier": 6030,
      "peas": 6031,
      "couch": 6032,
      "crainte": 6033,
      "courut": 6034,
      "worse": 6035,
      "##reek": 6036,
      "ordres": 6037,
      "mena": 6038,
      "tremble": 6039,
      "fourn": 6040,
      "misérable": 6041,
      "habits": 6042,
      "Seule": 6043,
      "doesn": 6044,
      "exclam": 6045,
      "montait": 6046,
      "patience": 6047,
      "permission": 6048,
      "devenir": 6049,
      "combat": 6050,
      "frightened": 6051,
      "society": 6052,
      "expliquer": 6053,
      "Cor": 6054,
      "bille": 6055,
      "cig": 6056,
      "city": 6057,
      "dames": 6058,
      "fet": 6059,
      "yield": 6060,
      "##istr": 6061,
      "deli": 6062,
      "branches": 6063,
      "agir": 6064,
      "##istan": 6065,
      "adop": 6066,
      "soulev": 6067,
      "folle": 6068,
      "commiss": 6069,
      "désire": 6070,
      "reviend": 6071,
      "boute": 6072,
      "solitude": 6073,
      "sév": 6074,
      "##ambo": 6075,
      "Très": 6076,
      "stupid": 6077,
      "lutte": 6078,
      "##ruption": 6079,
      "judge": 6080,
      "Frank": 6081,
      "Verrieres": 6082,
      "introdu": 6083,
      "likely": 6084,
      "##meralda": 6085,
      "Bientôt": 6086,
      "Poor": 6087,
      "XV": 6088,
      "fal": 6089,
      "flesh": 6090,
      "rise": 6091,
      "##nest": 6092,
      "##ker": 6093,
      "##pes": 6094,
      "##ançait": 6095,
      "étiez": 6096,
      "asking": 6097,
      "stretched": 6098,
      "stones": 6099,
      "Thus": 6100,
      "proch": 6101,
      "nobody": 6102,
      "##atement": 6103,
      "author": 6104,
      "compter": 6105,
      "recover": 6106,
      "Parce": 6107,
      "guerre": 6108,
      "refuse": 6109,
      "phras": 6110,
      "Charl": 6111,
      "suivait": 6112,
      "pensez": 6113,
      "archite": 6114,
      "croyais": 6115,
      "observation": 6116,
      "battle": 6117,
      "meeting": 6118,
      "écoutait": 6119,
      "extraordinary": 6120,
      "Verrières": 6121,
      "avoid": 6122,
      "prolong": 6123,
      "purpose": 6124,
      "Pres": 6125,
      "electric": 6126,
      "pou": 6127,
      "pounds": 6128,
      "tree": 6129,
      "##OR": 6130,
      "##ailed": 6131,
      "##reh": 6132,
      "##rect": 6133,
      "ener": 6134,
      "seas": 6135,
      "éto": 6136,
      "parlez": 6137,
      "aunt": 6138,
      "##ests": 6139,
      "écart": 6140,
      "écras": 6141,
      "advers": 6142,
      "canal": 6143,
      "encour": 6144,
      "souhait": 6145,
      "arranged": 6146,
      "smiling": 6147,
      "gentil": 6148,
      "triumph": 6149,
      "gardes": 6150,
      "feelings": 6151,
      "Reed": 6152,
      "détour": 6153,
      "demeure": 6154,
      "reprendre": 6155,
      "récit": 6156,
      "powerful": 6157,
      "malheureuse": 6158,
      "folie": 6159,
      "edge": 6160,
      ".)": 6161,
      "Fri": 6162,
      "Léon": 6163,
      "cul": 6164,
      "gê": 6165,
      "gig": 6166,
      "hât": 6167,
      "rough": 6168,
      "rues": 6169,
      "##anks": 6170,
      "##agg": 6171,
      "----": 6172,
      "##ayed": 6173,
      "chère": 6174,
      "aviez": 6175,
      "star": 6176,
      "soixante": 6177,
      "songer": 6178,
      "##auff": 6179,
      "armes": 6180,
      "voila": 6181,
      "repas": 6182,
      "cool": 6183,
      "douze": 6184,
      "reco": 6185,
      "spec": 6186,
      "thrust": 6187,
      "devenu": 6188,
      "palais": 6189,
      "fusil": 6190,
      "oreilles": 6191,
      "langu": 6192,
      "orgueil": 6193,
      "recommand": 6194,
      "Voyons": 6195,
      "Dès": 6196,
      "Tis": 6197,
      "dign": 6198,
      "kitch": 6199,
      "od": 6200,
      "pressed": 6201,
      "sides": 6202,
      "##lor": 6203,
      "##çaient": 6204,
      "##rement": 6205,
      "##arine": 6206,
      "##adis": 6207,
      "##alled": 6208,
      "belles": 6209,
      "onze": 6210,
      "##aman": 6211,
      "##onds": 6212,
      "abomin": 6213,
      "noy": 6214,
      "##ified": 6215,
      "distinct": 6216,
      "envelopp": 6217,
      "volont": 6218,
      "absur": 6219,
      "pauvres": 6220,
      "souffle": 6221,
      "hearing": 6222,
      "descendit": 6223,
      "cabinet": 6224,
      "prisoner": 6225,
      "échapper": 6226,
      "bleu": 6227,
      "ennuy": 6228,
      "accepter": 6229,
      "phrases": 6230,
      "Aut": 6231,
      "Even": 6232,
      "Mos": 6233,
      "Vore": 6234,
      "fosse": 6235,
      "ge": 6236,
      "houses": 6237,
      "jump": 6238,
      "tut": 6239,
      "##wed": 6240,
      "##isé": 6241,
      "##ller": 6242,
      "whatever": 6243,
      "comprit": 6244,
      "trave": 6245,
      "auquel": 6246,
      "amitié": 6247,
      "Leon": 6248,
      "While": 6249,
      "ouest": 6250,
      "twice": 6251,
      "tué": 6252,
      "##reté": 6253,
      "auraient": 6254,
      "putting": 6255,
      "continuait": 6256,
      "confiance": 6257,
      "count": 6258,
      "excurs": 6259,
      "viole": 6260,
      "formid": 6261,
      "explained": 6262,
      "grim": 6263,
      "agitation": 6264,
      "décidé": 6265,
      "streets": 6266,
      "langue": 6267,
      "Excell": 6268,
      "Certain": 6269,
      "growing": 6270,
      "candle": 6271,
      "Voreux": 6272,
      "Up": 6273,
      "avert": 6274,
      "céd": 6275,
      "eld": 6276,
      "gorge": 6277,
      "hale": 6278,
      "tendre": 6279,
      "##cy": 6280,
      "##HI": 6281,
      "##arg": 6282,
      "ones": 6283,
      "chim": 6284,
      "celles": 6285,
      "ceased": 6286,
      "##cto": 6287,
      "##onder": 6288,
      "project": 6289,
      "manquait": 6290,
      "repar": 6291,
      "##oise": 6292,
      "passant": 6293,
      "lod": 6294,
      "remettre": 6295,
      "ministre": 6296,
      "troisième": 6297,
      "suffered": 6298,
      "trah": 6299,
      "carefully": 6300,
      "détach": 6301,
      "##denly": 6302,
      "Esmeralda": 6303,
      "produced": 6304,
      "disturbed": 6305,
      "##livier": 6306,
      "physion": 6307,
      "fabri": 6308,
      "vont": 6309,
      "##uel": 6310,
      "##enois": 6311,
      "##inrent": 6312,
      "##leurs": 6313,
      "##atri": 6314,
      "choc": 6315,
      "chief": 6316,
      "exac": 6317,
      "frém": 6318,
      "pros": 6319,
      "##adeau": 6320,
      "demie": 6321,
      "remit": 6322,
      "cesse": 6323,
      "...,": 6324,
      "accustomed": 6325,
      "flott": 6326,
      "Marie": 6327,
      "inspir": 6328,
      "Alas": 6329,
      "servi": 6330,
      "servants": 6331,
      "souriant": 6332,
      "misfort": 6333,
      "Grand": 6334,
      "condam": 6335,
      "boutique": 6336,
      "risk": 6337,
      "examined": 6338,
      "tira": 6339,
      "gallery": 6340,
      "Adieu": 6341,
      "instrument": 6342,
      "Majesty": 6343,
      "religion": 6344,
      "Edie": 6345,
      "Suddenly": 6346,
      "chaleur": 6347,
      "Croisenois": 6348,
      "kitchen": 6349,
      "Celui": 6350,
      "Diana": 6351,
      "Min": 6352,
      "fi": 6353,
      "gib": 6354,
      "mettait": 6355,
      "nég": 6356,
      "##ode": 6357,
      "##mort": 6358,
      "##orrow": 6359,
      "##llo": 6360,
      "##rol": 6361,
      "##quent": 6362,
      "parv": 6363,
      "paral": 6364,
      "withd": 6365,
      "prudent": 6366,
      "duke": 6367,
      "sake": 6368,
      "fraî": 6369,
      "amant": 6370,
      "repent": 6371,
      "secours": 6372,
      "scène": 6373,
      "greater": 6374,
      "arrival": 6375,
      "pharm": 6376,
      "connu": 6377,
      "évanou": 6378,
      "convain": 6379,
      "rendit": 6380,
      "montagne": 6381,
      "tender": 6382,
      "Clopin": 6383,
      "soldiers": 6384,
      "tournant": 6385,
      "roof": 6386,
      "Bonnemort": 6387,
      "16": 6388,
      "bure": 6389,
      "bonnes": 6390,
      "maid": 6391,
      "méc": 6392,
      "rate": 6393,
      "tes": 6394,
      "tress": 6395,
      "var": 6396,
      "##rite": 6397,
      "##hém": 6398,
      "##èche": 6399,
      "##enu": 6400,
      "##reau": 6401,
      "##neys": 6402,
      "##chief": 6403,
      "plaît": 6404,
      "trust": 6405,
      "pourrais": 6406,
      "dér": 6407,
      "argu": 6408,
      "features": 6409,
      "amie": 6410,
      "aloud": 6411,
      "##cial": 6412,
      "##umer": 6413,
      "soudain": 6414,
      "looks": 6415,
      "puisqu": 6416,
      "betray": 6417,
      "appears": 6418,
      "muraille": 6419,
      "boule": 6420,
      "Auc": 6421,
      "ouvriers": 6422,
      "invol": 6423,
      "souffr": 6424,
      "rentrer": 6425,
      "voisin": 6426,
      "Peu": 6427,
      "ridicule": 6428,
      "pénible": 6429,
      "disposition": 6430,
      "conduite": 6431,
      "finger": 6432,
      "déclar": 6433,
      "discussion": 6434,
      "Grégoire": 6435,
      "énerg": 6436,
      "corridor": 6437,
      "Cour": 6438,
      "Gl": 6439,
      "Olivier": 6440,
      "Pang": 6441,
      "Sainte": 6442,
      "aide": 6443,
      "lâ": 6444,
      "lines": 6445,
      "Éminence": 6446,
      "##kes": 6447,
      "##ûmes": 6448,
      "##ading": 6449,
      "##room": 6450,
      "meas": 6451,
      "stupe": 6452,
      "allé": 6453,
      "prote": 6454,
      "##airement": 6455,
      "serons": 6456,
      "marquise": 6457,
      "retard": 6458,
      "perp": 6459,
      "criait": 6460,
      "flo": 6461,
      "##retch": 6462,
      "Parme": 6463,
      "vieill": 6464,
      "garder": 6465,
      "aimable": 6466,
      "accompan": 6467,
      "constru": 6468,
      "remarqu": 6469,
      "représ": 6470,
      "magnifique": 6471,
      "ancien": 6472,
      "Everything": 6473,
      "timid": 6474,
      "delighted": 6475,
      "hypoc": 6476,
      "gouverne": 6477,
      "##board": 6478,
      "origin": 6479,
      "cadavre": 6480,
      "café": 6481,
      "imb": 6482,
      "##oved": 6483,
      "##hes": 6484,
      "quit": 6485,
      "##lls": 6486,
      "etes": 6487,
      "##ols": 6488,
      "lives": 6489,
      "nose": 6490,
      "##trait": 6491,
      "##ivid": 6492,
      "haste": 6493,
      "undert": 6494,
      "Parma": 6495,
      "connaissez": 6496,
      "évident": 6497,
      "levant": 6498,
      "extrém": 6499,
      "explan": 6500,
      "ventre": 6501,
      "furious": 6502,
      "monta": 6503,
      "hurried": 6504,
      "charmante": 6505,
      "fenêtres": 6506,
      "commandant": 6507,
      "assassin": 6508,
      "lueur": 6509,
      "writing": 6510,
      "Mess": 6511,
      "Such": 6512,
      "bowed": 6513,
      "fill": 6514,
      "key": 6515,
      "sable": 6516,
      "##dans": 6517,
      "##ault": 6518,
      "##yle": 6519,
      "##neau": 6520,
      "##ushing": 6521,
      "##aison": 6522,
      "changer": 6523,
      "plun": 6524,
      "soeur": 6525,
      "allais": 6526,
      "aveug": 6527,
      "doors": 6528,
      "retreat": 6529,
      "partout": 6530,
      "regular": 6531,
      "demandé": 6532,
      "glace": 6533,
      "individ": 6534,
      "await": 6535,
      "curé": 6536,
      "yellow": 6537,
      "finding": 6538,
      "conduire": 6539,
      "clef": 6540,
      "comprends": 6541,
      "reconnut": 6542,
      "listening": 6543,
      "montra": 6544,
      "aperçus": 6545,
      "soldier": 6546,
      "gaze": 6547,
      "appeler": 6548,
      "obstacle": 6549,
      "fauteuil": 6550,
      "faudrait": 6551,
      "struggle": 6552,
      "oiseaux": 6553,
      "léger": 6554,
      "Mosca": 6555,
      "OF": 6556,
      "mission": 6557,
      "wand": 6558,
      "wound": 6559,
      "##ront": 6560,
      "##cles": 6561,
      "##water": 6562,
      "##llis": 6563,
      "heat": 6564,
      "##abor": 6565,
      "stat": 6566,
      "amid": 6567,
      "##ignait": 6568,
      "##ernal": 6569,
      "distant": 6570,
      "tourner": 6571,
      "capital": 6572,
      "brid": 6573,
      "volonté": 6574,
      "receive": 6575,
      "tranquill": 6576,
      "repeat": 6577,
      "Tristan": 6578,
      "disparut": 6579,
      "emmen": 6580,
      "Nevertheless": 6581,
      "Tell": 6582,
      "smoke": 6583,
      "asseoir": 6584,
      "hoped": 6585,
      "citad": 6586,
      "slept": 6587,
      "remembered": 6588,
      "égyptienne": 6589,
      "unfortunate": 6590,
      "Gre": 6591,
      "gle": 6592,
      "haine": 6593,
      "hole": 6594,
      "lourd": 6595,
      "masse": 6596,
      "sérieux": 6597,
      "tum": 6598,
      "virt": 6599,
      "##ètement": 6600,
      "##org": 6601,
      "suit": 6602,
      "##aume": 6603,
      "##ongo": 6604,
      "agent": 6605,
      "maréch": 6606,
      "cries": 6607,
      "remor": 6608,
      "expos": 6609,
      "regarde": 6610,
      "attitude": 6611,
      "bold": 6612,
      "Mah": 6613,
      "insult": 6614,
      "##azz": 6615,
      "excess": 6616,
      "explos": 6617,
      "keen": 6618,
      "fury": 6619,
      "profondeur": 6620,
      "history": 6621,
      "playing": 6622,
      "deeply": 6623,
      "causer": 6624,
      "snow": 6625,
      "extraordinaire": 6626,
      "curiosity": 6627,
      "personnage": 6628,
      "document": 6629,
      "Seulement": 6630,
      "convainc": 6631,
      "Venez": 6632,
      "oper": 6633,
      "##ture": 6634,
      "##ép": 6635,
      "##jour": 6636,
      "atro": 6637,
      "due": 6638,
      "amaz": 6639,
      "manoe": 6640,
      "##avant": 6641,
      "clai": 6642,
      "chef": 6643,
      "journal": 6644,
      "aftern": 6645,
      "désert": 6646,
      "nomm": 6647,
      "metres": 6648,
      "curtain": 6649,
      "suffering": 6650,
      "Rob": 6651,
      "penetr": 6652,
      "##cession": 6653,
      "pipe": 6654,
      "traits": 6655,
      "interrompit": 6656,
      "agréable": 6657,
      "Personne": 6658,
      "Certainly": 6659,
      "physionomie": 6660,
      "Cac": 6661,
      "Dongo": 6662,
      "Spe": 6663,
      "aise": 6664,
      "cup": 6665,
      "fail": 6666,
      "warn": 6667,
      "##oût": 6668,
      "##naient": 6669,
      "##loss": 6670,
      "##ding": 6671,
      "##éant": 6672,
      "##cing": 6673,
      "##cade": 6674,
      "##inière": 6675,
      "leaves": 6676,
      "##rimer": 6677,
      "paraître": 6678,
      "chagr": 6679,
      "soil": 6680,
      "augment": 6681,
      "armed": 6682,
      "réellement": 6683,
      "Its": 6684,
      "écoul": 6685,
      "insol": 6686,
      "raisonn": 6687,
      "embar": 6688,
      "bataille": 6689,
      "derniers": 6690,
      "tempér": 6691,
      "quitta": 6692,
      "gallop": 6693,
      "blessé": 6694,
      "Améri": 6695,
      "contempt": 6696,
      "ennui": 6697,
      "##........": 6698,
      "faudra": 6699,
      "enemy": 6700,
      "deserted": 6701,
      "Cacambo": 6702,
      "),": 6703,
      "Jock": 6704,
      "books": 6705,
      "cure": 6706,
      "crew": 6707,
      "ease": 6708,
      "foss": 6709,
      "loun": 6710,
      "mile": 6711,
      "##voy": 6712,
      "##ny": 6713,
      "##erte": 6714,
      "##enard": 6715,
      "##itary": 6716,
      "##utely": 6717,
      "##ams": 6718,
      "proved": 6719,
      "projets": 6720,
      "##venu": 6721,
      "##ension": 6722,
      "##onnez": 6723,
      "fold": 6724,
      "chargé": 6725,
      "sourit": 6726,
      "curieux": 6727,
      "current": 6728,
      "côtés": 6729,
      "level": 6730,
      "revenait": 6731,
      "patient": 6732,
      "presented": 6733,
      "appelait": 6734,
      "rencontrer": 6735,
      "bande": 6736,
      "rêve": 6737,
      "weeks": 6738,
      "##iliar": 6739,
      "concealed": 6740,
      "avouer": 6741,
      "doigt": 6742,
      "eleven": 6743,
      "tombe": 6744,
      "épouvant": 6745,
      "splend": 6746,
      "équipage": 6747,
      "lounge": 6748,
      "Bah": 6749,
      "Fer": 6750,
      "IN": 6751,
      "LA": 6752,
      "Lest": 6753,
      "Pi": 6754,
      "Tiens": 6755,
      "eager": 6756,
      "fancy": 6757,
      "rôle": 6758,
      "##uction": 6759,
      "##iel": 6760,
      "##line": 6761,
      "semain": 6762,
      "beach": 6763,
      "##imul": 6764,
      "##ules": 6765,
      "stick": 6766,
      "exerc": 6767,
      "share": 6768,
      "##gellis": 6769,
      "brand": 6770,
      "personnes": 6771,
      "cherch": 6772,
      "également": 6773,
      "imagined": 6774,
      "joues": 6775,
      "skin": 6776,
      "arrêté": 6777,
      "provisions": 6778,
      "hunger": 6779,
      "music": 6780,
      "bottle": 6781,
      "Tregellis": 6782,
      "moust": 6783,
      "facilement": 6784,
      "héros": 6785,
      "Company": 6786,
      "morceau": 6787,
      "tongue": 6788,
      "semaines": 6789,
      "Emp": 6790,
      "Port": 6791,
      "Wils": 6792,
      "eh": 6793,
      "eurent": 6794,
      "race": 6795,
      "west": 6796,
      "wore": 6797,
      "élect": 6798,
      "îlot": 6799,
      "##aff": 6800,
      "##awn": 6801,
      "deaf": 6802,
      "##atin": 6803,
      "##rique": 6804,
      "stared": 6805,
      "##urel": 6806,
      "shed": 6807,
      "allée": 6808,
      "voile": 6809,
      "weight": 6810,
      "amen": 6811,
      "grace": 6812,
      "brouill": 6813,
      "roy": 6814,
      "couleur": 6815,
      "intense": 6816,
      "retent": 6817,
      "craindre": 6818,
      "resp": 6819,
      "prev": 6820,
      "someone": 6821,
      "##raw": 6822,
      "coron": 6823,
      "épaisse": 6824,
      "##well": 6825,
      "guess": 6826,
      "misery": 6827,
      "semblaient": 6828,
      "descri": 6829,
      "curious": 6830,
      "addressed": 6831,
      "signif": 6832,
      "jeté": 6833,
      "cacher": 6834,
      "précisément": 6835,
      "probably": 6836,
      "raconter": 6837,
      "##blesse": 6838,
      "curiosité": 6839,
      "honnête": 6840,
      "language": 6841,
      "pharmac": 6842,
      "bureau": 6843,
      "afternoon": 6844,
      "Wilson": 6845,
      "Gardin": 6846,
      "mult": 6847,
      "santé": 6848,
      "taste": 6849,
      "##lis": 6850,
      "##dy": 6851,
      "##ming": 6852,
      "##fied": 6853,
      "##erious": 6854,
      "##onie": 6855,
      "degr": 6856,
      "##orous": 6857,
      "##uter": 6858,
      "##rière": 6859,
      "establ": 6860,
      "iss": 6861,
      "exch": 6862,
      "aupar": 6863,
      "grass": 6864,
      "répand": 6865,
      "marked": 6866,
      "##ignit": 6867,
      "remords": 6868,
      "offici": 6869,
      "##aissaient": 6870,
      "fortnight": 6871,
      "greatest": 6872,
      "observe": 6873,
      "broad": 6874,
      "souffrir": 6875,
      "laughter": 6876,
      "mistake": 6877,
      "sensation": 6878,
      "Without": 6879,
      "laquais": 6880,
      "obstin": 6881,
      "stayed": 6882,
      "songeait": 6883,
      "carrying": 6884,
      "apercevoir": 6885,
      "lackey": 6886,
      "Michaud": 6887,
      "Francis": 6888,
      "obtenir": 6889,
      "Pangloss": 6890,
      "auparavant": 6891,
      "Fin": 6892,
      "Tom": 6893,
      "ecc": 6894,
      "fled": 6895,
      "fuite": 6896,
      "tab": 6897,
      "##ta": 6898,
      "##ford": 6899,
      "##cel": 6900,
      "##TI": 6901,
      "##ism": 6902,
      "unless": 6903,
      "youth": 6904,
      "traces": 6905,
      "sonne": 6906,
      "gris": 6907,
      "bye": 6908,
      "Chaque": 6909,
      "gently": 6910,
      "happen": 6911,
      "approch": 6912,
      "breaking": 6913,
      "familiar": 6914,
      "annoy": 6915,
      "quoique": 6916,
      "ventured": 6917,
      "##what": 6918,
      "perdue": 6919,
      "Quelque": 6920,
      "settlement": 6921,
      "events": 6922,
      "calling": 6923,
      "clearly": 6924,
      "leaning": 6925,
      "hidden": 6926,
      "déchir": 6927,
      "enthus": 6928,
      "alive": 6929,
      "pêche": 6930,
      "Bé": 6931,
      "IV": 6932,
      "Ici": 6933,
      "cant": 6934,
      "fuir": 6935,
      "hos": 6936,
      "nau": 6937,
      "##vu": 6938,
      "##once": 6939,
      "tot": 6940,
      "membres": 6941,
      "stif": 6942,
      "shel": 6943,
      "franç": 6944,
      "gradually": 6945,
      "poet": 6946,
      "écouter": 6947,
      "##érait": 6948,
      "gover": 6949,
      "##ancé": 6950,
      "crimin": 6951,
      "consul": 6952,
      "finir": 6953,
      "ordered": 6954,
      "habill": 6955,
      "laissant": 6956,
      "sooner": 6957,
      "drove": 6958,
      "tombait": 6959,
      "Pierron": 6960,
      "renvers": 6961,
      "dirig": 6962,
      "géné": 6963,
      "soldat": 6964,
      "galerie": 6965,
      "played": 6966,
      "conduct": 6967,
      "conceal": 6968,
      "millions": 6969,
      "##ammered": 6970,
      "##tective": 6971,
      "immédiatement": 6972,
      "stairc": 6973,
      "extrémité": 6974,
      "Ay": 6975,
      "Allez": 6976,
      "Avant": 6977,
      "Cécile": 6978,
      "Fait": 6979,
      "bén": 6980,
      "custom": 6981,
      "jure": 6982,
      "laissez": 6983,
      "rab": 6984,
      "ruis": 6985,
      "sick": 6986,
      "##ean": 6987,
      "##gate": 6988,
      "dedans": 6989,
      "##iture": 6990,
      "qual": 6991,
      "reck": 6992,
      "étroit": 6993,
      "chan": 6994,
      "voices": 6995,
      "libr": 6996,
      "Heure": 6997,
      "maisons": 6998,
      "seraient": 6999,
      "##agnie": 7000,
      "marine": 7001,
      "coach": 7002,
      "majest": 7003,
      "##igner": 7004,
      "##athed": 7005,
      "journ": 7006,
      "épuis": 7007,
      "pouvons": 7008,
      "bohém": 7009,
      "profession": 7010,
      "portes": 7011,
      "embarc": 7012,
      "propri": 7013,
      "connaissait": 7014,
      "##ibles": 7015,
      "entièrement": 7016,
      "ouvrait": 7017,
      "froidement": 7018,
      "displ": 7019,
      "##outez": 7020,
      "dévor": 7021,
      "étranger": 7022,
      "##asped": 7023,
      "singulier": 7024,
      "hastened": 7025,
      "resolved": 7026,
      "##ription": 7027,
      "barely": 7028,
      "separated": 7029,
      "gratitude": 7030,
      "Charlotte": 7031,
      "More": 7032,
      "Trois": 7033,
      "Tabor": 7034,
      "fièvre": 7035,
      "murs": 7036,
      "names": 7037,
      "pair": 7038,
      "puits": 7039,
      "##uous": 7040,
      "##laient": 7041,
      "##enb": 7042,
      "##urg": 7043,
      "##ustr": 7044,
      "reve": 7045,
      "neg": 7046,
      "neige": 7047,
      "##agon": 7048,
      "##aining": 7049,
      "##ider": 7050,
      "notes": 7051,
      "estim": 7052,
      "princ": 7053,
      "auber": 7054,
      "appl": 7055,
      "##uished": 7056,
      "##cked": 7057,
      "seront": 7058,
      "##érir": 7059,
      "couver": 7060,
      "retrait": 7061,
      "longs": 7062,
      "major": 7063,
      "objet": 7064,
      "somewhat": 7065,
      "Entre": 7066,
      "regardai": 7067,
      "corde": 7068,
      "justement": 7069,
      "vex": 7070,
      "insist": 7071,
      "dropped": 7072,
      "entière": 7073,
      "rede": 7074,
      "admit": 7075,
      "Pierr": 7076,
      "remarqua": 7077,
      "hurry": 7078,
      "noirs": 7079,
      "dévou": 7080,
      "drive": 7081,
      "monstr": 7082,
      "required": 7083,
      "Compagnie": 7084,
      "Toutefois": 7085,
      "granit": 7086,
      "Gardiner": 7087,
      "Eminence": 7088,
      "Ketty": 7089,
      "bâ": 7090,
      "bored": 7091,
      "food": 7092,
      "hâte": 7093,
      "ling": 7094,
      "nerve": 7095,
      "pian": 7096,
      "sire": 7097,
      "vif": 7098,
      "##EU": 7099,
      "##ège": 7100,
      "##ommen": 7101,
      "##antic": 7102,
      "seize": 7103,
      "health": 7104,
      "##ainted": 7105,
      "##ardes": 7106,
      "stammered": 7107,
      "prenez": 7108,
      "seek": 7109,
      "recl": 7110,
      "Comte": 7111,
      "sortait": 7112,
      "trouvai": 7113,
      "supposed": 7114,
      "sourd": 7115,
      "solid": 7116,
      "clever": 7117,
      "mémoire": 7118,
      "anglais": 7119,
      "Place": 7120,
      "Seurel": 7121,
      "appartement": 7122,
      "satisfait": 7123,
      "rencontre": 7124,
      "admirable": 7125,
      "mystery": 7126,
      "complètement": 7127,
      "instruments": 7128,
      "grown": 7129,
      "siècle": 7130,
      "circonstances": 7131,
      "humble": 7132,
      "chauss": 7133,
      "Sometimes": 7134,
      "##kerchief": 7135,
      "gentilhomme": 7136,
      "formidable": 7137,
      "Tenez": 7138,
      "bib": 7139,
      "jur": 7140,
      "mord": 7141,
      "nerv": 7142,
      "sank": 7143,
      "stern": 7144,
      "».": 7145,
      "##cer": 7146,
      "##ède": 7147,
      "envers": 7148,
      "##agers": 7149,
      "conne": 7150,
      "chute": 7151,
      "hadn": 7152,
      "réd": 7153,
      "seriously": 7154,
      "##onnait": 7155,
      "caress": 7156,
      "##assait": 7157,
      "knife": 7158,
      "handkerchief": 7159,
      "merci": 7160,
      "hollow": 7161,
      "trouvaient": 7162,
      "premières": 7163,
      "famous": 7164,
      "besogne": 7165,
      "matters": 7166,
      "throat": 7167,
      "dormir": 7168,
      "atteindre": 7169,
      "costume": 7170,
      "granite": 7171,
      "approaching": 7172,
      "Dom": 7173,
      "aie": 7174,
      "arose": 7175,
      "fureur": 7176,
      "vend": 7177,
      "##aver": 7178,
      "##onf": 7179,
      "chè": 7180,
      "avança": 7181,
      "##acé": 7182,
      "Thorn": 7183,
      "##uez": 7184,
      "proceeded": 7185,
      "manteau": 7186,
      "teach": 7187,
      "##aret": 7188,
      "repart": 7189,
      "écol": 7190,
      "partis": 7191,
      "accour": 7192,
      "recommen": 7193,
      "thanks": 7194,
      "ende": 7195,
      "vouloir": 7196,
      "engaged": 7197,
      "excited": 7198,
      "débar": 7199,
      "payer": 7200,
      "artic": 7201,
      "ruin": 7202,
      "pierres": 7203,
      "slightly": 7204,
      "protest": 7205,
      "cloak": 7206,
      "hauss": 7207,
      "execution": 7208,
      "apartment": 7209,
      "lantern": 7210,
      "billet": 7211,
      "accompanied": 7212,
      "représent": 7213,
      "14": 7214,
      "13": 7215,
      "Mous": 7216,
      "Ros": 7217,
      "born": 7218,
      "dang": 7219,
      "fave": 7220,
      "rail": 7221,
      "rasc": 7222,
      "çà": 7223,
      "##iam": 7224,
      "##lots": 7225,
      "##mor": 7226,
      "##bot": 7227,
      "##onça": 7228,
      "##itaire": 7229,
      "##asing": 7230,
      "##stand": 7231,
      "##uilles": 7232,
      "safe": 7233,
      "soins": 7234,
      "arret": 7235,
      "dism": 7236,
      "##lime": 7237,
      "wouldn": 7238,
      "Arri": 7239,
      "retenir": 7240,
      "##umé": 7241,
      "obtain": 7242,
      "##ancée": 7243,
      "flot": 7244,
      "préoccup": 7245,
      "professor": 7246,
      "pensai": 7247,
      "saisit": 7248,
      "évêque": 7249,
      "clean": 7250,
      "##queton": 7251,
      "Before": 7252,
      "failed": 7253,
      "##heureux": 7254,
      "dangerous": 7255,
      "Grivet": 7256,
      "souvenirs": 7257,
      "mouch": 7258,
      "ambition": 7259,
      "juger": 7260,
      "clouds": 7261,
      "toilette": 7262,
      "staircase": 7263,
      "Dites": 7264,
      "Fe": 7265,
      "Gast": 7266,
      "Roy": 7267,
      "base": 7268,
      "cave": 7269,
      "mouill": 7270,
      "sim": 7271,
      "sink": 7272,
      "tide": 7273,
      "##upp": 7274,
      "##cs": 7275,
      "##lets": 7276,
      "##antz": 7277,
      "##idents": 7278,
      "parfois": 7279,
      "style": 7280,
      "##quelles": 7281,
      "grac": 7282,
      "grève": 7283,
      "école": 7284,
      "##ints": 7285,
      "##issante": 7286,
      "parties": 7287,
      "Christ": 7288,
      "##udi": 7289,
      "encl": 7290,
      "scand": 7291,
      "assumed": 7292,
      "charbon": 7293,
      "presently": 7294,
      "##etta": 7295,
      "Frantz": 7296,
      "telling": 7297,
      "##inced": 7298,
      "habitu": 7299,
      "entier": 7300,
      "grosses": 7301,
      "patron": 7302,
      "painful": 7303,
      "abandon": 7304,
      "précéd": 7305,
      "ayez": 7306,
      "objection": 7307,
      "monster": 7308,
      "study": 7309,
      "envoyer": 7310,
      "dormait": 7311,
      "details": 7312,
      "enthous": 7313,
      "experien": 7314,
      "Musketeers": 7315,
      "##ffee": 7316,
      "gloomy": 7317,
      "cheeks": 7318,
      "civil": 7319,
      "paix": 7320,
      "sévère": 7321,
      "Dre": 7322,
      "Sund": 7323,
      "fau": 7324,
      "fasse": 7325,
      "vête": 7326,
      "##ius": 7327,
      "##aus": 7328,
      "##aigne": 7329,
      "##oused": 7330,
      "##quently": 7331,
      "##quenard": 7332,
      "##respond": 7333,
      "shoes": 7334,
      "frais": 7335,
      "détr": 7336,
      "récl": 7337,
      "abrupt": 7338,
      "##sier": 7339,
      "poids": 7340,
      "Leur": 7341,
      "##ateurs": 7342,
      "##ancol": 7343,
      "prepar": 7344,
      "block": 7345,
      "##uded": 7346,
      "terms": 7347,
      "sentais": 7348,
      "##erness": 7349,
      "pension": 7350,
      "Charm": 7351,
      "##aillit": 7352,
      "naturel": 7353,
      "ajouter": 7354,
      "keeping": 7355,
      "rivage": 7356,
      "##bourn": 7357,
      "latitude": 7358,
      "Coquenard": 7359,
      "catch": 7360,
      "précipit": 7361,
      "succeed": 7362,
      "kissed": 7363,
      "equal": 7364,
      "muttered": 7365,
      "fumée": 7366,
      "Berks": 7367,
      "Street": 7368,
      "mélancol": 7369,
      "résultat": 7370,
      "fetch": 7371,
      "plunged": 7372,
      "##enbrock": 7373,
      "Thornfield": 7374,
      "endeav": 7375,
      "Gaston": 7376,
      "Di": 7377,
      "Fir": 7378,
      "east": 7379,
      "fussent": 7380,
      "row": 7381,
      "sage": 7382,
      "vêt": 7383,
      "wais": 7384,
      "##iest": 7385,
      "##yl": 7386,
      "##pte": 7387,
      "##bber": 7388,
      "##onville": 7389,
      "##arre": 7390,
      "##itive": 7391,
      "enlev": 7392,
      "##rop": 7393,
      "##quant": 7394,
      "pourra": 7395,
      "proper": 7396,
      "proceed": 7397,
      "alarm": 7398,
      "apporter": 7399,
      "couche": 7400,
      "peri": 7401,
      "impert": 7402,
      "Once": 7403,
      "##ogue": 7404,
      "enfer": 7405,
      "##arsh": 7406,
      "everywhere": 7407,
      "assit": 7408,
      "interior": 7409,
      "finish": 7410,
      "refer": 7411,
      "##rows": 7412,
      "trembled": 7413,
      "sourc": 7414,
      "source": 7415,
      "dépos": 7416,
      "sublime": 7417,
      "nearer": 7418,
      "Roche": 7419,
      "travaux": 7420,
      "domin": 7421,
      "défaut": 7422,
      "perform": 7423,
      "obligé": 7424,
      "développ": 7425,
      "superior": 7426,
      "essaya": 7427,
      "suspend": 7428,
      "dimin": 7429,
      "liberty": 7430,
      "belonged": 7431,
      "dragged": 7432,
      "mousquetaires": 7433,
      "declared": 7434,
      "Longbourn": 7435,
      "dreadful": 7436,
      "trompe": 7437,
      "kilomet": 7438,
      "nerfs": 7439,
      "pirates": 7440,
      "vapeur": 7441,
      "recolle": 7442,
      "Heureusement": 7443,
      "Mousqueton": 7444,
      ".--": 7445,
      "Guill": 7446,
      "alle": 7447,
      "fame": 7448,
      "ham": 7449,
      "nation": 7450,
      "paces": 7451,
      "rom": 7452,
      "wants": 7453,
      "thunder": 7454,
      "##ising": 7455,
      "##arse": 7456,
      "##iece": 7457,
      "étal": 7458,
      "plong": 7459,
      "unex": 7460,
      "##osing": 7461,
      "hers": 7462,
      "dull": 7463,
      "arbre": 7464,
      "Three": 7465,
      "##oose": 7466,
      "prog": 7467,
      "rolled": 7468,
      "blows": 7469,
      "space": 7470,
      "working": 7471,
      "tenant": 7472,
      "##ample": 7473,
      "rappelle": 7474,
      "swift": 7475,
      "vivant": 7476,
      "forgive": 7477,
      "grey": 7478,
      "Duke": 7479,
      "posséd": 7480,
      "brilliant": 7481,
      "recommenc": 7482,
      "contempl": 7483,
      "meilleur": 7484,
      "créature": 7485,
      "clerk": 7486,
      "affirm": 7487,
      "exhausted": 7488,
      "misfortune": 7489,
      "Lestrade": 7490,
      "period": 7491,
      "10": 7492,
      "Lys": 7493,
      "cer": 7494,
      "dust": 7495,
      "emer": 7496,
      "maud": 7497,
      "pick": 7498,
      "rad": 7499,
      "saint": 7500,
      "ty": 7501,
      "tâ": 7502,
      "vulg": 7503,
      "wed": 7504,
      "éd": 7505,
      "##iette": 7506,
      "##gl": 7507,
      "##cte": 7508,
      "##oulez": 7509,
      "##isme": 7510,
      "##isely": 7511,
      "##eds": 7512,
      "##hem": 7513,
      "##verse": 7514,
      "shame": 7515,
      "shaking": 7516,
      "brain": 7517,
      "##ifice": 7518,
      "crains": 7519,
      "usage": 7520,
      "souliers": 7521,
      "flung": 7522,
      "correspond": 7523,
      "incap": 7524,
      "incess": 7525,
      "merely": 7526,
      "insp": 7527,
      "suppli": 7528,
      "##ounce": 7529,
      "##gues": 7530,
      "##gund": 7531,
      "join": 7532,
      "announced": 7533,
      "angois": 7534,
      "wishes": 7535,
      "permit": 7536,
      "circul": 7537,
      "Prov": 7538,
      "demeura": 7539,
      "rêver": 7540,
      "summer": 7541,
      "comptait": 7542,
      "rejoindre": 7543,
      "philosoph": 7544,
      "silencieux": 7545,
      "affreux": 7546,
      "Pacific": 7547,
      "Souvarine": 7548,
      "innocent": 7549,
      "gendarmes": 7550,
      "architecture": 7551,
      "abominable": 7552,
      "absurd": 7553,
      "excursion": 7554,
      "remorse": 7555,
      "faveur": 7556,
      "Drebber": 7557,
      "20": 7558,
      "Donc": 7559,
      "Li": 7560,
      "Tant": 7561,
      "banc": 7562,
      "coo": 7563,
      "date": 7564,
      "danse": 7565,
      "eusse": 7566,
      "lin": 7567,
      "pin": 7568,
      "pais": 7569,
      "sœur": 7570,
      "tâche": 7571,
      "##oit": 7572,
      "##uce": 7573,
      "##now": 7574,
      "##ians": 7575,
      "##for": 7576,
      "##isp": 7577,
      "deg": 7578,
      "##attered": 7579,
      "##utions": 7580,
      "lava": 7581,
      "##quaient": 7582,
      "##ieuses": 7583,
      "moll": 7584,
      "repl": 7585,
      "coffee": 7586,
      "autor": 7587,
      "goat": 7588,
      "##chez": 7589,
      "##eping": 7590,
      "strang": 7591,
      "everybody": 7592,
      "vision": 7593,
      "veuve": 7594,
      "##izing": 7595,
      "pensais": 7596,
      "portion": 7597,
      "salut": 7598,
      "substance": 7599,
      "relations": 7600,
      "convinced": 7601,
      "rendu": 7602,
      "Queen": 7603,
      "brown": 7604,
      "anguish": 7605,
      "swall": 7606,
      "inquired": 7607,
      "provo": 7608,
      "driven": 7609,
      "hatred": 7610,
      "Lorsqu": 7611,
      "bâtiment": 7612,
      "ennemi": 7613,
      "fields": 7614,
      "sympath": 7615,
      "coward": 7616,
      "Franklin": 7617,
      "waist": 7618,
      "Bishop": 7619,
      "Derville": 7620,
      "Fleur": 7621,
      "II": 7622,
      "Sil": 7623,
      "Voulez": 7624,
      "York": 7625,
      "dig": 7626,
      "lu": 7627,
      "lent": 7628,
      "ming": 7629,
      "tiens": 7630,
      "vic": 7631,
      "##aï": 7632,
      "##xte": 7633,
      "##bien": 7634,
      "##arer": 7635,
      "##atives": 7636,
      "toit": 7637,
      "##vered": 7638,
      "##acer": 7639,
      "mode": 7640,
      "##illons": 7641,
      "shudd": 7642,
      "##geon": 7643,
      "wear": 7644,
      "##tra": 7645,
      "##ertain": 7646,
      "regagn": 7647,
      "Chim": 7648,
      "préte": 7649,
      "continent": 7650,
      "meth": 7651,
      "considered": 7652,
      "considerable": 7653,
      "voyageurs": 7654,
      "succès": 7655,
      "sleeping": 7656,
      "destroy": 7657,
      "résolution": 7658,
      "transports": 7659,
      "Mouquette": 7660,
      "découverte": 7661,
      "Avon": 7662,
      "inexplic": 7663,
      "Déj": 7664,
      "remercie": 7665,
      "disgust": 7666,
      "explanation": 7667,
      "bibli": 7668,
      "App": 7669,
      "Cal": 7670,
      "Far": 7671,
      "Latin": 7672,
      "Lheureux": 7673,
      "Save": 7674,
      "Vol": 7675,
      "bore": 7676,
      "fich": 7677,
      "pace": 7678,
      "pages": 7679,
      "task": 7680,
      "##fect": 7681,
      "##ko": 7682,
      "lament": 7683,
      "##ousse": 7684,
      "##ource": 7685,
      "stairs": 7686,
      "Thurs": 7687,
      "fears": 7688,
      "prove": 7689,
      "repouss": 7690,
      "remis": 7691,
      "courait": 7692,
      "crown": 7693,
      "Ceci": 7694,
      "attir": 7695,
      "désol": 7696,
      "distress": 7697,
      "instantly": 7698,
      "relie": 7699,
      "humaine": 7700,
      "reconnaissance": 7701,
      "imagin": 7702,
      "Ant": 7703,
      "##iterran": 7704,
      "montrait": 7705,
      "paysan": 7706,
      "moyens": 7707,
      "mysterious": 7708,
      "sûre": 7709,
      "joli": 7710,
      "mounted": 7711,
      "##iasm": 7712,
      "picked": 7713,
      "##ING": 7714,
      "circonstance": 7715,
      "paquet": 7716,
      "Français": 7717,
      "poissons": 7718,
      "Father": 7719,
      "Man": 7720,
      "Oud": 7721,
      "Yonville": 7722,
      "cass": 7723,
      "cred": 7724,
      "dor": 7725,
      "irai": 7726,
      "pave": 7727,
      "pup": 7728,
      "rive": 7729,
      "séd": 7730,
      "sienne": 7731,
      "vel": 7732,
      "yard": 7733,
      "##uced": 7734,
      "##hire": 7735,
      "##hold": 7736,
      "##çai": 7737,
      "devez": 7738,
      "##omètre": 7739,
      "toile": 7740,
      "##tering": 7741,
      "desired": 7742,
      "surpr": 7743,
      "##sière": 7744,
      "passions": 7745,
      "adieu": 7746,
      "##appoint": 7747,
      "accout": 7748,
      "mainten": 7749,
      "autrement": 7750,
      "##raham": 7751,
      "assured": 7752,
      "visiter": 7753,
      "arrivés": 7754,
      "attendais": 7755,
      "tourment": 7756,
      "hearts": 7757,
      "drôle": 7758,
      "retourn": 7759,
      "reader": 7760,
      "voisine": 7761,
      "elb": 7762,
      "rival": 7763,
      "Adèle": 7764,
      "according": 7765,
      "victim": 7766,
      "rayons": 7767,
      "changé": 7768,
      "harpoon": 7769,
      "sérieusement": 7770,
      "maigre": 7771,
      "fraîche": 7772,
      "Robin": 7773,
      "Amérique": 7774,
      "Bébert": 7775,
      "retraite": 7776,
      "Chimneys": 7777,
      "Oudarde": 7778,
      "Each": 7779,
      "Fortun": 7780,
      "Great": 7781,
      "poul": 7782,
      "sen": 7783,
      "takes": 7784,
      "yonder": 7785,
      "##ring": 7786,
      "##éter": 7787,
      "##TE": 7788,
      "##ôtre": 7789,
      "##lements": 7790,
      "##atif": 7791,
      "##edy": 7792,
      "##ourde": 7793,
      "##otes": 7794,
      "##aping": 7795,
      "surv": 7796,
      "##astic": 7797,
      "##autions": 7798,
      "intended": 7799,
      "##enses": 7800,
      "##onna": 7801,
      "crier": 7802,
      "contained": 7803,
      "conserv": 7804,
      "atta": 7805,
      "aware": 7806,
      "assist": 7807,
      "assise": 7808,
      "sorti": 7809,
      "colour": 7810,
      "supporter": 7811,
      "trick": 7812,
      "morts": 7813,
      "suffit": 7814,
      "Still": 7815,
      "reconnaiss": 7816,
      "See": 7817,
      "violently": 7818,
      "constantly": 7819,
      "dirai": 7820,
      "hurt": 7821,
      "abandoned": 7822,
      "observations": 7823,
      "creus": 7824,
      "embarras": 7825,
      "rapidité": 7826,
      "fastened": 7827,
      "foolish": 7828,
      "directly": 7829,
      "aider": 7830,
      "Voyez": 7831,
      "Rouen": 7832,
      "hanging": 7833,
      "mousquetaire": 7834,
      "élég": 7835,
      "compliment": 7836,
      "inhabit": 7837,
      "corpse": 7838,
      "embarcation": 7839,
      "piano": 7840,
      "mouchoir": 7841,
      "Imp": 7842,
      "biz": 7843,
      "foyer": 7844,
      "odd": 7845,
      "torn": 7846,
      "vest": 7847,
      "éper": 7848,
      "##ysi": 7849,
      "##bbing": 7850,
      "##îte": 7851,
      "deck": 7852,
      "##orde": 7853,
      "##utenant": 7854,
      "congé": 7855,
      "surveill": 7856,
      "##orted": 7857,
      "sheet": 7858,
      "##iteur": 7859,
      "proof": 7860,
      "managed": 7861,
      "serve": 7862,
      "##arech": 7863,
      "##érée": 7864,
      "##inture": 7865,
      "clart": 7866,
      "adventure": 7867,
      "##ignes": 7868,
      "handed": 7869,
      "worked": 7870,
      "scar": 7871,
      "match": 7872,
      "charg": 7873,
      "silver": 7874,
      "begun": 7875,
      "miserable": 7876,
      "drunk": 7877,
      "dernières": 7878,
      "beheld": 7879,
      "comprom": 7880,
      "élo": 7881,
      "joue": 7882,
      "tendit": 7883,
      "balbut": 7884,
      "evil": 7885,
      "pressure": 7886,
      "demeur": 7887,
      "possessed": 7888,
      "cutting": 7889,
      "##oureuse": 7890,
      "catast": 7891,
      "monstre": 7892,
      "mouvements": 7893,
      "envoyé": 7894,
      "avoue": 7895,
      "camarade": 7896,
      "steamer": 7897,
      "Musketeer": 7898,
      "hesitated": 7899,
      "peasant": 7900,
      "bridge": 7901,
      "français": 7902,
      "library": 7903,
      "nervous": 7904,
      "dangere": 7905,
      "Cun": 7906,
      "Dene": 7907,
      "Four": 7908,
      "Pre": 7909,
      "Va": 7910,
      "XIII": 7911,
      "damp": 7912,
      "jadis": 7913,
      "mise": 7914,
      "net": 7915,
      "##év": 7916,
      "##with": 7917,
      "##RO": 7918,
      "##onel": 7919,
      "##asons": 7920,
      "quad": 7921,
      "lecture": 7922,
      "lab": 7923,
      "##usions": 7924,
      "##ulin": 7925,
      "##olue": 7926,
      "##icked": 7927,
      "sois": 7928,
      "détermin": 7929,
      "dozen": 7930,
      "manif": 7931,
      "##aved": 7932,
      "##unately": 7933,
      "##ouvre": 7934,
      "##isten": 7935,
      "classe": 7936,
      "toucher": 7937,
      "remains": 7938,
      "répondu": 7939,
      "spark": 7940,
      "expéd": 7941,
      "courte": 7942,
      "terri": 7943,
      "demanded": 7944,
      "emporter": 7945,
      "##ugged": 7946,
      "##rah": 7947,
      "Combien": 7948,
      "sortie": 7949,
      "informed": 7950,
      "bouill": 7951,
      "bouge": 7952,
      "éviter": 7953,
      "joined": 7954,
      "reconnu": 7955,
      "watching": 7956,
      "advance": 7957,
      "lowered": 7958,
      "delay": 7959,
      "surely": 7960,
      "apparence": 7961,
      "utile": 7962,
      "landl": 7963,
      "défend": 7964,
      "pâl": 7965,
      "built": 7966,
      "boys": 7967,
      "entering": 7968,
      "absolutely": 7969,
      "conseil": 7970,
      "bringing": 7971,
      "sisters": 7972,
      "gagné": 7973,
      "chemist": 7974,
      "climbed": 7975,
      "métier": 7976,
      "événement": 7977,
      "delicate": 7978,
      "violemment": 7979,
      "Minister": 7980,
      "explosion": 7981,
      "Fortunately": 7982,
      "catastro": 7983,
      "Deneulin": 7984,
      "Bert": 7985,
      "Del": 7986,
      "Lud": 7987,
      "aî": 7988,
      "mud": 7989,
      "upper": 7990,
      "vendre": 7991,
      "yards": 7992,
      "—\"": 7993,
      "##em": 7994,
      "##rante": 7995,
      "##aj": 7996,
      "##fall": 7997,
      "##EL": 7998,
      "##AL": 7999,
      "##zire": 8000,
      "##irg": 8001,
      "##rions": 8002,
      "##ilar": 8003,
      "##ilty": 8004,
      "conde": 8005,
      "aven": 8006,
      "démon": 8007,
      "noon": 8008,
      "alar": 8009,
      "##ustri": 8010,
      "couteau": 8011,
      "coff": 8012,
      "compass": 8013,
      "retira": 8014,
      "crat": 8015,
      "preuve": 8016,
      "flood": 8017,
      "works": 8018,
      "sentis": 8019,
      "Alzire": 8020,
      "guilty": 8021,
      "portée": 8022,
      "excitement": 8023,
      "exploration": 8024,
      "revenu": 8025,
      "dirty": 8026,
      "poussait": 8027,
      "probablement": 8028,
      "prononcer": 8029,
      "régul": 8030,
      "flew": 8031,
      "inquiet": 8032,
      "domestiques": 8033,
      "ignorant": 8034,
      "supérieure": 8035,
      "singulière": 8036,
      "commencé": 8037,
      "selon": 8038,
      "Lydie": 8039,
      "gaieté": 8040,
      "tomorrow": 8041,
      "hotel": 8042,
      "faithful": 8043,
      "throwing": 8044,
      "chagrin": 8045,
      "degrés": 8046,
      "applaud": 8047,
      "Charmolue": 8048,
      "incapable": 8049,
      "Silence": 8050,
      "Ludovic": 8051,
      "Mad": 8052,
      "fate": 8053,
      "ferez": 8054,
      "pause": 8055,
      "rays": 8056,
      "##vely": 8057,
      "##cre": 8058,
      "##ky": 8059,
      "##ôme": 8060,
      "##ases": 8061,
      "##asmin": 8062,
      "##otel": 8063,
      "unp": 8064,
      "jeun": 8065,
      "avançait": 8066,
      "##illart": 8067,
      "stiff": 8068,
      "trist": 8069,
      "dug": 8070,
      "saf": 8071,
      "example": 8072,
      "##pping": 8073,
      "##irez": 8074,
      "##oop": 8075,
      "##like": 8076,
      "##bled": 8077,
      "##ursed": 8078,
      "impro": 8079,
      "mates": 8080,
      "attached": 8081,
      "Attend": 8082,
      "aurons": 8083,
      "auriez": 8084,
      "##pected": 8085,
      "certains": 8086,
      "envah": 8087,
      "volume": 8088,
      "##errier": 8089,
      "earnest": 8090,
      "Cape": 8091,
      "verd": 8092,
      "quarrel": 8093,
      "débarr": 8094,
      "mineurs": 8095,
      "aimez": 8096,
      "##gson": 8097,
      "latin": 8098,
      "troubled": 8099,
      "gallant": 8100,
      "rencontré": 8101,
      "fleurs": 8102,
      "obscure": 8103,
      "sauta": 8104,
      "##ENT": 8105,
      "bouteille": 8106,
      "boulevers": 8107,
      "Mahiette": 8108,
      "chèvre": 8109,
      "Thursday": 8110,
      "!--": 8111,
      "Ade": 8112,
      "Could": 8113,
      "Ferrier": 8114,
      "Hume": 8115,
      "Réqu": 8116,
      "fête": 8117,
      "mien": 8118,
      "maman": 8119,
      "raid": 8120,
      "##van": 8121,
      "##mm": 8122,
      "##mons": 8123,
      "##erais": 8124,
      "##isait": 8125,
      "seuil": 8126,
      "aside": 8127,
      "##abe": 8128,
      "montagn": 8129,
      "sonna": 8130,
      "shone": 8131,
      "frag": 8132,
      "weary": 8133,
      "##lies": 8134,
      "procession": 8135,
      "abî": 8136,
      "##sif": 8137,
      "sommet": 8138,
      "oubl": 8139,
      "retired": 8140,
      "devoted": 8141,
      "spend": 8142,
      "offrir": 8143,
      "explication": 8144,
      "flight": 8145,
      "entends": 8146,
      "Marches": 8147,
      "confused": 8148,
      "Milan": 8149,
      "raising": 8150,
      "Grant": 8151,
      "ouvrage": 8152,
      "solide": 8153,
      "Soon": 8154,
      "##ception": 8155,
      "figures": 8156,
      "masters": 8157,
      "delà": 8158,
      "friendship": 8159,
      "examine": 8160,
      "aperçu": 8161,
      "highly": 8162,
      "meaning": 8163,
      "fellows": 8164,
      "madam": 8165,
      "mystère": 8166,
      "pronounced": 8167,
      "éclata": 8168,
      "politique": 8169,
      "extrêmement": 8170,
      "déclara": 8171,
      "Norbert": 8172,
      "atmosphère": 8173,
      "découvrir": 8174,
      "mérite": 8175,
      "Pardon": 8176,
      "First": 8177,
      "method": 8178,
      "Adele": 8179,
      "Réquillart": 8180,
      ").": 8181,
      "30": 8182,
      ":--": 8183,
      "Amb": 8184,
      "Acc": 8185,
      "Baz": 8186,
      "Icel": 8187,
      "Listen": 8188,
      "Ni": 8189,
      "Red": 8190,
      "Tour": 8191,
      "bonté": 8192,
      "gained": 8193,
      "hate": 8194,
      "haven": 8195,
      "ju": 8196,
      "mend": 8197,
      "né": 8198,
      "pack": 8199,
      "pét": 8200,
      "rè": 8201,
      "rib": 8202,
      "tord": 8203,
      "##pool": 8204,
      "##ME": 8205,
      "##arl": 8206,
      "##arily": 8207,
      "labour": 8208,
      "reb": 8209,
      "lest": 8210,
      "comtesse": 8211,
      "plaine": 8212,
      "track": 8213,
      "extended": 8214,
      "fréqu": 8215,
      "Those": 8216,
      "weap": 8217,
      "weigh": 8218,
      "brav": 8219,
      "tea": 8220,
      "Which": 8221,
      "coul": 8222,
      "##umn": 8223,
      "deviner": 8224,
      "crying": 8225,
      "crushed": 8226,
      "crimes": 8227,
      "douter": 8228,
      "exped": 8229,
      "directeur": 8230,
      "overcome": 8231,
      "commission": 8232,
      "underwater": 8233,
      "continuer": 8234,
      "noms": 8235,
      "proport": 8236,
      "century": 8237,
      "famil": 8238,
      "relief": 8239,
      "tombé": 8240,
      "##ailli": 8241,
      "rendait": 8242,
      "murmur": 8243,
      "travel": 8244,
      "tranquil": 8245,
      "papers": 8246,
      "sounded": 8247,
      "##issements": 8248,
      "needed": 8249,
      "reprenait": 8250,
      "procure": 8251,
      "organis": 8252,
      "pistole": 8253,
      "Anglais": 8254,
      "rouges": 8255,
      "vanished": 8256,
      "prevented": 8257,
      "chemise": 8258,
      "volcano": 8259,
      "private": 8260,
      "Conti": 8261,
      "baiser": 8262,
      "possibly": 8263,
      "Signora": 8264,
      "witness": 8265,
      "Messieurs": 8266,
      "Faites": 8267,
      "recluse": 8268,
      "experienced": 8269,
      "inexplicable": 8270,
      "Iceland": 8271,
      "Jasmin": 8272,
      "Pont": 8273,
      "ate": 8274,
      "mi": 8275,
      "mienne": 8276,
      "##oci": 8277,
      "##vis": 8278,
      "##aça": 8279,
      "##ûte": 8280,
      "##ouch": 8281,
      "##onte": 8282,
      "##ino": 8283,
      "##aries": 8284,
      "##ommes": 8285,
      "##neaux": 8286,
      "##elop": 8287,
      "##roi": 8288,
      "lesquels": 8289,
      "parois": 8290,
      "plomb": 8291,
      "franche": 8292,
      "ador": 8293,
      "##ignant": 8294,
      "remind": 8295,
      "doul": 8296,
      "...»": 8297,
      "encoun": 8298,
      "expéri": 8299,
      "terr": 8300,
      "terrain": 8301,
      "commis": 8302,
      "worn": 8303,
      "enferm": 8304,
      "species": 8305,
      "miners": 8306,
      "minuit": 8307,
      "##licité": 8308,
      "physi": 8309,
      "semblable": 8310,
      "wanting": 8311,
      "absent": 8312,
      "seconds": 8313,
      "conviction": 8314,
      "naturellement": 8315,
      "formait": 8316,
      "comprenait": 8317,
      "furieux": 8318,
      "actions": 8319,
      "##ambour": 8320,
      "nuages": 8321,
      "cabin": 8322,
      "abandonner": 8323,
      "vagab": 8324,
      "buried": 8325,
      "voudrez": 8326,
      "gazing": 8327,
      "commander": 8328,
      "procur": 8329,
      "fatigu": 8330,
      "reproach": 8331,
      "tenter": 8332,
      "schol": 8333,
      "##conque": 8334,
      "##royable": 8335,
      "Shall": 8336,
      "##olyte": 8337,
      "extent": 8338,
      "disturb": 8339,
      "slipped": 8340,
      "reflected": 8341,
      "Malgré": 8342,
      "pavé": 8343,
      "commencement": 8344,
      "widow": 8345,
      "whispered": 8346,
      "stupéfait": 8347,
      "fâché": 8348,
      "false": 8349,
      "exactement": 8350,
      "unexpected": 8351,
      "paisible": 8352,
      "degree": 8353,
      "tristesse": 8354,
      "montagnes": 8355,
      "Bazin": 8356,
      "25": 8357,
      "Cune": 8358,
      "Hipp": 8359,
      "III": 8360,
      "ack": 8361,
      "dai": 8362,
      "gives": 8363,
      "lux": 8364,
      "mast": 8365,
      "named": 8366,
      "odeur": 8367,
      "tin": 8368,
      "taill": 8369,
      "ways": 8370,
      "##iée": 8371,
      "##iting": 8372,
      "##ascon": 8373,
      "##omen": 8374,
      "sell": 8375,
      "paru": 8376,
      "desper": 8377,
      "mob": 8378,
      "trag": 8379,
      "islet": 8380,
      "shiver": 8381,
      "déd": 8382,
      "feuilles": 8383,
      "##ieres": 8384,
      "appoint": 8385,
      "cheer": 8386,
      "regardaient": 8387,
      "croix": 8388,
      "recalled": 8389,
      "folly": 8390,
      "conscious": 8391,
      "emporte": 8392,
      "boots": 8393,
      "voyais": 8394,
      "moral": 8395,
      "arrivèrent": 8396,
      "sourde": 8397,
      "drowned": 8398,
      "cleared": 8399,
      "jetant": 8400,
      "élança": 8401,
      "tantôt": 8402,
      "Anne": 8403,
      "garn": 8404,
      "inquir": 8405,
      "feuille": 8406,
      "renf": 8407,
      "sémin": 8408,
      "dirait": 8409,
      "descended": 8410,
      "##aws": 8411,
      "produit": 8412,
      "Chapitre": 8413,
      "valait": 8414,
      "frapper": 8415,
      "employed": 8416,
      "recognised": 8417,
      "creatures": 8418,
      "éloigna": 8419,
      "Certainement": 8420,
      "ignorance": 8421,
      "limbs": 8422,
      "réfléchir": 8423,
      "retirer": 8424,
      "Chemin": 8425,
      "guns": 8426,
      "communication": 8427,
      "arrested": 8428,
      "picture": 8429,
      "obeyed": 8430,
      "America": 8431,
      "gathered": 8432,
      "elder": 8433,
      "Gregson": 8434,
      "pavement": 8435,
      "Cunég": 8436,
      "jeunesse": 8437,
      "Cunegund": 8438,
      "11": 8439,
      "Copp": 8440,
      "Fril": 8441,
      "Give": 8442,
      "Hotel": 8443,
      "Lod": 8444,
      "VI": 8445,
      "eg": 8446,
      "ep": 8447,
      "fired": 8448,
      "lâche": 8449,
      "lignes": 8450,
      "éche": 8451,
      "##ctement": 8452,
      "##NE": 8453,
      "##bit": 8454,
      "##lection": 8455,
      "detective": 8456,
      "##inging": 8457,
      "##iral": 8458,
      "reasons": 8459,
      "étage": 8460,
      "jeudi": 8461,
      "chances": 8462,
      "exasp": 8463,
      "lib": 8464,
      "appli": 8465,
      "appela": 8466,
      "apprit": 8467,
      "brise": 8468,
      "##érité": 8469,
      "remonter": 8470,
      "##udder": 8471,
      "##eze": 8472,
      "flash": 8473,
      "somewhere": 8474,
      "pointing": 8475,
      "##iquement": 8476,
      "Atlant": 8477,
      "##ormais": 8478,
      "##rank": 8479,
      "lasted": 8480,
      "coupable": 8481,
      "confir": 8482,
      "entrance": 8483,
      "supply": 8484,
      "portant": 8485,
      "infam": 8486,
      "##ducation": 8487,
      "raisons": 8488,
      "constit": 8489,
      "constant": 8490,
      "permis": 8491,
      "montrant": 8492,
      "pressing": 8493,
      "frappa": 8494,
      "shouting": 8495,
      "soupç": 8496,
      "puissant": 8497,
      "Certes": 8498,
      "acquaint": 8499,
      "forehead": 8500,
      "XXX": 8501,
      "introd": 8502,
      "pousser": 8503,
      "morceaux": 8504,
      "atmosphere": 8505,
      "agreeable": 8506,
      "prisonnier": 8507,
      "épouser": 8508,
      "deceived": 8509,
      "uniform": 8510,
      "##ograph": 8511,
      "various": 8512,
      "hospit": 8513,
      "auberge": 8514,
      "prétexte": 8515,
      "Cunégonde": 8516,
      "12": 8517,
      "Cross": 8518,
      "Gascon": 8519,
      "High": 8520,
      "Laissez": 8521,
      "Louvre": 8522,
      "Str": 8523,
      "bai": 8524,
      "gam": 8525,
      "vari": 8526,
      "wel": 8527,
      "émer": 8528,
      "##uary": 8529,
      "##iqu": 8530,
      "##rades": 8531,
      "##orme": 8532,
      "meat": 8533,
      "##agés": 8534,
      "sale": 8535,
      "pourrai": 8536,
      "shape": 8537,
      "##alles": 8538,
      "grond": 8539,
      "##hern": 8540,
      "répéter": 8541,
      "##ivent": 8542,
      "spare": 8543,
      "soum": 8544,
      "regarded": 8545,
      "Next": 8546,
      "veget": 8547,
      "finally": 8548,
      "confusion": 8549,
      "entrait": 8550,
      "##othè": 8551,
      "Milord": 8552,
      "promener": 8553,
      "Était": 8554,
      "farm": 8555,
      "drap": 8556,
      "redout": 8557,
      "côtes": 8558,
      "jetait": 8559,
      "humili": 8560,
      "verrons": 8561,
      "doubtless": 8562,
      "fully": 8563,
      "devenue": 8564,
      "battait": 8565,
      "décider": 8566,
      "frappé": 8567,
      "Roddy": 8568,
      "reçut": 8569,
      "vertu": 8570,
      "donnez": 8571,
      "About": 8572,
      "nombreux": 8573,
      "birth": 8574,
      "victime": 8575,
      "meilleure": 8576,
      "flamme": 8577,
      "mentioned": 8578,
      "appareil": 8579,
      "Guards": 8580,
      "réflexion": 8581,
      "Colonel": 8582,
      "Upon": 8583,
      "pharmacien": 8584,
      "Finally": 8585,
      "Guillaume": 8586,
      "mollus": 8587,
      "Marchesa": 8588,
      "acknow": 8589,
      "Frilair": 8590,
      "Bo": 8591,
      "Dun": 8592,
      "Jan": 8593,
      "James": 8594,
      "Med": 8595,
      "Pau": 8596,
      "Vrai": 8597,
      "Wardes": 8598,
      "bod": 8599,
      "file": 8600,
      "mirent": 8601,
      "raft": 8602,
      "wretch": 8603,
      "##faction": 8604,
      "##orough": 8605,
      "##eted": 8606,
      "##eler": 8607,
      "étro": 8608,
      "mech": 8609,
      "destr": 8610,
      "##acity": 8611,
      "##ossible": 8612,
      "trous": 8613,
      "sonner": 8614,
      "frank": 8615,
      "arre": 8616,
      "##avi": 8617,
      "Heaven": 8618,
      "##arts": 8619,
      "willing": 8620,
      "##issent": 8621,
      "crack": 8622,
      "removed": 8623,
      "heureusement": 8624,
      "distrib": 8625,
      "pull": 8626,
      "##riture": 8627,
      "##arrag": 8628,
      "Ass": 8629,
      "trib": 8630,
      "avantage": 8631,
      "drop": 8632,
      "convuls": 8633,
      "levait": 8634,
      "méch": 8635,
      "invitation": 8636,
      "Reg": 8637,
      "##engers": 8638,
      "Does": 8639,
      "occupé": 8640,
      "présenta": 8641,
      "repeating": 8642,
      "faiblesse": 8643,
      "##ification": 8644,
      "proposition": 8645,
      "décida": 8646,
      "movements": 8647,
      "douceur": 8648,
      "convenu": 8649,
      "summit": 8650,
      "sauvage": 8651,
      "##assif": 8652,
      "précipita": 8653,
      "puissance": 8654,
      "adresser": 8655,
      "imprudence": 8656,
      "threatened": 8657,
      "ennemis": 8658,
      "absorbed": 8659,
      "Jusqu": 8660,
      "événements": 8661,
      "lifted": 8662,
      "enthusiasm": 8663,
      "Rochefort": 8664,
      "**": 8665,
      "Farrag": 8666,
      "Merci": 8667,
      "Rivers": 8668,
      "banqu": 8669,
      "cuir": 8670,
      "mute": 8671,
      "nette": 8672,
      "oil": 8673,
      "tas": 8674,
      "tun": 8675,
      "tint": 8676,
      "##ec": 8677,
      "##dom": 8678,
      "##mont": 8679,
      "##cast": 8680,
      "##wing": 8681,
      "##ani": 8682,
      "##ashing": 8683,
      "##chb": 8684,
      "##roid": 8685,
      "unf": 8686,
      "queue": 8687,
      "##iding": 8688,
      "##ender": 8689,
      "plonge": 8690,
      "abatt": 8691,
      "##uise": 8692,
      "##éra": 8693,
      "passport": 8694,
      "couper": 8695,
      "cocher": 8696,
      "compreh": 8697,
      "##ittle": 8698,
      "objets": 8699,
      "impl": 8700,
      "overwh": 8701,
      "worst": 8702,
      "empois": 8703,
      "correct": 8704,
      "épais": 8705,
      "mince": 8706,
      "boîte": 8707,
      "tenez": 8708,
      "guessed": 8709,
      "##othic": 8710,
      "propres": 8711,
      "boue": 8712,
      "espace": 8713,
      "subm": 8714,
      "Pourtant": 8715,
      "rappe": 8716,
      "comprend": 8717,
      "##ground": 8718,
      "Any": 8719,
      "skiff": 8720,
      "remarqué": 8721,
      "descendait": 8722,
      "causait": 8723,
      "generally": 8724,
      "blew": 8725,
      "intelligent": 8726,
      "releva": 8727,
      "tromper": 8728,
      "indicated": 8729,
      "surrounded": 8730,
      "fidèle": 8731,
      "commissaire": 8732,
      "energy": 8733,
      "betrayed": 8734,
      "statue": 8735,
      "virtue": 8736,
      "eagerly": 8737,
      "enthousias": 8738,
      "Farragut": 8739,
      "overwhel": 8740,
      "Fo": 8741,
      "Hong": 8742,
      "Kong": 8743,
      "Low": 8744,
      "Mai": 8745,
      "San": 8746,
      "Six": 8747,
      "Tow": 8748,
      "Und": 8749,
      "ane": 8750,
      "cere": 8751,
      "dil": 8752,
      "hit": 8753,
      "hut": 8754,
      "jal": 8755,
      "nap": 8756,
      "pente": 8757,
      "rum": 8758,
      "sap": 8759,
      "tig": 8760,
      "##uz": 8761,
      "##iar": 8762,
      "##rées": 8763,
      "##fish": 8764,
      "##CH": 8765,
      "##enole": 8766,
      "today": 8767,
      "enl": 8768,
      "##rient": 8769,
      "seigneur": 8770,
      "##ali": 8771,
      "étourd": 8772,
      "##igher": 8773,
      "estime": 8774,
      "fruit": 8775,
      "déce": 8776,
      "arg": 8777,
      "##ortable": 8778,
      "wept": 8779,
      "disais": 8780,
      "serpent": 8781,
      "seeking": 8782,
      "##intes": 8783,
      "couches": 8784,
      "marier": 8785,
      "##resses": 8786,
      "imper": 8787,
      "criant": 8788,
      "accr": 8789,
      "croit": 8790,
      "Neuf": 8791,
      "image": 8792,
      "affairs": 8793,
      "Ingram": 8794,
      "indisp": 8795,
      "##oleon": 8796,
      "pleurer": 8797,
      "incred": 8798,
      "champs": 8799,
      "proposed": 8800,
      "semblables": 8801,
      "donnant": 8802,
      "central": 8803,
      "knee": 8804,
      "redesc": 8805,
      "égard": 8806,
      "derniere": 8807,
      "conduit": 8808,
      "##phy": 8809,
      "explor": 8810,
      "Seine": 8811,
      "##hamed": 8812,
      "apparut": 8813,
      "risen": 8814,
      "permettre": 8815,
      "examin": 8816,
      "breathing": 8817,
      "##onnerre": 8818,
      "tournait": 8819,
      "masses": 8820,
      "dimanche": 8821,
      "Temple": 8822,
      "attentivement": 8823,
      "mercy": 8824,
      "abandonné": 8825,
      "furnished": 8826,
      "##urtle": 8827,
      "hypoth": 8828,
      "logis": 8829,
      "stirred": 8830,
      "German": 8831,
      "arrest": 8832,
      "Augustin": 8833,
      "volontiers": 8834,
      "néglig": 8835,
      "raisonnable": 8836,
      "vêtements": 8837,
      "bibliothè": 8838,
      "credit": 8839,
      "Cheminées": 8840,
      "Coppenole": 8841,
      "***": 8842,
      "Fro": 8843,
      "Nether": 8844,
      "Sure": 8845,
      "gaill": 8846,
      "hull": 8847,
      "jalous": 8848,
      "lourde": 8849,
      "mas": 8850,
      "rag": 8851,
      "sott": 8852,
      "test": 8853,
      "tén": 8854,
      "vil": 8855,
      "îles": 8856,
      "##oï": 8857,
      "##umb": 8858,
      "##vier": 8859,
      "##pers": 8860,
      "ens": 8861,
      "##ottes": 8862,
      "meal": 8863,
      "meurt": 8864,
      "##verne": 8865,
      "##idité": 8866,
      "aval": 8867,
      "plume": 8868,
      "stock": 8869,
      "abb": 8870,
      "amuse": 8871,
      "manage": 8872,
      "upstairs": 8873,
      "appré": 8874,
      "##uiss": 8875,
      "tear": 8876,
      "repres": 8877,
      "passèrent": 8878,
      "marché": 8879,
      "outre": 8880,
      "capt": 8881,
      "daylight": 8882,
      "empe": 8883,
      "indisc": 8884,
      "final": 8885,
      "toutefois": 8886,
      "chercha": 8887,
      "Stone": 8888,
      "égal": 8889,
      "Phil": 8890,
      "Roch": 8891,
      "comprenez": 8892,
      "Another": 8893,
      "careful": 8894,
      "province": 8895,
      "greve": 8896,
      "stopping": 8897,
      "##bourg": 8898,
      "torture": 8899,
      "modest": 8900,
      "accepted": 8901,
      "quarters": 8902,
      "freed": 8903,
      "Esp": 8904,
      "sinon": 8905,
      "marchand": 8906,
      "Craven": 8907,
      "découvert": 8908,
      "ébran": 8909,
      "troublé": 8910,
      "réflexions": 8911,
      "dissimul": 8912,
      "recovered": 8913,
      "Sunday": 8914,
      "linen": 8915,
      "clarté": 8916,
      "destruction": 8917,
      "enthousiasme": 8918,
      "bibliothèque": 8919,
      "Netherfield": 8920,
      "Cin": 8921,
      "Gerv": 8922,
      "Has": 8923,
      "Hope": 8924,
      "Im": 8925,
      "Sam": 8926,
      "luc": 8927,
      "nive": 8928,
      "naked": 8929,
      "owe": 8930,
      "poudre": 8931,
      "rense": 8932,
      "véc": 8933,
      "##set": 8934,
      "##oll": 8935,
      "##nés": 8936,
      "##gar": 8937,
      "##cro": 8938,
      "##anes": 8939,
      "##enth": 8940,
      "##stit": 8941,
      "##aye": 8942,
      "convent": 8943,
      "chand": 8944,
      "chiff": 8945,
      "chauff": 8946,
      "ashamed": 8947,
      "##acing": 8948,
      "##ulent": 8949,
      "##oléon": 8950,
      "##icien": 8951,
      "prai": 8952,
      "shown": 8953,
      "allonge": 8954,
      "wealth": 8955,
      "dise": 8956,
      "disappoint": 8957,
      "abond": 8958,
      "##ageait": 8959,
      "loi": 8960,
      "loint": 8961,
      "##ensions": 8962,
      "adj": 8963,
      "obv": 8964,
      "sport": 8965,
      "directed": 8966,
      "posa": 8967,
      "##ugn": 8968,
      "matel": 8969,
      "ordinary": 8970,
      "tremp": 8971,
      "approchait": 8972,
      "hautes": 8973,
      "annoncer": 8974,
      "naturelle": 8975,
      "résister": 8976,
      "##berg": 8977,
      "apparition": 8978,
      "tempête": 8979,
      "présenter": 8980,
      "affected": 8981,
      "procéd": 8982,
      "useful": 8983,
      "dressing": 8984,
      "request": 8985,
      "parfaite": 8986,
      "fermée": 8987,
      "politesse": 8988,
      "leading": 8989,
      "bird": 8990,
      "eleg": 8991,
      "siège": 8992,
      "experience": 8993,
      "épouvante": 8994,
      "particulier": 8995,
      "travailler": 8996,
      "affreuse": 8997,
      "enemies": 8998,
      "nerves": 8999,
      "démar": 9000,
      "Souvent": 9001,
      "Again": 9002,
      "truly": 9003,
      "terrified": 9004,
      "énergie": 9005,
      "cantinière": 9006,
      "catastrophe": 9007,
      "Hippolyte": 9008,
      "Frollo": 9009,
      "Bomb": 9010,
      "Cres": 9011,
      "Gaut": 9012,
      "Mason": 9013,
      "Marech": 9014,
      "buy": 9015,
      "cout": 9016,
      "gé": 9017,
      "gown": 9018,
      "lord": 9019,
      "page": 9020,
      "ratt": 9021,
      "viennent": 9022,
      "##iés": 9023,
      "##rale": 9024,
      "##lam": 9025,
      "##aert": 9026,
      "##how": 9027,
      "##will": 9028,
      "thorough": 9029,
      "##anine": 9030,
      "lap": 9031,
      "intr": 9032,
      "reappe": 9033,
      "##alf": 9034,
      "bearing": 9035,
      "##apt": 9036,
      "##aper": 9037,
      "##osen": 9038,
      "monot": 9039,
      "exceed": 9040,
      "song": 9041,
      "shaft": 9042,
      "allai": 9043,
      "##aker": 9044,
      "##ueuse": 9045,
      "pecul": 9046,
      "amused": 9047,
      "grant": 9048,
      "groupe": 9049,
      "##asted": 9050,
      "crater": 9051,
      "Quatre": 9052,
      "accueill": 9053,
      "expressed": 9054,
      "Enc": 9055,
      "prévenir": 9056,
      "downstairs": 9057,
      "scream": 9058,
      "opération": 9059,
      "##mbling": 9060,
      "pleins": 9061,
      "fermer": 9062,
      "pensé": 9063,
      "insc": 9064,
      "publi": 9065,
      "savant": 9066,
      "savage": 9067,
      "Grace": 9068,
      "subitement": 9069,
      "aimais": 9070,
      "##mberley": 9071,
      "occuper": 9072,
      "illum": 9073,
      "Dansaert": 9074,
      "Pemberley": 9075,
      "caché": 9076,
      "severe": 9077,
      "musique": 9078,
      "complain": 9079,
      "embraced": 9080,
      "sauvé": 9081,
      "sorrow": 9082,
      "briser": 9083,
      "rougit": 9084,
      "embarrassed": 9085,
      "Jupiter": 9086,
      "passeport": 9087,
      "trompé": 9088,
      "secoua": 9089,
      "mountains": 9090,
      "Pacifique": 9091,
      "Apres": 9092,
      "hâta": 9093,
      "température": 9094,
      "naufr": 9095,
      "channel": 9096,
      "mingled": 9097,
      "Duncan": 9098,
      "ceremon": 9099,
      "niveau": 9100,
      "Liver": 9101,
      "Out": 9102,
      "Old": 9103,
      "amp": 9104,
      "cot": 9105,
      "hed": 9106,
      "rat": 9107,
      "radeau": 9108,
      "##off": 9109,
      "##lamm": 9110,
      "##jou": 9111,
      "##ître": 9112,
      "##oub": 9113,
      "##aré": 9114,
      "##arne": 9115,
      "##ata": 9116,
      "##aises": 9117,
      "##rill": 9118,
      "bew": 9119,
      "wasn": 9120,
      "##agée": 9121,
      "trot": 9122,
      "dure": 9123,
      "fee": 9124,
      "mangé": 9125,
      "##chev": 9126,
      "touché": 9127,
      "##igné": 9128,
      "exprimer": 9129,
      "commune": 9130,
      "effor": 9131,
      "sentier": 9132,
      "scrup": 9133,
      "everyone": 9134,
      "ferais": 9135,
      "tenaient": 9136,
      "guests": 9137,
      "reflection": 9138,
      "cavern": 9139,
      "connaît": 9140,
      "Dev": 9141,
      "Grâce": 9142,
      "Prenez": 9143,
      "Stangers": 9144,
      "irre": 9145,
      "vitre": 9146,
      "fixement": 9147,
      "occupait": 9148,
      "provin": 9149,
      "essuy": 9150,
      "cabaret": 9151,
      "benef": 9152,
      "bourse": 9153,
      "demeurait": 9154,
      "ancienne": 9155,
      "essayer": 9156,
      "showing": 9157,
      "frequently": 9158,
      "atteint": 9159,
      "chasseur": 9160,
      "fishing": 9161,
      "conclusion": 9162,
      "chanter": 9163,
      "rappelait": 9164,
      "principal": 9165,
      "shadows": 9166,
      "information": 9167,
      "weakness": 9168,
      "pursued": 9169,
      "particularly": 9170,
      "cheek": 9171,
      "légèrement": 9172,
      "knocked": 9173,
      "dirigea": 9174,
      "exagger": 9175,
      "##umerous": 9176,
      "issue": 9177,
      "génére": 9178,
      "réclam": 9179,
      "Delouche": 9180,
      "cratère": 9181,
      "Maigrat": 9182,
      "décembre": 9183,
      "peculiar": 9184,
      "Liverpool": 9185,
      "Stangerson": 9186,
      "Auss": 9187,
      "PAR": 9188,
      "Vand": 9189,
      "bay": 9190,
      "cé": 9191,
      "fous": 9192,
      "loss": 9193,
      "mix": 9194,
      "nin": 9195,
      "ond": 9196,
      "oath": 9197,
      "raf": 9198,
      "sed": 9199,
      "##mar": 9200,
      "##yer": 9201,
      "##cut": 9202,
      "##IL": 9203,
      "##bid": 9204,
      "##ènes": 9205,
      "##ançon": 9206,
      "##anvier": 9207,
      "##chée": 9208,
      "rejet": 9209,
      "meur": 9210,
      "##vere": 9211,
      "conj": 9212,
      "chere": 9213,
      "chosen": 9214,
      "##acés": 9215,
      "staring": 9216,
      "stuff": 9217,
      "soient": 9218,
      "##uns": 9219,
      "size": 9220,
      "##aired": 9221,
      "##arted": 9222,
      "passaient": 9223,
      "coude": 9224,
      "mars": 9225,
      "coque": 9226,
      "clerc": 9227,
      "##onnée": 9228,
      "##ums": 9229,
      "knowledge": 9230,
      "##moins": 9231,
      "persons": 9232,
      "restaient": 9233,
      "##éric": 9234,
      "incon": 9235,
      "incomp": 9236,
      "déserte": 9237,
      "désormais": 9238,
      "chambres": 9239,
      "entrant": 9240,
      "premiere": 9241,
      "Dece": 9242,
      "related": 9243,
      "suivis": 9244,
      "tombée": 9245,
      "nouveaux": 9246,
      "placer": 9247,
      "façons": 9248,
      "remarquer": 9249,
      "respectable": 9250,
      "charmant": 9251,
      "kindness": 9252,
      "officers": 9253,
      "ruined": 9254,
      "Besançon": 9255,
      "breathe": 9256,
      "Adm": 9257,
      "blessure": 9258,
      "naturally": 9259,
      "éloigner": 9260,
      "eaten": 9261,
      "espérance": 9262,
      "hésita": 9263,
      "southern": 9264,
      "attract": 9265,
      "magistr": 9266,
      "formerly": 9267,
      "frisson": 9268,
      "uneasy": 9269,
      "uneasiness": 9270,
      "persuad": 9271,
      "ménage": 9272,
      "jumped": 9273,
      "Aucun": 9274,
      "floating": 9275,
      "hypocris": 9276,
      "convaincu": 9277,
      "procurator": 9278,
      "Pauvre": 9279,
      "Bombay": 9280,
      "Aussitôt": 9281,
      "AN": 9282,
      "Ferv": 9283,
      "Mill": 9284,
      "Nanine": 9285,
      "Sanse": 9286,
      "Ver": 9287,
      "Wait": 9288,
      "_A": 9289,
      "caisse": 9290,
      "dwe": 9291,
      "dict": 9292,
      "fiacre": 9293,
      "gh": 9294,
      "mout": 9295,
      "narr": 9296,
      "oser": 9297,
      "rust": 9298,
      "tail": 9299,
      "tels": 9300,
      "vib": 9301,
      "wake": 9302,
      "##gly": 9303,
      "thou": 9304,
      "##anmoins": 9305,
      "##issez": 9306,
      "##oms": 9307,
      "##urb": 9308,
      "##urse": 9309,
      "whale": 9310,
      "étinc": 9311,
      "meub": 9312,
      "##verina": 9313,
      "##agu": 9314,
      "chanc": 9315,
      "plants": 9316,
[...]
